{
    "!": 33,
    "!!": 4728,
    "!\"": 5116,
    "!)": 8684,
    "!âĢĿ": 4623,
    "\"": 34,
    "\")": 8495,
    "\",": 2858,
    "\".": 2786,
    "\".[": 8733,
    "\":": 4956,
    "\">": 9190,
    "#": 35,
    "##": 4648,
    "####": 8499,
    "$": 36,
    "%": 37,
    "%)": 6665,
    "%,": 8034,
    "%.": 7508,
    "&": 38,
    "'": 39,
    "',": 6330,
    "'.": 8393,
    "'d": 3019,
    "'ll": 2298,
    "'m": 1991,
    "'re": 1386,
    "'s": 426,
    "'t": 696,
    "'ve": 1850,
    "(": 40,
    "()": 5429,
    ")": 41,
    "))": 7583,
    "),": 905,
    ").": 829,
    "):": 3734,
    ");": 3005,
    "*": 42,
    "**": 2042,
    "***": 9954,
    "****": 4715,
    "********": 8794,
    "+": 43,
    "++": 7824,
    ",": 44,
    ",\"": 768,
    ",'": 5448,
    ",[": 5636,
    ",âĢĻ": 5984,
    ",âĢĿ": 682,
    "-": 45,
    "--": 879,
    "----": 1571,
    "--------": 2889,
    "----------------": 5373,
    "->": 9690,
    ".": 46,
    ".\"": 720,
    ".\"[": 7299,
    ".'": 4093,
    ".)": 2090,
    ".,": 1856,
    ".-": 8568,
    "..": 747,
    "...": 1453,
    "....": 3397,
    "........": 7442,
    ".[": 1068,
    ".âĢĻ": 4054,
    ".âĢĿ": 645,
    "/": 47,
    "//": 1662,
    "0": 48,
    "00": 451,
    "000": 941,
    "0000": 5806,
    "01": 5637,
    "02": 6932,
    "03": 6918,
    "04": 6869,
    "05": 5632,
    "06": 6581,
    "07": 6682,
    "08": 6568,
    "09": 6610,
    "1": 49,
    "10": 1323,
    "100": 3929,
    "11": 1618,
    "12": 1798,
    "13": 2203,
    "14": 2101,
    "15": 1931,
    "16": 2088,
    "17": 2313,
    "18": 2361,
    "19": 1587,
    "2": 50,
    "20": 1166,
    "200": 3009,
    "2014": 8482,
    "2015": 8882,
    "2016": 8588,
    "21": 3858,
    "22": 3115,
    "23": 3386,
    "24": 3210,
    "25": 2494,
    "26": 3661,
    "27": 3558,
    "28": 3781,
    "29": 3805,
    "3": 51,
    "30": 1842,
    "300": 7292,
    "31": 5242,
    "32": 4380,
    "33": 4009,
    "34": 4543,
    "35": 3654,
    "36": 4372,
    "37": 4672,
    "38": 4483,
    "39": 4796,
    "4": 52,
    "40": 2832,
    "400": 8006,
    "41": 5957,
    "42": 5767,
    "43": 5853,
    "44": 4335,
    "45": 3674,
    "46": 4998,
    "47": 4817,
    "48": 4667,
    "49": 4887,
    "5": 53,
    "50": 1528,
    "500": 4117,
    "51": 7852,
    "52": 7832,
    "53": 8023,
    "54": 7817,
    "55": 4677,
    "56": 7342,
    "57": 7080,
    "58": 7402,
    "59": 6849,
    "6": 54,
    "60": 2639,
    "600": 9242,
    "61": 9027,
    "62": 9015,
    "63": 8949,
    "64": 5513,
    "65": 5228,
    "66": 6058,
    "67": 6772,
    "68": 6984,
    "69": 8377,
    "7": 55,
    "70": 3990,
    "71": 9182,
    "72": 8640,
    "73": 9201,
    "74": 8639,
    "75": 4448,
    "76": 7804,
    "77": 5921,
    "78": 7216,
    "79": 8624,
    "8": 56,
    "80": 3188,
    "800": 8899,
    "81": 9868,
    "82": 9772,
    "83": 9524,
    "84": 9372,
    "85": 6226,
    "86": 6403,
    "87": 8118,
    "88": 5875,
    "89": 8184,
    "9": 57,
    "90": 4165,
    "91": 9723,
    "92": 9176,
    "93": 9165,
    "94": 9172,
    "95": 5510,
    "96": 7653,
    "97": 7632,
    "98": 7377,
    "99": 3025,
    ":": 58,
    "://": 2078,
    "::": 7807,
    ";": 59,
    "<": 60,
    "</": 7198,
    "<|endoftext|>": 256,
    "=": 61,
    "=\"": 5330,
    "==": 2501,
    "====": 4341,
    "========": 7483,
    ">": 62,
    ">>": 5540,
    "?": 63,
    "?\"": 3592,
    "??": 8691,
    "?âĢĿ": 2975,
    "@": 64,
    "A": 65,
    "AA": 4312,
    "AC": 3035,
    "AD": 3609,
    "AF": 9959,
    "AL": 2932,
    "ALL": 9797,
    "AM": 3289,
    "AN": 2166,
    "AND": 9081,
    "AP": 3658,
    "AR": 2354,
    "AS": 2389,
    "AT": 1902,
    "ATE": 7775,
    "ATO": 8027,
    "AY": 9971,
    "Ab": 5390,
    "About": 8485,
    "According": 3784,
    "Act": 9811,
    "Ad": 2548,
    "Add": 6314,
    "Advertisement": 3757,
    "After": 2981,
    "Al": 2614,
    "All": 3479,
    "Also": 7311,
    "Although": 6089,
    "Am": 5723,
    "Americ": 4617,
    "American": 6168,
    "An": 2030,
    "And": 1729,
    "Another": 5675,
    "Any": 7135,
    "App": 5771,
    "Ar": 3789,
    "Are": 9191,
    "Art": 8836,
    "As": 1545,
    "Ass": 8510,
    "At": 2692,
    "B": 66,
    "BA": 4254,
    "BC": 2311,
    "BI": 3449,
    "BM": 8952,
    "BO": 7864,
    "BS": 4427,
    "Back": 8312,
    "Be": 3694,
    "Because": 7424,
    "Before": 7874,
    "Bl": 4613,
    "Both": 8690,
    "But": 1302,
    "By": 3738,
    "C": 67,
    "CA": 7040,
    "CC": 4283,
    "CE": 7163,
    "CH": 4661,
    "CL": 5607,
    "CO": 9313,
    "CS": 7146,
    "Cal": 9861,
    "Can": 6197,
    "Ch": 2209,
    "Che": 8327,
    "Christ": 9683,
    "Cl": 4215,
    "Click": 9986,
    "Co": 7780,
    "Col": 7651,
    "Com": 7106,
    "Comp": 9203,
    "Con": 4325,
    "Cons": 8907,
    "Cont": 5739,
    "D": 68,
    "DA": 4850,
    "DP": 5587,
    "DS": 6670,
    "Dav": 8085,
    "David": 9293,
    "De": 5847,
    "Def": 9841,
    "Dem": 9345,
    "Des": 4904,
    "Despite": 6663,
    "Do": 5410,
    "Don": 3770,
    "Donald": 6468,
    "Dr": 7302,
    "During": 5924,
    "E": 69,
    "EA": 7572,
    "EC": 3773,
    "ED": 3011,
    "EE": 9075,
    "EL": 4072,
    "EM": 4544,
    "EN": 2719,
    "ENT": 5463,
    "EO": 3965,
    "EP": 7815,
    "ER": 1648,
    "ERS": 6117,
    "ES": 2573,
    "EST": 8558,
    "ET": 3792,
    "EW": 7212,
    "EX": 9615,
    "Ed": 7423,
    "El": 9412,
    "En": 6469,
    "Even": 5267,
    "Every": 5443,
    "Ex": 4186,
    "F": 70,
    "FA": 8298,
    "FC": 4385,
    "FF": 8699,
    "FL": 3380,
    "FO": 9643,
    "FP": 6624,
    "Facebook": 9010,
    "First": 5471,
    "Follow": 6070,
    "For": 1865,
    "Fr": 6738,
    "From": 5174,
    "G": 71,
    "GA": 9465,
    "GB": 4413,
    "GBT": 7044,
    "GE": 8565,
    "GO": 8469,
    "Get": 4327,
    "Getty": 7581,
    "Go": 4978,
    "Google": 9740,
    "H": 72,
    "HA": 7706,
    "HL": 5112,
    "HS": 7543,
    "HT": 9086,
    "He": 1378,
    "Her": 8740,
    "Here": 4097,
    "His": 5662,
    "How": 2388,
    "However": 4205,
    "Hz": 9786,
    "I": 73,
    "IA": 3882,
    "IC": 3138,
    "ID": 3760,
    "IF": 6454,
    "IG": 5477,
    "II": 5859,
    "IL": 4192,
    "IM": 5177,
    "IN": 1971,
    "ING": 3977,
    "ION": 5356,
    "IP": 5270,
    "IR": 6444,
    "IS": 2148,
    "IT": 3093,
    "IV": 5247,
    "If": 1565,
    "Im": 3407,
    "Image": 4550,
    "In": 788,
    "Ind": 5645,
    "Inst": 7473,
    "Int": 6792,
    "Is": 3716,
    "It": 927,
    "J": 74,
    "John": 7000,
    "Just": 5303,
    "K": 75,
    "Ke": 9059,
    "L": 76,
    "LA": 7418,
    "LC": 7765,
    "LE": 5351,
    "Last": 5069,
    "Le": 4778,
    "Let": 5342,
    "Like": 6696,
    "Look": 8163,
    "M": 77,
    "MA": 5972,
    "ML": 7178,
    "MP": 7343,
    "MS": 7381,
    "Man": 6329,
    "Many": 6018,
    "Mar": 7810,
    "May": 6821,
    "Mc": 8244,
    "Me": 8053,
    "Mean": 7689,
    "Meanwhile": 7911,
    "Mod": 9938,
    "More": 4775,
    "Most": 6157,
    "Mr": 4408,
    "Ms": 9645,
    "Mus": 9706,
    "My": 3688,
    "N": 78,
    "NA": 4566,
    "NC": 6480,
    "ND": 5289,
    "NN": 4675,
    "NS": 9126,
    "Ne": 7890,
    "New": 3750,
    "News": 8520,
    "No": 3351,
    "Not": 4024,
    "Note": 8818,
    "Now": 3524,
    "O": 79,
    "OC": 6378,
    "OD": 5948,
    "OK": 9244,
    "OL": 4522,
    "OM": 3772,
    "ON": 2071,
    "OP": 3192,
    "OR": 2763,
    "ORE": 6592,
    "OS": 3055,
    "OT": 3556,
    "OU": 4092,
    "OW": 5385,
    "Ob": 6367,
    "Of": 5237,
    "Off": 7427,
    "Oh": 6026,
    "On": 2049,
    "Once": 7229,
    "One": 2827,
    "Or": 6803,
    "Other": 5976,
    "Our": 4848,
    "Out": 9753,
    "Over": 5900,
    "P": 80,
    "PA": 4533,
    "PC": 8395,
    "PD": 5673,
    "PG": 8204,
    "PM": 8198,
    "PP": 8838,
    "PR": 5745,
    "PS": 4460,
    "PU": 6332,
    "Part": 8597,
    "Pe": 5697,
    "People": 6712,
    "Per": 6593,
    "Ph": 2582,
    "Phone": 5663,
    "Photo": 4989,
    "Pl": 4878,
    "Please": 8773,
    "Pol": 6412,
    "Police": 7200,
    "Post": 7941,
    "Pr": 7680,
    "Pre": 9802,
    "President": 8061,
    "Pro": 3886,
    "Q": 81,
    "Qu": 6171,
    "R": 82,
    "RA": 4929,
    "RC": 8549,
    "RE": 2108,
    "RI": 8340,
    "RL": 9079,
    "RS": 8041,
    "Re": 3475,
    "Read": 5129,
    "Rec": 7688,
    "Ref": 8180,
    "Reg": 9977,
    "Rel": 6922,
    "Related": 8636,
    "Rem": 9929,
    "Rep": 5799,
    "Res": 5896,
    "Reuters": 9513,
    "Russ": 8599,
    "S": 83,
    "SA": 4132,
    "SC": 9969,
    "SL": 9365,
    "SP": 4706,
    "SS": 5686,
    "ST": 4281,
    "Sc": 4044,
    "Script": 8579,
    "Se": 5888,
    "Sec": 7258,
    "See": 6365,
    "Sen": 8498,
    "Sh": 2915,
    "She": 3201,
    "Sim": 9393,
    "Since": 5536,
    "Sm": 8359,
    "So": 2126,
    "Some": 3865,
    "Source": 8889,
    "Sp": 5538,
    "Spe": 6103,
    "St": 1498,
    "Star": 8081,
    "Ste": 8677,
    "Step": 9630,
    "Still": 9175,
    "Story": 9641,
    "Sub": 7923,
    "T": 84,
    "TA": 5982,
    "TC": 5065,
    "TER": 9739,
    "TH": 5405,
    "TP": 9665,
    "TR": 9978,
    "TS": 6034,
    "TV": 5695,
    "Te": 6991,
    "Th": 794,
    "That": 2135,
    "The": 446,
    "Then": 6246,
    "There": 1641,
    "These": 4306,
    "They": 2521,
    "This": 1204,
    "Those": 7990,
    "Though": 9271,
    "To": 2668,
    "Today": 7364,
    "Tr": 3082,
    "Trump": 4939,
    "Tube": 6012,
    "Two": 6697,
    "Ty": 9511,
    "U": 85,
    "UL": 7730,
    "UN": 8223,
    "UR": 7129,
    "US": 3072,
    "UST": 9019,
    "UT": 5756,
    "Un": 3846,
    "Under": 8342,
    "Up": 5354,
    "Us": 7843,
    "V": 86,
    "VD": 9603,
    "VE": 8996,
    "VER": 6968,
    "View": 9749,
    "W": 87,
    "Watch": 9496,
    "We": 1016,
    "Well": 5705,
    "Wh": 1150,
    "What": 2001,
    "When": 2070,
    "Where": 8552,
    "While": 3049,
    "Who": 8145,
    "Why": 5016,
    "Will": 8385,
    "With": 2964,
    "X": 88,
    "Y": 89,
    "Yes": 6130,
    "Yet": 9186,
    "You": 1811,
    "Your": 8886,
    "Z": 90,
    "[": 91,
    "\\": 92,
    "]": 93,
    "],": 5835,
    "].": 5076,
    "][": 2987,
    "^": 94,
    "_": 95,
    "__": 1346,
    "____": 2449,
    "________": 4326,
    "________________": 7955,
    "`": 96,
    "a": 97,
    "aa": 9456,
    "ab": 406,
    "abama": 7497,
    "abb": 5161,
    "abet": 9952,
    "abeth": 8786,
    "abil": 8275,
    "abilities": 5722,
    "ability": 1889,
    "abin": 5815,
    "abinet": 8045,
    "abis": 6789,
    "able": 573,
    "abled": 5873,
    "ables": 3376,
    "ably": 1289,
    "abor": 3206,
    "abs": 7829,
    "aby": 4106,
    "ac": 313,
    "acc": 6742,
    "acco": 9124,
    "ace": 558,
    "acebook": 2300,
    "aced": 2283,
    "aces": 2123,
    "ach": 630,
    "ache": 5778,
    "ached": 2446,
    "achel": 9814,
    "acher": 9864,
    "aches": 3504,
    "aching": 8024,
    "achus": 8134,
    "achusetts": 8259,
    "acing": 4094,
    "acity": 4518,
    "ack": 449,
    "acked": 7320,
    "acket": 9007,
    "acking": 6815,
    "acks": 5120,
    "acle": 6241,
    "acon": 8325,
    "act": 509,
    "acter": 6064,
    "action": 2602,
    "actions": 7462,
    "active": 7576,
    "acts": 9471,
    "acy": 1481,
    "ad": 325,
    "ada": 4559,
    "add": 3272,
    "ade": 673,
    "aded": 5175,
    "adel": 6640,
    "adelph": 7316,
    "adelphia": 7384,
    "adem": 3518,
    "ader": 5141,
    "aders": 9925,
    "ades": 2249,
    "adi": 9790,
    "ading": 4362,
    "adium": 5100,
    "ado": 3973,
    "ador": 6062,
    "adow": 5748,
    "ads": 7051,
    "ady": 4603,
    "ae": 4243,
    "aed": 7517,
    "aeda": 8985,
    "ael": 2728,
    "af": 1936,
    "afe": 9239,
    "aff": 1441,
    "after": 9567,
    "ag": 370,
    "aga": 9129,
    "agan": 6394,
    "age": 507,
    "aged": 1812,
    "agement": 2972,
    "ager": 2407,
    "agers": 6094,
    "ages": 1125,
    "agg": 8374,
    "agger": 9949,
    "agh": 9361,
    "agic": 9056,
    "aging": 2574,
    "agn": 4935,
    "ago": 3381,
    "agon": 3488,
    "agram": 7247,
    "ags": 4234,
    "ague": 1744,
    "agues": 5062,
    "ah": 993,
    "ahu": 9509,
    "ai": 1961,
    "aid": 1968,
    "aign": 1432,
    "ail": 611,
    "ailed": 9467,
    "ails": 1913,
    "aily": 2876,
    "aim": 1285,
    "ain": 392,
    "aine": 5274,
    "ained": 1497,
    "aining": 1569,
    "ains": 1372,
    "aint": 3641,
    "aints": 5751,
    "air": 991,
    "aire": 7016,
    "airs": 3514,
    "ais": 9166,
    "ait": 4652,
    "aith": 3964,
    "aj": 1133,
    "ajor": 1345,
    "ak": 471,
    "aka": 8574,
    "ake": 540,
    "aked": 4207,
    "aken": 1654,
    "aker": 3022,
    "akers": 3330,
    "akes": 1114,
    "akh": 9580,
    "aki": 9687,
    "aking": 827,
    "akistan": 4614,
    "aks": 4290,
    "al": 283,
    "ala": 6028,
    "ald": 1785,
    "ale": 1055,
    "aled": 5687,
    "ales": 2027,
    "alf": 1556,
    "ali": 7354,
    "alia": 8893,
    "alian": 6487,
    "aling": 5559,
    "ality": 1542,
    "alk": 958,
    "all": 447,
    "allas": 6798,
    "alle": 6754,
    "alled": 3031,
    "alling": 8464,
    "alls": 5338,
    "ally": 454,
    "alo": 6962,
    "als": 866,
    "alse": 4090,
    "alt": 2507,
    "alth": 1074,
    "alties": 9983,
    "alty": 6285,
    "aly": 3396,
    "alysis": 9878,
    "am": 324,
    "ama": 1280,
    "amac": 8760,
    "amacare": 8877,
    "amb": 3560,
    "amber": 7839,
    "ame": 492,
    "amed": 2028,
    "ament": 1854,
    "amer": 2177,
    "ames": 1009,
    "ami": 7921,
    "amily": 6639,
    "amin": 6059,
    "aming": 3228,
    "amm": 5683,
    "ammed": 8610,
    "amous": 9972,
    "amp": 672,
    "ampion": 5869,
    "ampions": 3535,
    "ampionship": 4579,
    "ample": 1473,
    "ams": 1849,
    "amsung": 8048,
    "an": 273,
    "ana": 2133,
    "anc": 1156,
    "ance": 606,
    "anced": 3214,
    "ances": 1825,
    "anch": 3463,
    "anche": 5376,
    "anchester": 7474,
    "ancial": 2483,
    "ancing": 4981,
    "ancouver": 8214,
    "ancy": 4736,
    "and": 389,
    "anda": 4853,
    "andal": 6373,
    "ander": 4318,
    "andom": 4558,
    "andon": 4669,
    "ands": 1697,
    "ane": 1576,
    "anes": 6608,
    "ang": 667,
    "ange": 878,
    "anged": 5685,
    "angel": 8471,
    "anger": 2551,
    "angers": 5858,
    "anges": 6874,
    "anging": 4727,
    "angle": 9876,
    "angu": 2327,
    "ani": 3164,
    "ania": 5017,
    "aniel": 5816,
    "aning": 7931,
    "anish": 6437,
    "ank": 957,
    "anks": 2962,
    "ann": 1594,
    "anna": 8366,
    "annel": 4635,
    "annels": 8769,
    "annon": 9647,
    "anny": 7409,
    "ano": 5031,
    "ans": 493,
    "ansas": 5952,
    "ansion": 5219,
    "ant": 420,
    "anted": 4594,
    "antic": 7741,
    "antly": 3884,
    "ants": 1207,
    "any": 1010,
    "ao": 6929,
    "ap": 462,
    "apan": 2576,
    "ape": 2167,
    "aped": 5786,
    "aper": 2032,
    "apers": 5244,
    "apes": 7246,
    "aph": 3113,
    "aping": 8891,
    "apolis": 9600,
    "app": 1322,
    "apped": 4865,
    "apping": 5648,
    "appy": 8189,
    "aps": 1580,
    "apse": 6872,
    "apt": 2865,
    "apter": 5603,
    "ar": 285,
    "ara": 3446,
    "arant": 4696,
    "aration": 9789,
    "arc": 2436,
    "arch": 977,
    "archy": 9097,
    "ard": 458,
    "arden": 6308,
    "ards": 1443,
    "are": 530,
    "ared": 1121,
    "aren": 5162,
    "arent": 1547,
    "ares": 3706,
    "aret": 8477,
    "arg": 860,
    "arge": 1201,
    "argo": 8903,
    "ari": 3262,
    "aria": 9708,
    "arian": 3413,
    "aries": 3100,
    "arily": 3007,
    "aring": 1604,
    "ario": 4517,
    "arity": 6979,
    "ark": 676,
    "arks": 5158,
    "arl": 5970,
    "arlier": 7903,
    "arly": 872,
    "arm": 1863,
    "arms": 8526,
    "arn": 5963,
    "aron": 7324,
    "arp": 5576,
    "arr": 3332,
    "arrass": 8220,
    "arre": 8880,
    "arry": 6888,
    "ars": 943,
    "arsh": 5078,
    "art": 428,
    "arter": 2289,
    "arters": 6067,
    "arth": 3075,
    "artment": 1681,
    "arts": 9825,
    "ary": 557,
    "as": 292,
    "asant": 9562,
    "asc": 3149,
    "ase": 624,
    "ased": 824,
    "aser": 6885,
    "ases": 1436,
    "ash": 1137,
    "ashed": 5182,
    "ashes": 7631,
    "ashing": 1852,
    "ashington": 2095,
    "ashion": 5521,
    "asing": 2145,
    "asion": 7786,
    "ask": 2284,
    "aska": 7783,
    "asks": 6860,
    "ason": 816,
    "asons": 2546,
    "asp": 5653,
    "ass": 576,
    "assador": 8965,
    "assy": 9832,
    "ast": 469,
    "aster": 1861,
    "astern": 5854,
    "asters": 7143,
    "astic": 3496,
    "asts": 7023,
    "asty": 9310,
    "asure": 6048,
    "asury": 9530,
    "asy": 4510,
    "at": 267,
    "ata": 1147,
    "atar": 9222,
    "atch": 1007,
    "ate": 369,
    "ated": 517,
    "ateg": 2549,
    "ategy": 3893,
    "atell": 6481,
    "ately": 1264,
    "ater": 733,
    "ateral": 9819,
    "aterial": 2620,
    "atern": 9545,
    "ates": 675,
    "atever": 3554,
    "atform": 3165,
    "ath": 833,
    "athan": 6158,
    "ather": 1030,
    "athered": 7820,
    "athy": 7619,
    "ati": 6764,
    "atic": 2029,
    "atically": 4495,
    "ating": 800,
    "ation": 343,
    "ational": 789,
    "ations": 590,
    "ative": 854,
    "atively": 9934,
    "atives": 2632,
    "ato": 5690,
    "ator": 1543,
    "ators": 1981,
    "atory": 2939,
    "ats": 1656,
    "att": 2217,
    "attle": 3874,
    "atur": 2382,
    "atural": 2715,
    "aturally": 7554,
    "aturday": 3123,
    "ature": 1357,
    "atures": 5271,
    "au": 555,
    "aud": 3668,
    "aug": 7017,
    "augh": 1557,
    "aught": 3337,
    "aughter": 3580,
    "aul": 2196,
    "ault": 2125,
    "aun": 7100,
    "aur": 2854,
    "aus": 7868,
    "ause": 669,
    "aut": 2531,
    "author": 9721,
    "av": 623,
    "ava": 4745,
    "aval": 8743,
    "ave": 1026,
    "aved": 9392,
    "aven": 5125,
    "aver": 9228,
    "aves": 3294,
    "aving": 2637,
    "avor": 6750,
    "avy": 2905,
    "aw": 695,
    "awa": 6625,
    "aware": 8935,
    "away": 8060,
    "awn": 5060,
    "ax": 956,
    "axy": 6975,
    "ay": 319,
    "ayer": 5146,
    "ayers": 6538,
    "aying": 8101,
    "aylor": 6758,
    "ays": 567,
    "az": 1038,
    "aza": 6095,
    "aze": 6756,
    "azi": 6749,
    "azine": 4860,
    "azing": 4331,
    "azon": 4656,
    "azz": 7754,
    "b": 98,
    "ba": 7687,
    "back": 1803,
    "backs": 8858,
    "bal": 7549,
    "ball": 1723,
    "ban": 3411,
    "band": 3714,
    "bar": 6603,
    "base": 9736,
    "based": 2792,
    "be": 1342,
    "bec": 8191,
    "bed": 3102,
    "bel": 6722,
    "bell": 7894,
    "ber": 519,
    "bered": 9657,
    "berg": 3555,
    "berry": 9283,
    "bers": 1155,
    "bert": 4364,
    "bi": 8674,
    "bing": 9933,
    "bit": 2618,
    "bits": 9757,
    "bl": 2894,
    "ble": 900,
    "bn": 8307,
    "bo": 2385,
    "board": 3715,
    "body": 2360,
    "bon": 3943,
    "book": 1806,
    "bor": 2700,
    "born": 6372,
    "bour": 4802,
    "bow": 9279,
    "box": 3809,
    "boy": 6761,
    "br": 1696,
    "bre": 4744,
    "break": 9303,
    "bridge": 9008,
    "bro": 7586,
    "bs": 1564,
    "bum": 3740,
    "bur": 6072,
    "burg": 6747,
    "burgh": 8013,
    "bury": 9554,
    "but": 4591,
    "by": 1540,
    "c": 99,
    "ca": 7999,
    "called": 5930,
    "can": 5914,
    "car": 7840,
    "care": 5769,
    "case": 8466,
    "cast": 2684,
    "cc": 532,
    "ccess": 1519,
    "ccording": 2413,
    "ce": 347,
    "cean": 5445,
    "ced": 766,
    "cedented": 9705,
    "ceed": 2983,
    "ceived": 6664,
    "cel": 5511,
    "celer": 6986,
    "cell": 4230,
    "cember": 2943,
    "cent": 1013,
    "cept": 1040,
    "ception": 4733,
    "ceptions": 9588,
    "cer": 1049,
    "cers": 7048,
    "certain": 6549,
    "ces": 724,
    "cess": 969,
    "cest": 9684,
    "ch": 355,
    "chain": 7507,
    "chan": 3607,
    "change": 3847,
    "che": 2565,
    "ched": 1649,
    "chen": 6452,
    "cher": 4148,
    "chers": 6599,
    "ches": 2098,
    "chie": 2888,
    "child": 9696,
    "chn": 1266,
    "cho": 6425,
    "chool": 1167,
    "ci": 1044,
    "cial": 2492,
    "cially": 1972,
    "cience": 4277,
    "cient": 3655,
    "cies": 3042,
    "cific": 8388,
    "cil": 2523,
    "cing": 2117,
    "cious": 5172,
    "ciples": 7057,
    "ck": 726,
    "cknow": 4748,
    "cks": 4859,
    "cl": 1249,
    "claim": 8606,
    "class": 5392,
    "cle": 3016,
    "cles": 7705,
    "cling": 7737,
    "clus": 2788,
    "co": 1300,
    "coh": 5215,
    "cohol": 5585,
    "coin": 3383,
    "col": 5506,
    "com": 908,
    "come": 3070,
    "comes": 9018,
    "coming": 4359,
    "con": 1048,
    "conf": 8844,
    "conom": 1274,
    "cons": 5988,
    "const": 9767,
    "cont": 4152,
    "core": 8266,
    "cos": 5961,
    "cover": 8612,
    "cow": 7066,
    "cr": 7340,
    "craft": 3723,
    "crib": 9094,
    "cript": 6994,
    "cription": 7971,
    "ct": 334,
    "ctic": 9001,
    "ction": 652,
    "ctions": 2963,
    "ctor": 2647,
    "ctors": 4590,
    "cul": 3724,
    "cus": 7751,
    "cut": 9058,
    "cy": 963,
    "d": 100,
    "da": 7608,
    "date": 6007,
    "dated": 8840,
    "day": 738,
    "dd": 2086,
    "dden": 4966,
    "de": 3419,
    "ded": 9351,
    "def": 6066,
    "dem": 8272,
    "den": 5257,
    "der": 1146,
    "des": 8666,
    "dis": 6317,
    "dit": 8637,
    "div": 9633,
    "dney": 9053,
    "do": 4664,
    "dog": 8950,
    "dom": 3889,
    "don": 9194,
    "door": 9024,
    "down": 2914,
    "dri": 8698,
    "dro": 6897,
    "du": 654,
    "duc": 6326,
    "duct": 2470,
    "dule": 5916,
    "dy": 9941,
    "e": 101,
    "ead": 1310,
    "eah": 4951,
    "eal": 2229,
    "eals": 9547,
    "ean": 3894,
    "ear": 465,
    "earch": 4108,
    "eared": 3161,
    "earing": 7276,
    "ears": 4445,
    "eb": 1891,
    "ec": 756,
    "ecause": 3058,
    "ech": 2677,
    "ect": 500,
    "ection": 4115,
    "ective": 8493,
    "ecut": 8257,
    "ecutive": 9045,
    "ed": 277,
    "edd": 5770,
    "eder": 5350,
    "ederal": 1808,
    "ederation": 9287,
    "edia": 5562,
    "eding": 8819,
    "eds": 5760,
    "edy": 6214,
    "ee": 1554,
    "eed": 2438,
    "een": 8343,
    "ees": 2660,
    "ef": 955,
    "eff": 3208,
    "efully": 6519,
    "eg": 3018,
    "egr": 3458,
    "ek": 911,
    "eks": 2321,
    "el": 425,
    "ela": 9046,
    "eland": 7771,
    "elect": 7781,
    "eless": 5061,
    "elf": 8177,
    "eline": 4355,
    "ell": 840,
    "ellect": 6489,
    "ellig": 2724,
    "elligence": 3107,
    "ellow": 5965,
    "elly": 5805,
    "els": 1504,
    "elson": 9400,
    "elt": 2083,
    "em": 414,
    "eman": 7982,
    "ember": 1588,
    "emed": 9285,
    "emen": 7411,
    "emic": 9995,
    "employ": 5855,
    "empt": 1731,
    "ems": 7047,
    "en": 269,
    "ena": 6411,
    "ence": 586,
    "enced": 5296,
    "ences": 2958,
    "encies": 3751,
    "encing": 9013,
    "ency": 1332,
    "end": 441,
    "enda": 6023,
    "ended": 1716,
    "ender": 2243,
    "enders": 7073,
    "ending": 1490,
    "endment": 5416,
    "ends": 2586,
    "ene": 1682,
    "ened": 2900,
    "ener": 904,
    "enez": 9234,
    "eng": 1601,
    "enge": 3348,
    "enger": 6129,
    "engers": 8123,
    "ength": 3969,
    "ening": 2988,
    "enn": 1710,
    "ennis": 9205,
    "enny": 8138,
    "ens": 636,
    "ense": 1066,
    "enses": 4909,
    "ension": 3231,
    "ensions": 5677,
    "ensity": 6804,
    "ensive": 1813,
    "ensus": 6572,
    "ent": 300,
    "ented": 4233,
    "enter": 9299,
    "enth": 7833,
    "ential": 1721,
    "entially": 3227,
    "ention": 1158,
    "ently": 2180,
    "ents": 751,
    "enture": 6037,
    "enty": 3663,
    "ep": 527,
    "epend": 2411,
    "ependent": 7892,
    "eping": 7168,
    "equ": 4622,
    "er": 264,
    "era": 7438,
    "eral": 1536,
    "erc": 3268,
    "ere": 563,
    "ered": 1099,
    "eremy": 9755,
    "erence": 1929,
    "erences": 6381,
    "erent": 9693,
    "erest": 1198,
    "erg": 8991,
    "eria": 9779,
    "eries": 8846,
    "ering": 1340,
    "erman": 1953,
    "ern": 1524,
    "ero": 3702,
    "erous": 5119,
    "erry": 3800,
    "ers": 360,
    "erson": 910,
    "ert": 1977,
    "ertain": 1456,
    "erted": 8878,
    "erts": 9286,
    "erv": 715,
    "erve": 3237,
    "erved": 8040,
    "ery": 2247,
    "es": 276,
    "esc": 6488,
    "ese": 2849,
    "esh": 8484,
    "esome": 6105,
    "ess": 411,
    "essed": 7405,
    "essee": 9542,
    "ession": 2968,
    "essions": 5621,
    "essor": 5986,
    "est": 386,
    "ested": 9461,
    "ester": 8196,
    "estern": 2959,
    "esters": 5788,
    "estic": 4222,
    "estival": 5794,
    "ests": 2716,
    "esty": 8908,
    "esy": 7441,
    "et": 322,
    "etary": 7649,
    "eter": 2595,
    "eters": 8954,
    "eth": 3104,
    "ethe": 9532,
    "ether": 6831,
    "etic": 5486,
    "etime": 7849,
    "etro": 3718,
    "etroit": 6429,
    "ets": 1054,
    "ett": 3257,
    "ette": 6036,
    "etts": 7953,
    "ety": 2864,
    "ev": 1982,
    "even": 9760,
    "ever": 983,
    "everal": 7521,
    "evin": 5911,
    "ew": 561,
    "ex": 1118,
    "ext": 3211,
    "ey": 4759,
    "ez": 7245,
    "f": 102,
    "face": 2922,
    "fall": 7642,
    "fare": 9202,
    "fast": 7190,
    "fe": 5111,
    "fect": 2533,
    "fer": 2554,
    "ference": 4624,
    "ff": 497,
    "field": 3037,
    "fire": 6925,
    "fl": 3307,
    "flix": 8759,
    "fol": 9164,
    "foot": 6630,
    "for": 1625,
    "force": 2982,
    "ford": 3451,
    "fore": 773,
    "form": 711,
    "formation": 4834,
    "fort": 3389,
    "fortunately": 6300,
    "found": 7823,
    "fr": 8096,
    "free": 5766,
    "friend": 6547,
    "from": 7525,
    "front": 7694,
    "ft": 717,
    "fter": 620,
    "ful": 919,
    "fully": 2837,
    "fund": 9039,
    "g": 103,
    "ga": 4963,
    "game": 6453,
    "gan": 942,
    "gar": 4967,
    "ge": 479,
    "ged": 1934,
    "gen": 4197,
    "gency": 4604,
    "gender": 6945,
    "gener": 8427,
    "gent": 6149,
    "geon": 8635,
    "ger": 1387,
    "gered": 9824,
    "gers": 5020,
    "gery": 6875,
    "ges": 3089,
    "gest": 2976,
    "get": 1134,
    "gether": 1898,
    "gg": 1002,
    "ggest": 1770,
    "gh": 464,
    "ghan": 4480,
    "gia": 6056,
    "gin": 1619,
    "ging": 2708,
    "gl": 5367,
    "gment": 5609,
    "gn": 5085,
    "go": 2111,
    "going": 4588,
    "gor": 6721,
    "gorith": 7410,
    "gr": 887,
    "gram": 1247,
    "greg": 6500,
    "gress": 1781,
    "ground": 2971,
    "gu": 5192,
    "gun": 7714,
    "gy": 1283,
    "gypt": 5035,
    "h": 104,
    "ha": 3147,
    "hab": 5630,
    "ham": 2570,
    "han": 6987,
    "hand": 5325,
    "haps": 2560,
    "har": 9112,
    "hard": 9722,
    "hatt": 9662,
    "he": 259,
    "head": 2218,
    "heast": 8232,
    "hed": 703,
    "hedul": 5022,
    "heim": 8863,
    "hel": 2741,
    "held": 9355,
    "helsea": 8901,
    "hem": 4621,
    "hen": 857,
    "hens": 4974,
    "hent": 7492,
    "her": 367,
    "here": 1463,
    "hered": 5650,
    "herent": 7690,
    "hern": 2621,
    "hers": 1909,
    "hes": 1008,
    "hesis": 8916,
    "hest": 3477,
    "het": 3158,
    "hetic": 6450,
    "hi": 5006,
    "hib": 3318,
    "high": 8942,
    "hing": 674,
    "hip": 1006,
    "hips": 6433,
    "ho": 8067,
    "hod": 2444,
    "hold": 3038,
    "holders": 9610,
    "hood": 2641,
    "hop": 8879,
    "host": 5802,
    "hot": 8608,
    "hour": 8453,
    "house": 4493,
    "how": 4657,
    "ht": 5449,
    "html": 9458,
    "http": 4119,
    "https": 8068,
    "hus": 6651,
    "hy": 5651,
    "i": 105,
    "ia": 528,
    "iability": 8655,
    "iable": 3801,
    "iac": 9807,
    "ial": 495,
    "ially": 1728,
    "iam": 3033,
    "iami": 6672,
    "iams": 5205,
    "ian": 644,
    "iana": 7248,
    "iance": 3861,
    "iano": 9128,
    "ians": 1399,
    "iant": 3080,
    "ias": 5275,
    "iat": 6084,
    "iate": 8982,
    "iation": 4288,
    "ib": 585,
    "iber": 1821,
    "ibilities": 7523,
    "ibility": 2226,
    "ible": 893,
    "ibly": 3004,
    "ibr": 3247,
    "ibrary": 4665,
    "ic": 293,
    "ica": 4019,
    "icago": 3942,
    "ical": 592,
    "ically": 1123,
    "ican": 6325,
    "icate": 7691,
    "icated": 3439,
    "ication": 4932,
    "ications": 4842,
    "ice": 502,
    "iced": 3873,
    "icer": 7237,
    "ices": 1093,
    "ich": 485,
    "ici": 4676,
    "icial": 4224,
    "ician": 6287,
    "icians": 4291,
    "icide": 5002,
    "iciency": 6753,
    "icient": 3523,
    "icing": 6075,
    "icious": 6290,
    "icip": 4360,
    "icism": 9464,
    "icit": 3935,
    "icity": 8734,
    "ick": 657,
    "icken": 7095,
    "icket": 8417,
    "icking": 8323,
    "icks": 3312,
    "icle": 1623,
    "icles": 3099,
    "ico": 3198,
    "icon": 4814,
    "icro": 2516,
    "ics": 877,
    "ict": 702,
    "icted": 5173,
    "iction": 2950,
    "ictions": 8504,
    "icult": 2089,
    "icy": 4684,
    "id": 311,
    "ida": 3344,
    "iday": 2225,
    "idd": 1637,
    "idden": 5283,
    "iddle": 2322,
    "ide": 489,
    "ided": 1384,
    "idel": 5732,
    "idelines": 7701,
    "idence": 1675,
    "idency": 7479,
    "ident": 661,
    "idents": 3044,
    "ideo": 6259,
    "ider": 1502,
    "idered": 3017,
    "idering": 5067,
    "iders": 3916,
    "ides": 1503,
    "idespread": 7970,
    "idge": 3160,
    "iding": 2486,
    "ids": 2048,
    "ie": 448,
    "ied": 822,
    "ief": 1906,
    "iel": 8003,
    "ield": 1218,
    "ien": 1988,
    "ience": 1188,
    "iences": 8708,
    "ient": 1233,
    "ients": 2544,
    "ier": 1203,
    "ierce": 9543,
    "iers": 3244,
    "ies": 439,
    "iest": 6109,
    "iet": 1154,
    "ieties": 8905,
    "iety": 1841,
    "iev": 9573,
    "iew": 810,
    "if": 368,
    "ife": 902,
    "ifer": 7327,
    "ifest": 8277,
    "iff": 732,
    "iffs": 9661,
    "ific": 851,
    "ification": 3054,
    "ifications": 7363,
    "ified": 1544,
    "ifies": 7727,
    "iform": 7042,
    "ift": 2349,
    "iful": 4449,
    "ify": 2072,
    "ifying": 3996,
    "ig": 328,
    "igan": 4907,
    "igate": 9761,
    "igation": 7110,
    "igen": 7816,
    "igenous": 9890,
    "iger": 6518,
    "igg": 6870,
    "igh": 395,
    "ight": 435,
    "ighter": 4977,
    "ighters": 5560,
    "ights": 2955,
    "igious": 9651,
    "ign": 554,
    "igned": 4133,
    "igr": 3155,
    "igrant": 8241,
    "igrants": 4720,
    "igration": 3679,
    "igure": 6949,
    "ih": 4438,
    "ihad": 8314,
    "ii": 6345,
    "ij": 2465,
    "ijing": 8789,
    "ijuana": 4063,
    "ik": 1217,
    "ika": 9295,
    "ike": 510,
    "ikes": 8170,
    "iki": 9347,
    "il": 351,
    "ila": 8730,
    "ilar": 1910,
    "ilarly": 7319,
    "ild": 692,
    "ile": 584,
    "iled": 3979,
    "iler": 7658,
    "iles": 3414,
    "iley": 8989,
    "ili": 2301,
    "iliar": 4524,
    "ilies": 3534,
    "iling": 4609,
    "ilipp": 7854,
    "ilit": 5866,
    "ilities": 2541,
    "ility": 916,
    "ill": 356,
    "illa": 5121,
    "illance": 6136,
    "ille": 3111,
    "illed": 3239,
    "iller": 4532,
    "illing": 4282,
    "illion": 950,
    "ills": 2638,
    "illy": 6052,
    "ils": 5028,
    "ilt": 2214,
    "ilton": 7760,
    "ilty": 5909,
    "ily": 805,
    "im": 323,
    "ima": 7407,
    "imal": 5099,
    "imate": 1734,
    "imately": 3119,
    "imb": 4943,
    "ime": 524,
    "iment": 2924,
    "iments": 6744,
    "imes": 959,
    "imin": 3143,
    "iminal": 3401,
    "imm": 8211,
    "imore": 7993,
    "imp": 7249,
    "imum": 3525,
    "in": 260,
    "ina": 1335,
    "inal": 1348,
    "inally": 3266,
    "inals": 9424,
    "inary": 3367,
    "inated": 3883,
    "inating": 9198,
    "ination": 1901,
    "inations": 7241,
    "inc": 1792,
    "ince": 884,
    "inch": 8694,
    "including": 8444,
    "inct": 4569,
    "inction": 8958,
    "ind": 538,
    "inder": 7565,
    "inding": 7367,
    "ine": 514,
    "ined": 1376,
    "inem": 6478,
    "inent": 5423,
    "iner": 7054,
    "ines": 1091,
    "inese": 3252,
    "iness": 1213,
    "inf": 8127,
    "ing": 279,
    "inger": 4029,
    "ingly": 3945,
    "ings": 655,
    "ington": 8987,
    "ingu": 6904,
    "ini": 5326,
    "ining": 3177,
    "inity": 7306,
    "ink": 668,
    "inking": 7772,
    "inks": 3074,
    "inn": 3775,
    "ino": 2781,
    "inois": 8245,
    "ins": 1056,
    "inson": 6937,
    "int": 597,
    "intend": 7094,
    "intendo": 8500,
    "inter": 4754,
    "interest": 7988,
    "inton": 1941,
    "iny": 3812,
    "io": 971,
    "iod": 2279,
    "iol": 1575,
    "ion": 298,
    "ional": 1550,
    "ionally": 5919,
    "ione": 8146,
    "ions": 508,
    "ior": 1469,
    "ios": 4475,
    "iot": 5249,
    "ious": 690,
    "iously": 1688,
    "ip": 560,
    "ipe": 4307,
    "ipl": 6775,
    "iple": 2601,
    "ipp": 4551,
    "ipped": 4482,
    "ipping": 5470,
    "ips": 2702,
    "iqu": 1627,
    "ique": 2416,
    "iques": 6370,
    "ir": 342,
    "ira": 8766,
    "irc": 2041,
    "ird": 1390,
    "irds": 6270,
    "ire": 579,
    "irect": 1070,
    "ired": 1253,
    "ires": 2655,
    "irgin": 4462,
    "iring": 3746,
    "irl": 2139,
    "irlf": 9395,
    "irlfriend": 9417,
    "irm": 2453,
    "irms": 7181,
    "iro": 6757,
    "iron": 1835,
    "irst": 650,
    "irt": 2426,
    "irth": 3527,
    "irts": 9141,
    "irty": 6155,
    "iry": 8445,
    "is": 272,
    "isa": 9391,
    "isan": 7263,
    "isation": 4800,
    "isc": 2384,
    "iscal": 7401,
    "iscons": 7404,
    "isconsin": 7412,
    "ise": 739,
    "ised": 1320,
    "iser": 5023,
    "ises": 2762,
    "isf": 4938,
    "ish": 708,
    "ished": 1296,
    "isher": 5452,
    "ishes": 5890,
    "ishing": 2970,
    "ishop": 9514,
    "ising": 1539,
    "ision": 1108,
    "isions": 3234,
    "isk": 9418,
    "isl": 2611,
    "ism": 918,
    "ison": 1606,
    "isons": 9220,
    "isp": 7980,
    "iss": 760,
    "ission": 1492,
    "issions": 6316,
    "ist": 387,
    "istan": 2879,
    "isted": 5264,
    "istent": 7744,
    "ister": 1566,
    "isters": 5796,
    "istic": 2409,
    "istics": 4477,
    "isting": 8626,
    "istry": 4135,
    "ists": 923,
    "it": 271,
    "ita": 5738,
    "itable": 4738,
    "itage": 8873,
    "ital": 1234,
    "itals": 7510,
    "itar": 7488,
    "itarian": 6963,
    "itary": 9482,
    "itation": 3575,
    "itch": 3191,
    "ite": 574,
    "itect": 5132,
    "ited": 834,
    "itely": 3828,
    "iter": 4864,
    "ites": 2730,
    "ith": 344,
    "ither": 1626,
    "iti": 8143,
    "ities": 850,
    "iting": 1755,
    "ition": 660,
    "itional": 1915,
    "itionally": 8456,
    "itions": 1833,
    "itive": 1768,
    "itiz": 2649,
    "itness": 4011,
    "ito": 9766,
    "itol": 9582,
    "itor": 3478,
    "itors": 6172,
    "its": 932,
    "itt": 4565,
    "itter": 9439,
    "itting": 8783,
    "ittle": 6474,
    "itual": 9628,
    "itude": 4104,
    "itudes": 9863,
    "iture": 9907,
    "itute": 3436,
    "itution": 2545,
    "itutional": 4933,
    "ity": 413,
    "itz": 4833,
    "ium": 1699,
    "ius": 4619,
    "iv": 459,
    "ival": 2378,
    "ivals": 8738,
    "ive": 422,
    "ived": 1546,
    "ively": 2168,
    "iven": 1455,
    "iveness": 6675,
    "iver": 1727,
    "ivered": 5715,
    "iverpool": 8593,
    "ivers": 1126,
    "iversary": 8317,
    "iverse": 4022,
    "iversity": 1428,
    "ives": 1025,
    "ivid": 1778,
    "ividual": 1946,
    "ivil": 2220,
    "iving": 1373,
    "ivity": 3627,
    "ix": 912,
    "ixed": 8774,
    "ixt": 6899,
    "iy": 8099,
    "iz": 542,
    "izabeth": 9192,
    "ization": 1610,
    "ize": 1212,
    "ized": 1163,
    "izer": 9606,
    "izes": 4699,
    "izing": 2746,
    "izon": 7779,
    "izz": 6751,
    "j": 106,
    "ja": 8000,
    "ject": 787,
    "ji": 9067,
    "jo": 7851,
    "joy": 2723,
    "js": 9653,
    "jud": 9240,
    "just": 3563,
    "k": 107,
    "ka": 4952,
    "kay": 6190,
    "ke": 362,
    "ked": 7463,
    "keep": 8711,
    "kel": 6556,
    "ken": 3741,
    "ker": 7297,
    "ket": 5628,
    "key": 2481,
    "ki": 3870,
    "kin": 4889,
    "king": 9167,
    "kins": 4681,
    "known": 4382,
    "ko": 6667,
    "ks": 589,
    "ky": 2703,
    "l": 108,
    "la": 4366,
    "lad": 8195,
    "lah": 8566,
    "lahoma": 8979,
    "lam": 2210,
    "lan": 7914,
    "land": 989,
    "lando": 9869,
    "lands": 4471,
    "lant": 4401,
    "law": 6209,
    "ld": 335,
    "lder": 7208,
    "le": 296,
    "lear": 2503,
    "lease": 3638,
    "lect": 809,
    "lection": 1454,
    "led": 1004,
    "ledge": 3046,
    "lee": 9597,
    "left": 9795,
    "leg": 1350,
    "lege": 2457,
    "lement": 2026,
    "ler": 1786,
    "lers": 7390,
    "les": 823,
    "less": 1259,
    "lessly": 8113,
    "let": 1717,
    "lete": 7846,
    "lets": 5343,
    "lev": 2392,
    "level": 4424,
    "leveland": 8370,
    "levision": 3912,
    "lex": 2640,
    "ley": 1534,
    "lf": 1730,
    "li": 944,
    "liament": 4166,
    "lic": 637,
    "lick": 3934,
    "lier": 2119,
    "lies": 6952,
    "life": 5633,
    "lig": 4835,
    "light": 2344,
    "like": 2257,
    "lim": 2245,
    "lin": 2861,
    "line": 1317,
    "lined": 9500,
    "lines": 5754,
    "ling": 1319,
    "lish": 2293,
    "list": 6906,
    "ll": 299,
    "lla": 9689,
    "lled": 2676,
    "ller": 5602,
    "lling": 2047,
    "lls": 7015,
    "lo": 5054,
    "load": 2857,
    "lock": 7315,
    "log": 7723,
    "long": 6016,
    "look": 5252,
    "lor": 4707,
    "low": 8717,
    "lp": 915,
    "ls": 8183,
    "lt": 2427,
    "lu": 2224,
    "lud": 750,
    "luding": 6689,
    "lv": 6889,
    "ly": 307,
    "lying": 3250,
    "lymp": 5529,
    "lyn": 5517,
    "m": 109,
    "ma": 2996,
    "mad": 8436,
    "made": 9066,
    "mail": 4861,
    "maker": 8709,
    "makers": 4991,
    "making": 7711,
    "mal": 7532,
    "man": 753,
    "mann": 7624,
    "mans": 9267,
    "mar": 3787,
    "mark": 3986,
    "market": 9838,
    "mary": 8468,
    "mas": 5034,
    "mat": 8619,
    "mate": 7936,
    "mates": 5983,
    "math": 9842,
    "mb": 2128,
    "mber": 1657,
    "me": 1349,
    "med": 1122,
    "medi": 2428,
    "men": 3511,
    "ment": 380,
    "ments": 765,
    "mer": 582,
    "meric": 830,
    "mers": 9322,
    "mes": 6279,
    "met": 4457,
    "min": 1106,
    "mind": 9404,
    "mine": 4211,
    "ming": 2102,
    "minist": 1954,
    "minute": 9341,
    "miss": 3975,
    "mission": 3985,
    "missions": 9957,
    "mit": 1383,
    "mitted": 3400,
    "mittee": 4005,
    "ml": 6475,
    "mm": 5589,
    "mo": 6954,
    "mod": 7221,
    "mon": 2750,
    "mond": 5750,
    "mont": 7406,
    "month": 7597,
    "mony": 9153,
    "more": 3596,
    "mosp": 5747,
    "most": 1600,
    "mp": 3232,
    "ms": 962,
    "mun": 6784,
    "my": 1774,
    "n": 110,
    "na": 2623,
    "nam": 6571,
    "name": 6533,
    "nce": 1241,
    "nces": 3283,
    "nd": 357,
    "nder": 691,
    "ne": 684,
    "nect": 1753,
    "ned": 1191,
    "nedy": 8265,
    "nel": 4762,
    "nell": 5746,
    "ner": 1005,
    "nergy": 5971,
    "ners": 2471,
    "nes": 1962,
    "nesday": 2812,
    "nesota": 7041,
    "ness": 1159,
    "net": 3852,
    "new": 3567,
    "ney": 1501,
    "ng": 807,
    "ni": 7397,
    "nic": 6548,
    "night": 4644,
    "ning": 721,
    "no": 4208,
    "noon": 5456,
    "not": 1801,
    "now": 2164,
    "nown": 3825,
    "ns": 2485,
    "nt": 433,
    "ntil": 9025,
    "ny": 3310,
    "o": 111,
    "oad": 1522,
    "ob": 662,
    "obal": 2235,
    "obb": 6559,
    "obby": 5185,
    "obe": 5703,
    "ober": 1829,
    "obile": 6856,
    "obs": 7819,
    "oc": 427,
    "oca": 9974,
    "ocal": 4931,
    "ocation": 7004,
    "och": 5203,
    "oci": 1772,
    "ocial": 9910,
    "ock": 784,
    "ocked": 3625,
    "ocket": 6416,
    "ockey": 6598,
    "ocking": 5472,
    "ocks": 3953,
    "ocol": 5095,
    "ocolate": 9388,
    "ocr": 4245,
    "ocracy": 4798,
    "ocrat": 1577,
    "ocratic": 6228,
    "ocument": 9074,
    "od": 399,
    "oday": 3915,
    "odd": 5594,
    "ode": 1333,
    "oded": 8892,
    "odes": 4357,
    "odies": 4982,
    "oding": 8361,
    "odox": 9922,
    "ody": 1186,
    "oe": 2454,
    "oen": 7987,
    "oenix": 9261,
    "oes": 3548,
    "of": 1868,
    "off": 2043,
    "og": 525,
    "ogan": 6901,
    "ogen": 7735,
    "ogether": 7805,
    "ogle": 2317,
    "ogn": 2305,
    "ograp": 1942,
    "ograph": 2287,
    "ographic": 6666,
    "ography": 4542,
    "ogue": 5612,
    "ogy": 9962,
    "oh": 1092,
    "ohn": 1408,
    "oice": 9598,
    "oid": 2304,
    "oint": 1597,
    "ois": 9409,
    "ok": 487,
    "oke": 2437,
    "oked": 6339,
    "oken": 5856,
    "okes": 2659,
    "oking": 5709,
    "ol": 349,
    "ola": 5083,
    "olar": 9885,
    "old": 770,
    "olds": 9323,
    "ole": 2468,
    "olen": 8069,
    "oles": 3989,
    "olf": 4415,
    "olic": 3898,
    "olis": 7862,
    "olit": 5080,
    "oll": 785,
    "ollow": 981,
    "olly": 4765,
    "ollywood": 6380,
    "oln": 9943,
    "olog": 903,
    "ological": 2744,
    "ologies": 5250,
    "ologist": 6465,
    "ologists": 8161,
    "ology": 1381,
    "olph": 9055,
    "olt": 7732,
    "olute": 3552,
    "olution": 2073,
    "olve": 6460,
    "olved": 5479,
    "olves": 9259,
    "oly": 4316,
    "om": 297,
    "oma": 6447,
    "oman": 4585,
    "omas": 4515,
    "omb": 2636,
    "ome": 461,
    "omed": 9655,
    "omen": 3508,
    "omes": 9076,
    "omet": 886,
    "omething": 8240,
    "ometimes": 6435,
    "omin": 6193,
    "oming": 6495,
    "omm": 2414,
    "ommod": 8513,
    "omp": 3087,
    "ompl": 5707,
    "ompson": 9360,
    "oms": 4869,
    "omy": 9609,
    "on": 263,
    "ona": 4057,
    "ond": 618,
    "onder": 9654,
    "ondon": 3078,
    "one": 505,
    "onent": 3946,
    "onents": 3818,
    "ones": 1759,
    "oney": 1284,
    "ong": 499,
    "onic": 7262,
    "only": 9028,
    "onna": 6398,
    "onom": 5476,
    "ons": 697,
    "onse": 2475,
    "onst": 2642,
    "ont": 821,
    "onto": 4837,
    "ony": 1581,
    "onym": 4973,
    "onymous": 6801,
    "oo": 3083,
    "ood": 725,
    "ook": 565,
    "ool": 986,
    "oom": 4334,
    "oon": 2199,
    "oor": 2873,
    "oot": 1041,
    "ooth": 5956,
    "op": 391,
    "ope": 3129,
    "open": 9619,
    "oper": 3398,
    "oph": 2463,
    "opher": 7928,
    "ople": 587,
    "ops": 2726,
    "opy": 6396,
    "opyright": 9964,
    "or": 274,
    "ora": 6523,
    "orable": 9873,
    "orage": 5368,
    "oral": 5668,
    "oration": 6916,
    "ord": 577,
    "ordan": 6531,
    "order": 2847,
    "orders": 6061,
    "ordin": 5548,
    "ordinary": 9256,
    "ording": 1130,
    "ordon": 8714,
    "ords": 4256,
    "ore": 376,
    "ored": 1828,
    "ores": 5131,
    "oret": 9389,
    "org": 3987,
    "organ": 9049,
    "orge": 9020,
    "orial": 4202,
    "oric": 7064,
    "ories": 1685,
    "oring": 2404,
    "orious": 9426,
    "ork": 935,
    "orks": 3677,
    "orld": 1809,
    "orm": 617,
    "ormal": 9006,
    "orn": 1258,
    "orne": 7617,
    "orney": 3704,
    "ornia": 2903,
    "orough": 7747,
    "orous": 9204,
    "orrow": 4434,
    "orry": 6097,
    "ors": 658,
    "orse": 6085,
    "orship": 9485,
    "ort": 398,
    "orted": 7056,
    "orter": 3891,
    "orters": 2947,
    "orth": 1129,
    "orthern": 4363,
    "ortion": 5294,
    "orts": 1885,
    "ortun": 1760,
    "ortunately": 4452,
    "ory": 656,
    "os": 419,
    "osa": 7976,
    "ose": 571,
    "osed": 1260,
    "osen": 5254,
    "oses": 3273,
    "osexual": 7878,
    "osh": 3917,
    "osing": 2403,
    "osis": 6964,
    "osit": 8332,
    "osite": 5672,
    "osition": 2760,
    "osp": 1999,
    "ospital": 3293,
    "oss": 796,
    "ossible": 4691,
    "ost": 463,
    "oster": 7077,
    "oston": 5058,
    "osure": 4708,
    "ot": 314,
    "ota": 3924,
    "otal": 6506,
    "ote": 1964,
    "oted": 4867,
    "otes": 7289,
    "oth": 862,
    "other": 848,
    "oti": 3835,
    "otic": 6153,
    "oto": 1979,
    "ots": 1704,
    "ott": 1593,
    "otten": 7294,
    "oty": 5402,
    "otype": 8595,
    "ou": 281,
    "ouch": 8203,
    "oud": 2843,
    "ough": 608,
    "ought": 2810,
    "oul": 3453,
    "ould": 415,
    "oun": 909,
    "ounce": 8852,
    "ounced": 7929,
    "ound": 647,
    "ounded": 5907,
    "ounding": 9183,
    "ounds": 3857,
    "ount": 607,
    "our": 468,
    "ource": 3639,
    "ources": 3189,
    "oured": 7959,
    "ouri": 9278,
    "ourn": 1773,
    "ournal": 2345,
    "ourney": 5990,
    "ours": 5432,
    "ourse": 8605,
    "ourt": 2658,
    "ous": 513,
    "ouse": 1034,
    "ously": 3297,
    "ouston": 6086,
    "out": 444,
    "outh": 1464,
    "outhern": 4340,
    "outs": 4913,
    "ouver": 8122,
    "ov": 707,
    "ova": 9539,
    "oval": 8564,
    "ove": 665,
    "oved": 2796,
    "ovember": 2771,
    "over": 2085,
    "overed": 2506,
    "overy": 4697,
    "oves": 5912,
    "oving": 5295,
    "ow": 326,
    "owa": 7059,
    "owed": 7174,
    "ower": 845,
    "owered": 6927,
    "owers": 3875,
    "owing": 8102,
    "owl": 4921,
    "own": 599,
    "ownt": 5590,
    "ows": 1974,
    "ox": 1197,
    "oy": 729,
    "oyal": 4638,
    "oz": 9374,
    "p": 112,
    "pa": 9274,
    "page": 8084,
    "pan": 6502,
    "par": 2037,
    "part": 3810,
    "party": 9574,
    "pass": 5822,
    "pat": 8182,
    "pe": 436,
    "pecially": 2186,
    "pect": 780,
    "pected": 7062,
    "pective": 4773,
    "ped": 8571,
    "pen": 4075,
    "per": 553,
    "person": 5322,
    "pes": 7084,
    "pet": 5664,
    "ph": 1077,
    "phas": 5412,
    "phone": 4660,
    "phones": 8441,
    "phy": 6681,
    "pie": 8824,
    "pir": 3140,
    "pire": 5281,
    "pired": 5526,
    "pite": 2206,
    "pl": 501,
    "place": 4914,
    "plate": 8790,
    "play": 1993,
    "player": 9871,
    "ple": 1240,
    "pled": 8813,
    "ples": 2626,
    "plete": 8570,
    "pload": 8230,
    "plom": 5717,
    "ploy": 1385,
    "plus": 9104,
    "ply": 2064,
    "pm": 5082,
    "po": 6486,
    "point": 4182,
    "pool": 7025,
    "por": 1802,
    "porary": 5349,
    "port": 610,
    "portation": 9642,
    "ported": 8788,
    "portion": 7935,
    "ports": 3497,
    "post": 6788,
    "power": 6406,
    "pp": 379,
    "pped": 1541,
    "pper": 3327,
    "ppers": 8732,
    "pping": 2174,
    "pr": 1061,
    "pre": 3393,
    "pread": 7918,
    "press": 6402,
    "pret": 6387,
    "pri": 4122,
    "pril": 2568,
    "print": 6522,
    "prise": 7674,
    "pro": 1904,
    "prof": 4987,
    "profit": 7831,
    "ps": 3110,
    "pt": 504,
    "ption": 1467,
    "ptions": 9902,
    "pton": 9169,
    "put": 2530,
    "q": 113,
    "qu": 434,
    "quarters": 7594,
    "que": 3901,
    "quest": 8629,
    "r": 114,
    "ra": 518,
    "rac": 9976,
    "race": 9492,
    "ract": 1316,
    "rad": 4313,
    "rael": 1956,
    "raft": 1633,
    "rage": 7355,
    "raid": 6983,
    "raig": 9622,
    "rain": 2756,
    "ral": 1288,
    "ram": 4035,
    "ran": 2213,
    "range": 4995,
    "rant": 5825,
    "rap": 1382,
    "raph": 7648,
    "rapped": 9236,
    "raq": 3098,
    "rary": 7118,
    "ras": 7145,
    "rast": 3180,
    "rastructure": 5166,
    "rat": 1237,
    "rate": 4333,
    "rated": 3725,
    "rates": 7285,
    "rating": 7470,
    "ration": 1307,
    "rations": 6769,
    "rative": 7880,
    "rator": 8209,
    "rators": 7873,
    "raud": 5702,
    "rav": 4203,
    "raw": 1967,
    "rawn": 5737,
    "ray": 2607,
    "raz": 3030,
    "razil": 5885,
    "razy": 5797,
    "rd": 4925,
    "re": 261,
    "read": 996,
    "ready": 1377,
    "real": 4880,
    "ream": 2314,
    "reams": 7553,
    "reat": 639,
    "rec": 8546,
    "rect": 2833,
    "rection": 9443,
    "red": 450,
    "redit": 7003,
    "ree": 615,
    "reed": 1912,
    "reedom": 3204,
    "reen": 1400,
    "reens": 5532,
    "rees": 5004,
    "reet": 2608,
    "ref": 7671,
    "reg": 2290,
    "regon": 7233,
    "rel": 2693,
    "reland": 5993,
    "related": 5212,
    "rell": 7750,
    "rem": 2680,
    "reme": 2116,
    "ren": 907,
    "rence": 6746,
    "rench": 3238,
    "rency": 5009,
    "rent": 1148,
    "rep": 7476,
    "repre": 8559,
    "reprene": 8620,
    "res": 405,
    "resent": 1874,
    "resents": 5920,
    "resh": 3790,
    "resident": 1516,
    "resp": 4527,
    "respond": 5755,
    "ress": 594,
    "ressed": 3722,
    "ression": 3515,
    "ressive": 5335,
    "rest": 1848,
    "ret": 1287,
    "rete": 7477,
    "rets": 8604,
    "rew": 1749,
    "rey": 4466,
    "ri": 381,
    "ria": 7388,
    "riage": 3854,
    "rial": 4246,
    "rian": 4058,
    "rib": 835,
    "rible": 5314,
    "ribut": 2355,
    "ribute": 4592,
    "ributed": 5724,
    "ributes": 9616,
    "ribution": 4020,
    "ric": 1140,
    "rical": 8202,
    "rich": 6159,
    "rick": 4702,
    "rict": 1939,
    "rid": 5840,
    "rie": 5488,
    "ried": 2179,
    "rief": 3604,
    "riend": 1294,
    "rient": 8173,
    "rier": 5535,
    "riers": 8038,
    "ries": 1555,
    "rif": 9652,
    "rific": 7537,
    "rig": 4330,
    "right": 2329,
    "rik": 8065,
    "rim": 4724,
    "rimin": 9043,
    "rimination": 7033,
    "rine": 8641,
    "ring": 1923,
    "rior": 9993,
    "riors": 9828,
    "rip": 6206,
    "ript": 2445,
    "ription": 4194,
    "ris": 2036,
    "rison": 6612,
    "rist": 1474,
    "rit": 706,
    "rite": 9070,
    "rive": 6674,
    "rix": 9794,
    "ro": 308,
    "road": 5316,
    "rodu": 2154,
    "rog": 5475,
    "roid": 3991,
    "rol": 4040,
    "roll": 3933,
    "rolled": 8247,
    "rom": 396,
    "rome": 6586,
    "ron": 1424,
    "ronic": 4827,
    "ront": 4229,
    "room": 3184,
    "rooms": 9177,
    "rop": 1655,
    "roph": 9913,
    "ropri": 8722,
    "ror": 1548,
    "rors": 6794,
    "ros": 4792,
    "ross": 1200,
    "rote": 2084,
    "rou": 477,
    "roud": 5216,
    "rough": 731,
    "rought": 2739,
    "round": 734,
    "roup": 948,
    "rous": 7912,
    "row": 808,
    "rowd": 3448,
    "rown": 2809,
    "rows": 9501,
    "roy": 3547,
    "rs": 3920,
    "ru": 604,
    "ruary": 3171,
    "ruct": 1406,
    "ruction": 2819,
    "ructure": 2909,
    "rug": 1965,
    "ruit": 5147,
    "rum": 6053,
    "run": 5086,
    "rupt": 3520,
    "ruption": 5627,
    "ry": 570,
    "rypt": 7433,
    "s": 115,
    "sa": 9903,
    "sc": 1475,
    "scale": 8745,
    "scape": 7716,
    "scrib": 4520,
    "scribe": 9624,
    "se": 327,
    "sea": 7213,
    "season": 4849,
    "sec": 2248,
    "sect": 9477,
    "section": 9880,
    "secut": 3909,
    "see": 4061,
    "sel": 744,
    "self": 972,
    "sell": 7257,
    "sels": 8110,
    "selves": 1886,
    "semb": 4633,
    "sembly": 6179,
    "sen": 5333,
    "senal": 8208,
    "sequ": 3026,
    "ser": 3947,
    "serv": 8450,
    "ses": 9763,
    "set": 3057,
    "sex": 5876,
    "sey": 3905,
    "sh": 1677,
    "she": 7847,
    "ship": 7260,
    "shire": 9029,
    "side": 1510,
    "sl": 9725,
    "sm": 7236,
    "so": 551,
    "soft": 4079,
    "sole": 6711,
    "son": 1257,
    "sp": 3465,
    "spe": 4626,
    "ss": 859,
    "st": 304,
    "stal": 9632,
    "stand": 1427,
    "standing": 5519,
    "star": 7426,
    "state": 5253,
    "ste": 4177,
    "stein": 5151,
    "stem": 945,
    "step": 9438,
    "ster": 1737,
    "sters": 6988,
    "ston": 3516,
    "stone": 6876,
    "stood": 6272,
    "str": 6511,
    "stract": 8218,
    "stream": 5094,
    "sts": 5731,
    "style": 6573,
    "sub": 9921,
    "sw": 2147,
    "sy": 2008,
    "sych": 3084,
    "sylv": 7992,
    "sylvania": 8059,
    "t": 116,
    "ta": 6857,
    "tain": 926,
    "te": 671,
    "ted": 1015,
    "tee": 2596,
    "teen": 7940,
    "ten": 1019,
    "tenance": 9459,
    "ter": 348,
    "terday": 5360,
    "tered": 4458,
    "tering": 6421,
    "term": 3944,
    "tern": 754,
    "ternal": 5759,
    "ters": 883,
    "tery": 4731,
    "tes": 7708,
    "text": 7801,
    "th": 417,
    "that": 5482,
    "the": 1107,
    "theless": 9078,
    "then": 8043,
    "ther": 494,
    "there": 7331,
    "thew": 7465,
    "they": 9230,
    "thing": 1196,
    "this": 7639,
    "thon": 8185,
    "though": 1922,
    "through": 9187,
    "ties": 4169,
    "time": 2406,
    "ting": 769,
    "tion": 5932,
    "tle": 856,
    "to": 1356,
    "ton": 1069,
    "top": 5581,
    "tr": 3199,
    "trans": 9227,
    "ts": 880,
    "tt": 1221,
    "ttp": 2021,
    "twitter": 6258,
    "ty": 847,
    "type": 8481,
    "u": 117,
    "ua": 6632,
    "uable": 6655,
    "ual": 737,
    "ually": 921,
    "uan": 7501,
    "uana": 4008,
    "uary": 2543,
    "uate": 5029,
    "uated": 6607,
    "uation": 2204,
    "uations": 5941,
    "ub": 531,
    "ube": 3736,
    "ubl": 1739,
    "ublic": 755,
    "uc": 1179,
    "uce": 7939,
    "uch": 774,
    "uck": 1374,
    "ucks": 5688,
    "ucky": 4971,
    "uclear": 3251,
    "uct": 4984,
    "uction": 8633,
    "ud": 472,
    "udd": 4213,
    "ude": 2585,
    "udes": 8160,
    "ue": 539,
    "ued": 1560,
    "uel": 2598,
    "uer": 7875,
    "ues": 896,
    "uesday": 2645,
    "uf": 3152,
    "ufact": 3671,
    "uff": 1742,
    "ug": 1245,
    "uge": 1975,
    "ugg": 4235,
    "ugh": 6668,
    "ught": 9014,
    "uh": 9040,
    "uild": 4124,
    "uilding": 6935,
    "uine": 7547,
    "uing": 3325,
    "uit": 3148,
    "uits": 8751,
    "uk": 3039,
    "uke": 5043,
    "ul": 378,
    "ula": 4810,
    "ular": 1089,
    "ularly": 2500,
    "ulate": 4903,
    "ulated": 4636,
    "ulating": 7945,
    "ulation": 1748,
    "ulations": 5898,
    "ule": 2557,
    "ules": 7633,
    "ulf": 4630,
    "ull": 743,
    "ully": 2132,
    "ulous": 6494,
    "uls": 6032,
    "ult": 596,
    "ultane": 9146,
    "ultural": 8503,
    "ulture": 6833,
    "uly": 1894,
    "um": 402,
    "uma": 8172,
    "uman": 4023,
    "umb": 2288,
    "umber": 6628,
    "umble": 9720,
    "ume": 2912,
    "ument": 1899,
    "uments": 3073,
    "umer": 7900,
    "umes": 8225,
    "umin": 7967,
    "umn": 4862,
    "ump": 799,
    "ums": 6853,
    "un": 403,
    "unch": 1943,
    "unction": 5727,
    "und": 867,
    "under": 5302,
    "undred": 3024,
    "une": 1694,
    "unes": 8675,
    "ung": 2146,
    "unicip": 8802,
    "unior": 8336,
    "unk": 3126,
    "unning": 7134,
    "unt": 2807,
    "unte": 5860,
    "uous": 5829,
    "up": 895,
    "uper": 8004,
    "upid": 7718,
    "upp": 4367,
    "ups": 4910,
    "ur": 333,
    "ura": 7171,
    "ural": 1476,
    "urance": 3795,
    "uration": 5340,
    "urb": 4564,
    "urch": 1738,
    "urd": 2538,
    "ure": 503,
    "ureau": 5430,
    "ured": 1486,
    "ures": 976,
    "urg": 3487,
    "uries": 4295,
    "uring": 842,
    "urity": 1482,
    "urn": 776,
    "urning": 3006,
    "uro": 1290,
    "urrent": 7746,
    "urs": 1461,
    "ursday": 2816,
    "urt": 3471,
    "urther": 1843,
    "ury": 1489,
    "us": 385,
    "usal": 6320,
    "usalem": 9246,
    "use": 1877,
    "used": 1404,
    "uses": 2948,
    "useum": 5398,
    "ush": 1529,
    "usiness": 5880,
    "using": 3435,
    "usion": 3970,
    "usive": 8089,
    "uss": 987,
    "ust": 437,
    "usted": 8176,
    "uster": 5324,
    "ustom": 1933,
    "ut": 312,
    "utch": 6525,
    "ute": 1174,
    "uted": 8750,
    "uten": 9508,
    "uters": 5102,
    "utes": 1895,
    "uth": 1098,
    "uthor": 1478,
    "uties": 8267,
    "ution": 988,
    "utions": 3261,
    "uts": 5642,
    "uture": 1624,
    "uty": 3778,
    "ux": 3392,
    "uy": 6165,
    "uz": 9854,
    "uzz": 5288,
    "v": 118,
    "va": 6457,
    "val": 2579,
    "van": 9734,
    "vant": 4820,
    "vard": 8621,
    "ve": 305,
    "ved": 1036,
    "vel": 651,
    "velop": 1014,
    "ven": 564,
    "vent": 3120,
    "vention": 4557,
    "venue": 3682,
    "ver": 332,
    "verage": 1800,
    "vere": 3925,
    "vern": 790,
    "vernment": 9411,
    "vers": 680,
    "verse": 4955,
    "vert": 1693,
    "vertise": 2798,
    "vertisement": 3241,
    "vertisements": 9660,
    "verty": 6938,
    "very": 543,
    "ves": 1136,
    "vest": 4343,
    "vey": 5399,
    "view": 1205,
    "ville": 3948,
    "vin": 6636,
    "ving": 1047,
    "viously": 7722,
    "viron": 2075,
    "vironment": 2251,
    "vis": 5156,
    "vision": 9658,
    "vy": 7259,
    "w": 119,
    "walk": 9325,
    "wan": 7082,
    "war": 5393,
    "ward": 889,
    "wards": 2003,
    "ware": 1586,
    "was": 9302,
    "watch": 9904,
    "water": 6116,
    "way": 1000,
    "ways": 1297,
    "we": 714,
    "week": 9771,
    "ween": 954,
    "weet": 7863,
    "weight": 6616,
    "well": 4365,
    "wered": 8617,
    "west": 6419,
    "wh": 1603,
    "what": 4851,
    "whel": 6213,
    "where": 2390,
    "which": 4529,
    "while": 3888,
    "who": 7785,
    "wide": 3923,
    "win": 4321,
    "wing": 4922,
    "wise": 3493,
    "wit": 1410,
    "witch": 4394,
    "with": 4986,
    "witter": 1938,
    "wn": 670,
    "wo": 3134,
    "woman": 6806,
    "wood": 3613,
    "word": 6063,
    "work": 1583,
    "works": 4521,
    "world": 7652,
    "worth": 8262,
    "writ": 5836,
    "ww": 2157,
    "www": 4001,
    "x": 120,
    "xit": 8601,
    "xt": 791,
    "xual": 6773,
    "xx": 8679,
    "xy": 6637,
    "y": 121,
    "ya": 4000,
    "yan": 3616,
    "yard": 8109,
    "ye": 7675,
    "year": 1602,
    "yer": 8929,
    "yes": 9656,
    "ying": 1063,
    "yl": 3356,
    "yle": 2386,
    "ylum": 9870,
    "ym": 5013,
    "yn": 2115,
    "ynam": 5063,
    "yo": 8917,
    "yond": 3027,
    "you": 6679,
    "yr": 5499,
    "ys": 940,
    "ysis": 3137,
    "ystem": 7860,
    "z": 122,
    "za": 4422,
    "ze": 2967,
    "zed": 8723,
    "zen": 4534,
    "zens": 7086,
    "zer": 5764,
    "zing": 8983,
    "zona": 6343,
    "zy": 7444,
    "zz": 3409,
    "{": 123,
    "|": 124,
    "}": 125,
    "}}": 9893,
    "~": 126,
    "¡": 161,
    "¢": 162,
    "£": 163,
    "¤": 164,
    "¥": 165,
    "¦": 166,
    "§": 167,
    "¨": 168,
    "©": 169,
    "ª": 170,
    "«": 171,
    "¬": 172,
    "®": 174,
    "¯": 175,
    "°": 176,
    "±": 177,
    "²": 178,
    "³": 179,
    "´": 180,
    "µ": 181,
    "¶": 182,
    "·": 183,
    "¸": 184,
    "¹": 185,
    "º": 186,
    "»": 187,
    "¼": 188,
    "½": 189,
    "¾": 190,
    "¿": 191,
    "À": 192,
    "Á": 193,
    "Â": 194,
    "Â°": 9116,
    "ÂĴ": 8860,
    "ÂŃ": 2907,
    "Ã": 195,
    "Ã¡": 4919,
    "Ã¢": 9886,
    "Ã¤": 5798,
    "Ã©": 2242,
    "Ã±": 9896,
    "Ã³": 6369,
    "Ã¶": 6334,
    "Ã¼": 6505,
    "ÃĤ": 6198,
    "Ãĥ": 6521,
    "ÃĥÃĤ": 6936,
    "ÃĥÃĤÃĥÃĤ": 6951,
    "ÃŃ": 6099,
    "Ä": 196,
    "Äĥ": 9401,
    "Å": 197,
    "Æ": 198,
    "Ç": 199,
    "È": 200,
    "É": 201,
    "Ê": 202,
    "Ë": 203,
    "Ì": 204,
    "Í": 205,
    "Î": 206,
    "Ï": 207,
    "Ð": 208,
    "Ð°": 4730,
    "Ðµ": 4732,
    "Ð¸": 5512,
    "Ð»": 9139,
    "Ð½": 6642,
    "Ð¾": 4188,
    "Ð¾Ð": 7091,
    "Ñ": 209,
    "ÑĢ": 6658,
    "Ñģ": 6417,
    "ÑĤ": 5574,
    "Ò": 210,
    "Ó": 211,
    "Ô": 212,
    "Õ": 213,
    "Ö": 214,
    "×": 215,
    "Ø": 216,
    "Ù": 217,
    "Ú": 218,
    "Û": 219,
    "Ü": 220,
    "Ý": 221,
    "Þ": 222,
    "ß": 223,
    "à": 224,
    "á": 225,
    "â": 226,
    "âĢ": 291,
    "âĢ¢": 4116,
    "âĢ¦": 1533,
    "âĢĵ": 1743,
    "âĢĶ": 914,
    "âĢĶâĢĶ": 4789,
    "âĢĶâĢĶâĢĶâĢĶ": 8463,
    "âĢĺ": 4757,
    "âĢĻ": 330,
    "âĢĻ,": 7702,
    "âĢĻ.": 6822,
    "âĢľ": 710,
    "âĢĿ": 407,
    "âĢĿ,": 3988,
    "âĢĿ.": 2917,
    "âĶ": 9362,
    "âĸ": 7150,
    "ã": 227,
    "ãĢ": 7575,
    "ãģ": 2707,
    "ãĤ": 4646,
    "ãĥ": 5190,
    "ä": 228,
    "å": 229,
    "æ": 230,
    "ç": 231,
    "è": 232,
    "é": 233,
    "ê": 234,
    "ë": 235,
    "ì": 236,
    "í": 237,
    "î": 238,
    "ï": 239,
    "ï¿": 6622,
    "ï¿½": 6865,
    "ð": 240,
    "ñ": 241,
    "ò": 242,
    "ó": 243,
    "ô": 244,
    "õ": 245,
    "ö": 246,
    "÷": 247,
    "ø": 248,
    "ù": 249,
    "ú": 250,
    "û": 251,
    "ü": 252,
    "ý": 253,
    "þ": 254,
    "ÿ": 255,
    "Ā": 0,
    "ā": 1,
    "Ă": 2,
    "ă": 3,
    "Ą": 4,
    "ą": 5,
    "Ć": 6,
    "ć": 7,
    "Ĉ": 8,
    "ĉ": 9,
    "Ċ": 10,
    "ċ": 11,
    "Č": 12,
    "č": 13,
    "Ď": 14,
    "ď": 15,
    "Đ": 16,
    "đ": 17,
    "Ē": 18,
    "ē": 19,
    "Ĕ": 20,
    "ĕ": 21,
    "Ė": 22,
    "ė": 23,
    "Ę": 24,
    "ę": 25,
    "Ě": 26,
    "ě": 27,
    "Ĝ": 28,
    "ĝ": 29,
    "Ğ": 30,
    "ğ": 31,
    "Ġ": 32,
    "Ġ\"": 488,
    "Ġ#": 1882,
    "Ġ$": 759,
    "Ġ%": 7408,
    "Ġ&": 1797,
    "Ġ'": 1180,
    "Ġ(": 397,
    "Ġ($": 7460,
    "Ġ(@": 3433,
    "Ġ(âĢľ": 8925,
    "Ġ)": 2184,
    "Ġ*": 3354,
    "Ġ+": 2628,
    "Ġ,": 1664,
    "Ġ-": 663,
    "Ġ--": 1452,
    "Ġ->": 7906,
    "Ġ.": 1209,
    "Ġ...": 3183,
    "Ġ/": 2051,
    "Ġ//": 5813,
    "Ġ0": 1103,
    "Ġ00": 8237,
    "Ġ1": 384,
    "Ġ10": 1035,
    "Ġ100": 2261,
    "Ġ11": 1725,
    "Ġ12": 1511,
    "Ġ120": 9711,
    "Ġ13": 2061,
    "Ġ14": 2004,
    "Ġ15": 1660,
    "Ġ150": 7599,
    "Ġ16": 1919,
    "Ġ17": 2063,
    "Ġ18": 1479,
    "Ġ19": 689,
    "Ġ195": 5655,
    "Ġ1950": 9747,
    "Ġ196": 3719,
    "Ġ1960": 7916,
    "Ġ197": 2664,
    "Ġ1970": 6810,
    "Ġ198": 2273,
    "Ġ1980": 6005,
    "Ġ199": 1629,
    "Ġ1990": 5554,
    "Ġ1992": 9455,
    "Ġ1993": 9733,
    "Ġ1994": 8941,
    "Ġ1995": 8792,
    "Ġ1996": 8386,
    "Ġ1997": 8380,
    "Ġ1998": 7958,
    "Ġ1999": 7435,
    "Ġ2": 394,
    "Ġ20": 535,
    "Ġ200": 868,
    "Ġ2000": 4917,
    "Ġ2001": 5812,
    "Ġ2002": 6277,
    "Ġ2003": 5714,
    "Ġ2004": 5266,
    "Ġ2005": 4809,
    "Ġ2006": 4407,
    "Ġ2007": 3967,
    "Ġ2008": 3139,
    "Ġ2009": 3196,
    "Ġ201": 588,
    "Ġ2010": 2706,
    "Ġ2011": 2581,
    "Ġ2012": 2223,
    "Ġ2013": 2141,
    "Ġ2014": 1944,
    "Ġ2015": 1881,
    "Ġ2016": 1804,
    "Ġ2017": 2255,
    "Ġ2018": 4854,
    "Ġ2019": 8518,
    "Ġ2020": 9051,
    "Ġ21": 2875,
    "Ġ22": 2896,
    "Ġ23": 2998,
    "Ġ24": 2479,
    "Ġ25": 2281,
    "Ġ250": 9799,
    "Ġ26": 3357,
    "Ġ27": 3269,
    "Ġ28": 3360,
    "Ġ29": 3705,
    "Ġ3": 635,
    "Ġ30": 1831,
    "Ġ300": 6266,
    "Ġ31": 4405,
    "Ġ32": 5072,
    "Ġ33": 6232,
    "Ġ34": 6623,
    "Ġ35": 4417,
    "Ġ36": 5841,
    "Ġ37": 6385,
    "Ġ38": 6515,
    "Ġ39": 7070,
    "Ġ4": 736,
    "Ġ40": 2772,
    "Ġ400": 7681,
    "Ġ41": 8022,
    "Ġ42": 7250,
    "Ġ43": 8078,
    "Ġ44": 7821,
    "Ġ45": 5093,
    "Ġ46": 8049,
    "Ġ47": 7961,
    "Ġ48": 6620,
    "Ġ49": 6526,
    "Ġ5": 777,
    "Ġ50": 2370,
    "Ġ500": 5516,
    "Ġ51": 8823,
    "Ġ52": 8649,
    "Ġ53": 9369,
    "Ġ54": 9668,
    "Ġ55": 7482,
    "Ġ56": 9926,
    "Ġ6": 936,
    "Ġ60": 3549,
    "Ġ64": 7541,
    "Ġ65": 7589,
    "Ġ7": 1052,
    "Ġ70": 4650,
    "Ġ75": 6731,
    "Ġ8": 1112,
    "Ġ80": 4302,
    "Ġ9": 1145,
    "Ġ90": 4468,
    "Ġ95": 9331,
    "Ġ99": 9860,
    "Ġ:": 2074,
    "Ġ;": 4161,
    "Ġ<": 2674,
    "Ġ=": 1398,
    "Ġ=>": 5329,
    "Ġ>": 3536,
    "Ġ?": 9787,
    "Ġ@": 2803,
    "ĠA": 331,
    "ĠABC": 8156,
    "ĠAC": 8865,
    "ĠAD": 7668,
    "ĠAI": 8943,
    "ĠAL": 6643,
    "ĠAM": 4429,
    "ĠAND": 8295,
    "ĠAP": 4047,
    "ĠAPI": 8506,
    "ĠAR": 7380,
    "ĠAS": 7943,
    "ĠAT": 6207,
    "ĠAb": 2353,
    "ĠAbb": 8986,
    "ĠAbout": 8091,
    "ĠAc": 4705,
    "ĠAcadem": 7182,
    "ĠAcademy": 7925,
    "ĠAcc": 8603,
    "ĠAccording": 4111,
    "ĠAct": 2735,
    "ĠAction": 8418,
    "ĠAd": 1465,
    "ĠAdam": 7271,
    "ĠAdd": 4319,
    "ĠAdminist": 6982,
    "ĠAdministration": 7985,
    "ĠAdv": 8825,
    "ĠAf": 2017,
    "ĠAff": 6183,
    "ĠAffairs": 9685,
    "ĠAfghan": 4752,
    "ĠAfghanistan": 5843,
    "ĠAfric": 2855,
    "ĠAfrica": 4734,
    "ĠAfrican": 4746,
    "ĠAfter": 2387,
    "ĠAg": 2840,
    "ĠAgain": 6736,
    "ĠAge": 9117,
    "ĠAgency": 6974,
    "ĠAh": 7604,
    "ĠAir": 3728,
    "ĠAk": 9410,
    "ĠAl": 1088,
    "ĠAlabama": 7870,
    "ĠAlbert": 8515,
    "ĠAle": 8627,
    "ĠAlex": 4105,
    "ĠAlexander": 9150,
    "ĠAli": 7692,
    "ĠAll": 1621,
    "ĠAllen": 8413,
    "ĠAlso": 5103,
    "ĠAlthough": 4994,
    "ĠAm": 1896,
    "ĠAmazon": 5315,
    "ĠAmendment": 7809,
    "ĠAmeric": 882,
    "ĠAmerica": 1903,
    "ĠAmerican": 1368,
    "ĠAmericans": 2727,
    "ĠAmong": 9377,
    "ĠAn": 1225,
    "ĠAnd": 795,
    "ĠAnderson": 8670,
    "ĠAndre": 9669,
    "ĠAndrew": 5879,
    "ĠAndroid": 4908,
    "ĠAng": 2892,
    "ĠAngel": 3827,
    "ĠAngeles": 4807,
    "ĠAnn": 6449,
    "ĠAnother": 6305,
    "ĠAnt": 3908,
    "ĠAnth": 7578,
    "ĠAnthony": 8422,
    "ĠAnton": 8326,
    "ĠAny": 5380,
    "ĠAp": 8638,
    "ĠApp": 2232,
    "ĠApple": 3562,
    "ĠApril": 2679,
    "ĠAr": 1039,
    "ĠArab": 3820,
    "ĠArabia": 8193,
    "ĠArch": 6800,
    "ĠAre": 4686,
    "ĠAri": 5310,
    "ĠArizona": 6693,
    "ĠArk": 9637,
    "ĠArm": 8044,
    "ĠArmy": 4948,
    "ĠArt": 4433,
    "ĠAs": 1102,
    "ĠAsh": 7803,
    "ĠAsia": 6312,
    "ĠAsian": 7125,
    "ĠAss": 2295,
    "ĠAssad": 9928,
    "ĠAssembly": 9800,
    "ĠAssoci": 3576,
    "ĠAssociated": 9123,
    "ĠAssociation": 4755,
    "ĠAst": 8994,
    "ĠAt": 1643,
    "ĠAtlant": 5117,
    "ĠAtlanta": 7995,
    "ĠAtlantic": 8928,
    "ĠAtt": 4369,
    "ĠAttorney": 7169,
    "ĠAud": 8932,
    "ĠAug": 2512,
    "ĠAugust": 2919,
    "ĠAust": 2120,
    "ĠAustin": 8490,
    "ĠAustral": 2643,
    "ĠAustralia": 3806,
    "ĠAustralian": 5461,
    "ĠAut": 6541,
    "ĠAuthor": 7284,
    "ĠAv": 5980,
    "ĠAvenue": 7584,
    "ĠAward": 9250,
    "ĠAz": 9605,
    "ĠB": 354,
    "ĠBBC": 5692,
    "ĠBa": 8784,
    "ĠBack": 6008,
    "ĠBad": 8770,
    "ĠBal": 9821,
    "ĠBall": 8517,
    "ĠBalt": 7684,
    "ĠBaltimore": 8693,
    "ĠBang": 8757,
    "ĠBank": 4500,
    "ĠBar": 2069,
    "ĠBarack": 6245,
    "ĠBas": 7268,
    "ĠBase": 9281,
    "ĠBat": 6112,
    "ĠBatman": 9892,
    "ĠBattle": 8234,
    "ĠBay": 4036,
    "ĠBe": 1445,
    "ĠBeach": 8217,
    "ĠBecause": 4279,
    "ĠBeck": 9326,
    "ĠBefore": 7728,
    "ĠBeijing": 9225,
    "ĠBel": 3748,
    "ĠBelg": 9447,
    "ĠBell": 7090,
    "ĠBen": 3683,
    "ĠBer": 4087,
    "ĠBerlin": 9629,
    "ĠBern": 5089,
    "ĠBernie": 8213,
    "ĠBest": 6969,
    "ĠBet": 5733,
    "ĠBible": 9210,
    "ĠBig": 4370,
    "ĠBill": 3421,
    "ĠBit": 4240,
    "ĠBitcoin": 5336,
    "ĠBl": 1286,
    "ĠBlack": 3041,
    "ĠBloom": 9478,
    "ĠBlue": 6201,
    "ĠBo": 3532,
    "ĠBoard": 6255,
    "ĠBob": 6322,
    "ĠBoe": 9899,
    "ĠBon": 9155,
    "ĠBook": 5613,
    "ĠBoston": 5327,
    "ĠBoth": 5539,
    "ĠBowl": 7379,
    "ĠBoy": 6409,
    "ĠBr": 1762,
    "ĠBra": 9311,
    "ĠBrad": 6851,
    "ĠBrazil": 6229,
    "ĠBre": 3761,
    "ĠBrew": 8435,
    "ĠBrexit": 9710,
    "ĠBrian": 7275,
    "ĠBridge": 9270,
    "ĠBrit": 2018,
    "ĠBritain": 4602,
    "ĠBritish": 2956,
    "ĠBro": 1937,
    "ĠBroad": 8719,
    "ĠBron": 8977,
    "ĠBrook": 6467,
    "ĠBrother": 8353,
    "ĠBrown": 3914,
    "ĠBru": 7217,
    "ĠBruce": 9586,
    "ĠBry": 8050,
    "ĠBud": 9561,
    "ĠBudd": 8488,
    "ĠBuff": 8869,
    "ĠBull": 7533,
    "ĠBur": 5284,
    "ĠBureau": 9054,
    "ĠBush": 4185,
    "ĠBusiness": 7540,
    "ĠBut": 819,
    "ĠBy": 2795,
    "ĠC": 336,
    "ĠCA": 8753,
    "ĠCBS": 8631,
    "ĠCD": 7053,
    "ĠCEO": 4830,
    "ĠCH": 8820,
    "ĠCIA": 6588,
    "ĠCNN": 6173,
    "ĠCO": 8205,
    "ĠCS": 9716,
    "ĠCal": 2077,
    "ĠCalif": 2778,
    "ĠCalifornia": 2999,
    "ĠCall": 7600,
    "ĠCam": 7078,
    "ĠCamer": 6908,
    "ĠCameron": 8352,
    "ĠCamp": 5286,
    "ĠCan": 1470,
    "ĠCanad": 1969,
    "ĠCanada": 2961,
    "ĠCanadian": 4499,
    "ĠCap": 3804,
    "ĠCapital": 9703,
    "ĠCapt": 9077,
    "ĠCar": 1766,
    "ĠCard": 6590,
    "ĠCare": 7453,
    "ĠCarl": 7024,
    "ĠCarol": 4545,
    "ĠCarolina": 5167,
    "ĠCarter": 9402,
    "ĠCast": 6838,
    "ĠCat": 7192,
    "ĠCath": 5365,
    "ĠCatholic": 6566,
    "ĠCent": 1878,
    "ĠCenter": 3131,
    "ĠCentral": 5224,
    "ĠCentre": 8018,
    "ĠCh": 622,
    "ĠChair": 8557,
    "ĠChampionship": 7283,
    "ĠChar": 3221,
    "ĠCharl": 5629,
    "ĠCharles": 6684,
    "ĠChe": 3353,
    "ĠCheck": 8573,
    "ĠChelsea": 9741,
    "ĠChicago": 4144,
    "ĠChief": 5362,
    "ĠChild": 6770,
    "ĠChildren": 9750,
    "ĠChina": 2324,
    "ĠChinese": 3432,
    "ĠChris": 4641,
    "ĠChrist": 1840,
    "ĠChristian": 3837,
    "ĠChristians": 8077,
    "ĠChristmas": 6003,
    "ĠChurch": 4546,
    "ĠCirc": 8171,
    "ĠCity": 2104,
    "ĠCivil": 7338,
    "ĠCl": 1116,
    "ĠClass": 6909,
    "ĠCle": 6683,
    "ĠCleveland": 8763,
    "ĠClick": 9342,
    "ĠClinton": 2103,
    "ĠClub": 6374,
    "ĠCo": 1832,
    "ĠCoast": 7595,
    "ĠCode": 9119,
    "ĠCol": 1705,
    "ĠColl": 7625,
    "ĠCollege": 4992,
    "ĠColor": 5544,
    "ĠColorado": 6390,
    "ĠColumb": 6166,
    "ĠColumbia": 8449,
    "ĠCom": 1073,
    "ĠCome": 7644,
    "ĠComey": 9963,
    "ĠComm": 1958,
    "ĠCommission": 4225,
    "ĠCommittee": 4212,
    "ĠCommon": 9591,
    "ĠCommun": 4469,
    "ĠCommunity": 8376,
    "ĠComp": 3867,
    "ĠCompany": 6998,
    "ĠCon": 1632,
    "ĠConf": 7312,
    "ĠConference": 8010,
    "ĠCong": 2448,
    "ĠCongress": 2616,
    "ĠConnect": 8853,
    "ĠCons": 3468,
    "ĠConserv": 5601,
    "ĠConservative": 8491,
    "ĠConst": 4840,
    "ĠConstitution": 7287,
    "ĠCont": 3034,
    "ĠContin": 7425,
    "ĠControl": 8575,
    "ĠCook": 8454,
    "ĠCooper": 9152,
    "ĠCor": 2848,
    "ĠCore": 8419,
    "ĠCorpor": 9134,
    "ĠCost": 8927,
    "ĠCoun": 3379,
    "ĠCouncil": 3863,
    "ĠCount": 2690,
    "ĠCounty": 3106,
    "ĠCourt": 2931,
    "ĠCow": 9358,
    "ĠCr": 3904,
    "ĠCre": 8703,
    "ĠCreat": 9945,
    "ĠCredit": 9727,
    "ĠCrime": 9751,
    "ĠCro": 9214,
    "ĠCross": 7361,
    "ĠCru": 5466,
    "ĠCruz": 6719,
    "ĠCub": 6318,
    "ĠCup": 4305,
    "ĠCur": 5503,
    "ĠCy": 6561,
    "ĠD": 383,
    "ĠDC": 6408,
    "ĠDNA": 7114,
    "ĠDO": 9349,
    "ĠDaily": 5660,
    "ĠDallas": 7339,
    "ĠDam": 6970,
    "ĠDan": 5439,
    "ĠDaniel": 7097,
    "ĠDar": 7165,
    "ĠDark": 7204,
    "ĠData": 8042,
    "ĠDav": 2231,
    "ĠDave": 9003,
    "ĠDavid": 2868,
    "ĠDavis": 6611,
    "ĠDay": 3637,
    "ĠDe": 1170,
    "ĠDead": 7697,
    "ĠDeath": 9012,
    "ĠDeb": 9551,
    "ĠDec": 5000,
    "ĠDecember": 3043,
    "ĠDef": 3928,
    "ĠDefense": 6739,
    "ĠDel": 4298,
    "ĠDem": 1616,
    "ĠDemocrat": 1870,
    "ĠDemocratic": 3378,
    "ĠDemocrats": 3583,
    "ĠDen": 5210,
    "ĠDenver": 9073,
    "ĠDep": 2065,
    "ĠDepartment": 2473,
    "ĠDer": 9798,
    "ĠDes": 3366,
    "ĠDesign": 9354,
    "ĠDespite": 7107,
    "ĠDet": 8859,
    "ĠDetroit": 6854,
    "ĠDev": 6239,
    "ĠDevelop": 6211,
    "ĠDevelopment": 7813,
    "ĠDi": 6649,
    "ĠDid": 8054,
    "ĠDie": 6527,
    "ĠDiego": 8015,
    "ĠDig": 8258,
    "ĠDirect": 4563,
    "ĠDirector": 5792,
    "ĠDis": 3707,
    "ĠDisney": 7235,
    "ĠDist": 4425,
    "ĠDistrict": 5233,
    "ĠDiv": 6401,
    "ĠDivision": 8305,
    "ĠDo": 2604,
    "ĠDoes": 8964,
    "ĠDon": 2023,
    "ĠDonald": 3233,
    "ĠDou": 5981,
    "ĠDown": 6648,
    "ĠDr": 2496,
    "ĠDun": 7032,
    "ĠDuring": 5489,
    "ĠDutch": 9301,
    "ĠE": 440,
    "ĠESP": 7853,
    "ĠESPN": 8256,
    "ĠEU": 3807,
    "ĠEach": 6364,
    "ĠEag": 8997,
    "ĠEarth": 3815,
    "ĠEast": 3242,
    "ĠEastern": 7607,
    "ĠEconom": 6597,
    "ĠEd": 2319,
    "ĠEduc": 7437,
    "ĠEducation": 8058,
    "ĠEdward": 9376,
    "ĠEff": 9659,
    "ĠEgypt": 5298,
    "ĠEl": 2878,
    "ĠElect": 6477,
    "ĠElizabeth": 9935,
    "ĠEll": 6601,
    "ĠEm": 2699,
    "ĠEmail": 9992,
    "ĠEmpire": 8984,
    "ĠEn": 2634,
    "ĠEnd": 7089,
    "ĠEnergy": 6662,
    "ĠEng": 1985,
    "ĠEngine": 8721,
    "ĠEngland": 3999,
    "ĠEnglish": 3634,
    "ĠEnter": 6823,
    "ĠEnvironment": 8706,
    "ĠEp": 7446,
    "ĠEqu": 9857,
    "ĠEr": 6536,
    "ĠEric": 6508,
    "ĠEs": 8330,
    "ĠEth": 9816,
    "ĠEuro": 1592,
    "ĠEurope": 1715,
    "ĠEuropean": 2898,
    "ĠEv": 4503,
    "ĠEven": 3369,
    "ĠEvery": 3993,
    "ĠEx": 1957,
    "ĠExper": 9836,
    "ĠExpl": 9486,
    "ĠExt": 8748,
    "ĠF": 401,
    "ĠFBI": 4561,
    "ĠFC": 7919,
    "ĠFacebook": 2629,
    "ĠFair": 8039,
    "ĠFal": 9764,
    "ĠFall": 9484,
    "ĠFamily": 8673,
    "ĠFar": 6424,
    "ĠFe": 5480,
    "ĠFeb": 2817,
    "ĠFebruary": 3306,
    "ĠFed": 8076,
    "ĠFederal": 5434,
    "ĠFer": 6113,
    "ĠFestival": 9844,
    "ĠField": 8052,
    "ĠFil": 6877,
    "ĠFin": 4505,
    "ĠFire": 5073,
    "ĠFirst": 3415,
    "ĠFl": 1911,
    "ĠFlor": 3897,
    "ĠFlorida": 4077,
    "ĠFollow": 5905,
    "ĠFood": 7757,
    "ĠFoot": 7777,
    "ĠFootball": 8900,
    "ĠFor": 1227,
    "ĠForce": 5546,
    "ĠFord": 6976,
    "ĠFore": 4812,
    "ĠForeign": 7506,
    "ĠForm": 9218,
    "ĠFort": 6819,
    "ĠFound": 4336,
    "ĠFoundation": 5178,
    "ĠFour": 6989,
    "ĠFox": 4547,
    "ĠFr": 1184,
    "ĠFranc": 3876,
    "ĠFrance": 4159,
    "ĠFrancis": 4276,
    "ĠFrancisco": 5255,
    "ĠFrank": 4805,
    "ĠFre": 7457,
    "ĠFred": 7956,
    "ĠFree": 5591,
    "ĠFreedom": 8660,
    "ĠFrench": 3659,
    "ĠFriday": 2670,
    "ĠFriend": 9990,
    "ĠFrom": 3995,
    "ĠFront": 9148,
    "ĠFull": 8187,
    "ĠFund": 7951,
    "ĠFurther": 8221,
    "ĠG": 421,
    "ĠGM": 6182,
    "ĠGOP": 4782,
    "ĠGT": 9781,
    "ĠGal": 5348,
    "ĠGalaxy": 9084,
    "ĠGall": 7187,
    "ĠGame": 4583,
    "ĠGames": 6498,
    "ĠGar": 6517,
    "ĠGary": 9865,
    "ĠGaza": 8644,
    "ĠGe": 2200,
    "ĠGen": 6042,
    "ĠGener": 3408,
    "ĠGeneral": 3963,
    "ĠGeor": 2797,
    "ĠGeorge": 3871,
    "ĠGeorgia": 6996,
    "ĠGer": 7630,
    "ĠGerman": 2340,
    "ĠGermany": 3839,
    "ĠGet": 4271,
    "ĠGetty": 8777,
    "ĠGi": 7434,
    "ĠGirl": 9221,
    "ĠGl": 2856,
    "ĠGlobal": 7788,
    "ĠGo": 1500,
    "ĠGod": 2633,
    "ĠGold": 3972,
    "ĠGolden": 8585,
    "ĠGood": 5040,
    "ĠGoogle": 2667,
    "ĠGov": 8300,
    "ĠGovern": 3755,
    "ĠGovernment": 4954,
    "ĠGovernor": 9276,
    "ĠGr": 2059,
    "ĠGra": 6472,
    "ĠGraham": 9470,
    "ĠGrand": 5944,
    "ĠGreat": 4386,
    "ĠGree": 4740,
    "ĠGreece": 8580,
    "ĠGreek": 7738,
    "ĠGreen": 3565,
    "ĠGreg": 7838,
    "ĠGroup": 4832,
    "ĠGu": 2192,
    "ĠGuard": 5436,
    "ĠGuardian": 8452,
    "ĠGulf": 9419,
    "ĠGun": 8966,
    "ĠH": 375,
    "ĠHD": 8397,
    "ĠHT": 7934,
    "ĠHa": 9044,
    "ĠHall": 4476,
    "ĠHam": 3932,
    "ĠHamilton": 9735,
    "ĠHar": 2129,
    "ĠHard": 8153,
    "ĠHarris": 8739,
    "ĠHarry": 8092,
    "ĠHarvard": 9305,
    "ĠHas": 7791,
    "ĠHave": 9339,
    "ĠHaw": 5588,
    "ĠHawai": 9774,
    "ĠHay": 8072,
    "ĠHe": 688,
    "ĠHead": 8592,
    "ĠHealth": 4218,
    "ĠHel": 6532,
    "ĠHell": 9036,
    "ĠHen": 6212,
    "ĠHenry": 7837,
    "ĠHer": 3047,
    "ĠHere": 3665,
    "ĠHigh": 3911,
    "ĠHill": 2825,
    "ĠHillary": 4080,
    "ĠHind": 8981,
    "ĠHis": 2377,
    "ĠHist": 6376,
    "ĠHistory": 8623,
    "ĠHit": 7867,
    "ĠHo": 8567,
    "ĠHol": 5679,
    "ĠHold": 9756,
    "ĠHollywood": 6965,
    "ĠHom": 7686,
    "ĠHome": 6545,
    "ĠHon": 9415,
    "ĠHong": 9604,
    "ĠHop": 9359,
    "ĠHor": 8086,
    "ĠHospital": 8625,
    "ĠHot": 7447,
    "ĠHouse": 1824,
    "ĠHouston": 6476,
    "ĠHow": 1422,
    "ĠHoward": 8768,
    "ĠHowever": 2205,
    "ĠHuman": 5884,
    "ĠHun": 7189,
    "ĠHur": 9280,
    "ĠHy": 6040,
    "ĠI": 316,
    "ĠID": 6074,
    "ĠII": 3553,
    "ĠIII": 8289,
    "ĠIN": 5725,
    "ĠIP": 6546,
    "ĠIS": 3008,
    "ĠISIS": 6254,
    "ĠIT": 7443,
    "ĠIce": 8378,
    "ĠId": 7281,
    "ĠIf": 1164,
    "ĠIll": 6013,
    "ĠIllinois": 8630,
    "ĠIm": 2096,
    "ĠImage": 6440,
    "ĠImages": 5193,
    "ĠIn": 580,
    "ĠInc": 4508,
    "ĠInd": 1326,
    "ĠIndeed": 8817,
    "ĠIndia": 3135,
    "ĠIndian": 3492,
    "ĠIndiana": 8988,
    "ĠIndust": 9579,
    "ĠInf": 6729,
    "ĠInformation": 8358,
    "ĠIns": 6903,
    "ĠInst": 2228,
    "ĠInstagram": 9746,
    "ĠInstead": 4813,
    "ĠInstitute": 4456,
    "ĠInt": 3349,
    "ĠIntelligence": 8781,
    "ĠInter": 4941,
    "ĠIntern": 2277,
    "ĠInternational": 3779,
    "ĠInternet": 3913,
    "ĠInvest": 7666,
    "ĠIowa": 7661,
    "ĠIr": 4999,
    "ĠIran": 3173,
    "ĠIranian": 8609,
    "ĠIraq": 3190,
    "ĠIraqi": 8704,
    "ĠIreland": 6240,
    "ĠIrish": 7170,
    "ĠIs": 1083,
    "ĠIslam": 2838,
    "ĠIslamic": 4420,
    "ĠIsland": 5458,
    "ĠIsrael": 2107,
    "ĠIsraeli": 4682,
    "ĠIt": 632,
    "ĠItalian": 7334,
    "ĠItaly": 6958,
    "ĠIts": 6311,
    "ĠJ": 455,
    "ĠJac": 7996,
    "ĠJack": 3510,
    "ĠJackson": 5735,
    "ĠJam": 9110,
    "ĠJames": 3441,
    "ĠJan": 2207,
    "ĠJanuary": 2824,
    "ĠJapan": 2743,
    "ĠJapanese": 4916,
    "ĠJason": 8025,
    "ĠJava": 6734,
    "ĠJay": 8349,
    "ĠJeff": 4806,
    "ĠJer": 4412,
    "ĠJersey": 6978,
    "ĠJerusalem": 9516,
    "ĠJes": 5263,
    "ĠJesus": 6577,
    "ĠJew": 3086,
    "ĠJewish": 4726,
    "ĠJews": 6181,
    "ĠJim": 4774,
    "ĠJo": 5369,
    "ĠJoe": 5041,
    "ĠJohn": 1568,
    "ĠJohnson": 4358,
    "ĠJon": 5246,
    "ĠJonathan": 9620,
    "ĠJones": 4663,
    "ĠJordan": 7144,
    "ĠJose": 5014,
    "ĠJoseph": 7349,
    "ĠJosh": 7585,
    "ĠJournal": 5414,
    "ĠJr": 6780,
    "ĠJud": 4874,
    "ĠJudge": 8139,
    "ĠJul": 6030,
    "ĠJuly": 2594,
    "ĠJune": 2547,
    "ĠJust": 2308,
    "ĠJustice": 4297,
    "ĠJustin": 9232,
    "ĠK": 526,
    "ĠKansas": 8144,
    "ĠKar": 9184,
    "ĠKat": 8333,
    "ĠKe": 3213,
    "ĠKeep": 9985,
    "ĠKelly": 7577,
    "ĠKen": 4688,
    "ĠKennedy": 8657,
    "ĠKent": 7643,
    "ĠKevin": 6848,
    "ĠKey": 7859,
    "ĠKh": 4845,
    "ĠKick": 9960,
    "ĠKim": 6224,
    "ĠKing": 3116,
    "ĠKingdom": 7795,
    "ĠKir": 7981,
    "ĠKn": 7071,
    "ĠKong": 8809,
    "ĠKore": 3002,
    "ĠKorea": 4253,
    "ĠKorean": 6324,
    "ĠKurd": 7638,
    "ĠL": 430,
    "ĠLA": 9106,
    "ĠLGBT": 7616,
    "ĠLa": 3984,
    "ĠLab": 4406,
    "ĠLabor": 7019,
    "ĠLabour": 5851,
    "ĠLake": 5974,
    "ĠLam": 9742,
    "ĠLand": 7034,
    "ĠLas": 8814,
    "ĠLast": 5234,
    "ĠLat": 5241,
    "ĠLatin": 8238,
    "ĠLaw": 4128,
    "ĠLe": 1062,
    "ĠLeader": 9507,
    "ĠLeague": 3418,
    "ĠLee": 5497,
    "ĠLeft": 9422,
    "ĠLeg": 4871,
    "ĠLeon": 9762,
    "ĠLet": 4126,
    "ĠLew": 7277,
    "ĠLewis": 8755,
    "ĠLib": 6293,
    "ĠLiber": 4349,
    "ĠLiberal": 9468,
    "ĠLibya": 9882,
    "ĠLife": 6142,
    "ĠLight": 7261,
    "ĠLike": 4577,
    "ĠLin": 5895,
    "ĠLind": 8228,
    "ĠLine": 9060,
    "ĠLink": 9631,
    "ĠLinux": 7518,
    "ĠList": 9247,
    "ĠLittle": 8348,
    "ĠLive": 7758,
    "ĠLiverpool": 9252,
    "ĠLo": 7696,
    "ĠLondon": 3224,
    "ĠLong": 6578,
    "ĠLook": 7504,
    "ĠLord": 6609,
    "ĠLos": 4618,
    "ĠLou": 4180,
    "ĠLouis": 4857,
    "ĠLove": 7061,
    "ĠLow": 9173,
    "ĠLt": 9536,
    "ĠLu": 6910,
    "ĠLuc": 8199,
    "ĠLy": 8197,
    "ĠLyn": 8906,
    "ĠM": 346,
    "ĠML": 5926,
    "ĠMLS": 9932,
    "ĠMORE": 9635,
    "ĠMP": 4847,
    "ĠMS": 7255,
    "ĠMa": 5833,
    "ĠMac": 3958,
    "ĠMach": 9229,
    "ĠMad": 4528,
    "ĠMag": 4025,
    "ĠMagic": 9583,
    "ĠMah": 8354,
    "ĠMain": 9559,
    "ĠMajor": 7841,
    "ĠMake": 8462,
    "ĠMal": 4249,
    "ĠMan": 2056,
    "ĠManagement": 9806,
    "ĠManchester": 8020,
    "ĠMany": 4392,
    "ĠMar": 1521,
    "ĠMarch": 2467,
    "ĠMark": 3187,
    "ĠMarket": 8167,
    "ĠMars": 7628,
    "ĠMarsh": 8910,
    "ĠMart": 3620,
    "ĠMartin": 4980,
    "ĠMarvel": 8884,
    "ĠMarx": 9856,
    "ĠMary": 5048,
    "ĠMaryland": 9272,
    "ĠMass": 5364,
    "ĠMassachusetts": 8516,
    "ĠMaster": 8955,
    "ĠMat": 4199,
    "ĠMatt": 5720,
    "ĠMatthew": 8442,
    "ĠMax": 6829,
    "ĠMay": 1644,
    "ĠMaybe": 6303,
    "ĠMayor": 8158,
    "ĠMc": 1630,
    "ĠMcC": 3324,
    "ĠMcCain": 8212,
    "ĠMcG": 7965,
    "ĠMe": 2539,
    "ĠMean": 8687,
    "ĠMeanwhile": 9566,
    "ĠMed": 2352,
    "ĠMedia": 5857,
    "ĠMedic": 5473,
    "ĠMedical": 8379,
    "ĠMel": 5468,
    "ĠMem": 5743,
    "ĠMen": 6709,
    "ĠMer": 4786,
    "ĠMess": 9931,
    "ĠMet": 4926,
    "ĠMetro": 9818,
    "ĠMex": 3729,
    "ĠMexican": 8797,
    "ĠMexico": 4886,
    "ĠMiami": 7075,
    "ĠMic": 6921,
    "ĠMich": 2524,
    "ĠMichael": 3426,
    "ĠMichel": 9997,
    "ĠMichigan": 6006,
    "ĠMicro": 4278,
    "ĠMicrosoft": 4787,
    "ĠMid": 7909,
    "ĠMiddle": 5272,
    "ĠMike": 4303,
    "ĠMil": 4304,
    "ĠMill": 9195,
    "ĠMiller": 6880,
    "ĠMin": 1871,
    "ĠMinister": 3481,
    "ĠMinistry": 8328,
    "ĠMinnesota": 7386,
    "ĠMir": 8057,
    "ĠMiss": 4717,
    "ĠMit": 9999,
    "ĠMo": 4050,
    "ĠMod": 4228,
    "ĠMoh": 7891,
    "ĠMon": 3466,
    "ĠMond": 2625,
    "ĠMonday": 2711,
    "ĠMont": 4945,
    "ĠMoon": 8850,
    "ĠMoore": 7225,
    "ĠMor": 3343,
    "ĠMore": 3246,
    "ĠMorgan": 9916,
    "ĠMos": 5179,
    "ĠMoscow": 7623,
    "ĠMost": 4086,
    "ĠMot": 6496,
    "ĠMount": 6137,
    "ĠMr": 1713,
    "ĠMrs": 9694,
    "ĠMs": 6301,
    "ĠMu": 7742,
    "ĠMur": 5331,
    "ĠMurray": 9944,
    "ĠMus": 2399,
    "ĠMuseum": 8492,
    "ĠMusic": 8246,
    "ĠMuslim": 3169,
    "ĠMuslims": 5950,
    "ĠMy": 2484,
    "ĠN": 409,
    "ĠNAS": 5776,
    "ĠNASA": 7022,
    "ĠNATO": 8793,
    "ĠNBA": 6237,
    "ĠNBC": 7515,
    "ĠNC": 8079,
    "ĠNFL": 4332,
    "ĠNHL": 7036,
    "ĠNOT": 8924,
    "ĠNSA": 8367,
    "ĠNY": 6647,
    "ĠNation": 7641,
    "ĠNational": 2067,
    "ĠNations": 7153,
    "ĠNavy": 7748,
    "ĠNe": 2737,
    "ĠNet": 3276,
    "ĠNetflix": 9544,
    "ĠNetwork": 7045,
    "ĠNev": 8933,
    "ĠNever": 8347,
    "ĠNew": 897,
    "ĠNews": 2405,
    "ĠNext": 8206,
    "ĠNic": 8112,
    "ĠNick": 7562,
    "ĠNight": 7031,
    "ĠNintendo": 9149,
    "ĠNo": 1769,
    "ĠNob": 7991,
    "ĠNor": 5018,
    "ĠNorth": 2031,
    "ĠNorthern": 7712,
    "ĠNot": 2412,
    "ĠNote": 8009,
    "ĠNov": 5549,
    "ĠNovember": 2866,
    "ĠNow": 2783,
    "ĠO": 466,
    "ĠOF": 6606,
    "ĠOK": 8051,
    "ĠON": 8409,
    "ĠOS": 7234,
    "ĠOak": 7881,
    "ĠOakland": 9940,
    "ĠOb": 1426,
    "ĠObama": 1751,
    "ĠObamacare": 9382,
    "ĠOct": 2433,
    "ĠOctober": 2944,
    "ĠOf": 3675,
    "ĠOff": 2791,
    "ĠOffice": 4273,
    "ĠOh": 4158,
    "ĠOhio": 5804,
    "ĠOk": 7087,
    "ĠOklahoma": 9462,
    "ĠOl": 7790,
    "ĠOld": 6634,
    "ĠOlymp": 5693,
    "ĠOlympic": 9160,
    "ĠOn": 1757,
    "ĠOnce": 5388,
    "ĠOne": 1920,
    "ĠOnly": 6249,
    "ĠOnt": 8242,
    "ĠOntario": 9132,
    "ĠOp": 9936,
    "ĠOpen": 5441,
    "ĠOper": 7421,
    "ĠOr": 1642,
    "ĠOregon": 7662,
    "ĠOrgan": 7322,
    "ĠOrig": 9089,
    "ĠOs": 7486,
    "ĠOther": 4266,
    "ĠOtt": 8031,
    "ĠOur": 4311,
    "ĠOut": 5010,
    "ĠOver": 4537,
    "ĠP": 358,
    "ĠPA": 9335,
    "ĠPC": 4777,
    "ĠPD": 9263,
    "ĠPM": 4455,
    "ĠPR": 6920,
    "ĠPS": 6638,
    "ĠPac": 5600,
    "ĠPacific": 7494,
    "ĠPack": 8131,
    "ĠPakistan": 4879,
    "ĠPal": 2732,
    "ĠPalest": 4268,
    "ĠPalestin": 4866,
    "ĠPalestinian": 6576,
    "ĠPalestinians": 9617,
    "ĠPan": 6809,
    "ĠPar": 2588,
    "ĠParis": 5427,
    "ĠPark": 3079,
    "ĠParliament": 7428,
    "ĠPart": 2270,
    "ĠParty": 3114,
    "ĠPass": 9057,
    "ĠPat": 3094,
    "ĠPatri": 8787,
    "ĠPatrick": 8459,
    "ĠPaul": 2884,
    "ĠPay": 7869,
    "ĠPe": 2578,
    "ĠPen": 8133,
    "ĠPenn": 5800,
    "ĠPennsylvania": 8276,
    "ĠPent": 8451,
    "ĠPentagon": 9915,
    "ĠPeople": 4146,
    "ĠPer": 2731,
    "ĠPerhaps": 8056,
    "ĠPerson": 9504,
    "ĠPet": 5046,
    "ĠPeter": 5243,
    "ĠPh": 1431,
    "ĠPhil": 4153,
    "ĠPhiladelphia": 7717,
    "ĠPhilipp": 8381,
    "ĠPhot": 6077,
    "ĠPhoto": 5505,
    "ĠPict": 9783,
    "ĠPit": 8291,
    "ĠPl": 1589,
    "ĠPlan": 5259,
    "ĠPlay": 3542,
    "ĠPlease": 5474,
    "ĠPlus": 8868,
    "ĠPo": 8782,
    "ĠPoint": 8016,
    "ĠPol": 2007,
    "ĠPolice": 3834,
    "ĠPolicy": 7731,
    "ĠPolit": 6818,
    "ĠPop": 8975,
    "ĠPort": 4151,
    "ĠPortland": 9103,
    "ĠPost": 3064,
    "ĠPot": 8607,
    "ĠPower": 5641,
    "ĠPr": 1980,
    "ĠPre": 4769,
    "ĠPrem": 6299,
    "ĠPremier": 7949,
    "ĠPres": 9594,
    "ĠPresident": 1671,
    "ĠPress": 4237,
    "ĠPri": 4616,
    "ĠPrice": 9512,
    "ĠPrime": 5153,
    "ĠPrince": 8897,
    "ĠPro": 1243,
    "ĠProf": 4950,
    "ĠProfessor": 8512,
    "ĠProgram": 7395,
    "ĠProject": 5710,
    "ĠProp": 9387,
    "ĠProt": 5377,
    "ĠProv": 9016,
    "ĠPublic": 5304,
    "ĠPut": 5300,
    "ĠPutin": 6583,
    "ĠPy": 6706,
    "ĠQ": 1425,
    "ĠQu": 3015,
    "ĠQue": 4625,
    "ĠQueen": 8446,
    "ĠR": 390,
    "ĠRE": 6174,
    "ĠRa": 8591,
    "ĠRad": 5618,
    "ĠRadio": 8047,
    "ĠRam": 6399,
    "ĠRand": 7901,
    "ĠRay": 7634,
    "ĠRe": 1003,
    "ĠRead": 6015,
    "ĠReal": 7197,
    "ĠRec": 3921,
    "ĠRed": 2681,
    "ĠRef": 8194,
    "ĠReg": 4088,
    "ĠRel": 5691,
    "ĠRem": 5551,
    "ĠRen": 8433,
    "ĠRep": 1256,
    "ĠReport": 8002,
    "ĠRepresent": 9930,
    "ĠRepublic": 1561,
    "ĠRepublican": 2509,
    "ĠRepublicans": 3368,
    "ĠRes": 2296,
    "ĠResearch": 5087,
    "ĠRet": 7950,
    "ĠReuters": 8104,
    "ĠRev": 5997,
    "ĠReview": 7962,
    "ĠRevolution": 8587,
    "ĠRich": 3579,
    "ĠRichard": 4960,
    "ĠRick": 7698,
    "ĠRight": 6646,
    "ĠRights": 6413,
    "ĠRiver": 5442,
    "ĠRo": 5557,
    "ĠRoad": 5721,
    "ĠRob": 3961,
    "ĠRober": 3667,
    "ĠRobert": 4698,
    "ĠRoberts": 9208,
    "ĠRock": 4892,
    "ĠRod": 6055,
    "ĠRog": 7290,
    "ĠRom": 3218,
    "ĠRoman": 7414,
    "ĠRomney": 6223,
    "ĠRon": 6009,
    "ĠRos": 9038,
    "ĠRose": 8164,
    "ĠRoss": 8583,
    "ĠRoy": 8494,
    "ĠRoyal": 7872,
    "ĠRub": 5415,
    "ĠRuby": 9499,
    "ĠRun": 9440,
    "ĠRus": 8100,
    "ĠRuss": 1614,
    "ĠRussia": 2764,
    "ĠRussian": 3013,
    "ĠRyan": 4930,
    "ĠS": 320,
    "ĠSC": 7455,
    "ĠSP": 7827,
    "ĠSS": 8309,
    "ĠST": 5297,
    "ĠSab": 9474,
    "ĠSaf": 7802,
    "ĠSal": 4875,
    "ĠSam": 4252,
    "ĠSamsung": 8827,
    "ĠSan": 2793,
    "ĠSand": 3303,
    "ĠSanders": 4463,
    "ĠSant": 5453,
    "ĠSanta": 8392,
    "ĠSar": 6537,
    "ĠSarah": 9483,
    "ĠSat": 8106,
    "ĠSaturday": 3274,
    "ĠSaud": 5531,
    "ĠSaudi": 6090,
    "ĠSc": 1585,
    "ĠSch": 2921,
    "ĠSchool": 3798,
    "ĠScience": 5960,
    "ĠScient": 8887,
    "ĠScot": 5927,
    "ĠScotland": 7202,
    "ĠScott": 4060,
    "ĠScottish": 9576,
    "ĠSe": 1141,
    "ĠSea": 7172,
    "ĠSean": 9833,
    "ĠSeason": 8562,
    "ĠSeattle": 6043,
    "ĠSec": 2025,
    "ĠSecond": 6144,
    "ĠSecret": 4179,
    "ĠSecretary": 5104,
    "ĠSecurity": 4342,
    "ĠSee": 6046,
    "ĠSen": 1917,
    "ĠSenate": 3092,
    "ĠSenator": 7514,
    "ĠSept": 2472,
    "ĠSeptember": 2842,
    "ĠSer": 3486,
    "ĠSeries": 7615,
    "ĠServ": 3551,
    "ĠService": 5144,
    "ĠServices": 7157,
    "ĠSet": 9022,
    "ĠSh": 1101,
    "ĠShare": 8656,
    "ĠShe": 1442,
    "ĠSher": 6031,
    "ĠShow": 5680,
    "ĠSign": 6110,
    "ĠSil": 4729,
    "ĠSilver": 9506,
    "ĠSim": 3605,
    "ĠSince": 4576,
    "ĠSing": 5518,
    "ĠSir": 8254,
    "ĠSix": 9702,
    "ĠSk": 7240,
    "ĠSky": 6341,
    "ĠSl": 4595,
    "ĠSm": 2593,
    "ĠSmith": 3829,
    "ĠSn": 7884,
    "ĠSnow": 7944,
    "ĠSo": 1403,
    "ĠSoc": 3331,
    "ĠSocial": 5371,
    "ĠSociety": 6973,
    "ĠSol": 5328,
    "ĠSom": 9307,
    "ĠSome": 2765,
    "ĠSometimes": 9026,
    "ĠSon": 9877,
    "ĠSony": 8632,
    "ĠSouth": 2233,
    "ĠSouthern": 7298,
    "ĠSov": 5966,
    "ĠSoviet": 6491,
    "ĠSp": 1523,
    "ĠSpace": 5700,
    "ĠSpain": 7362,
    "ĠSpanish": 7067,
    "ĠSpe": 3314,
    "ĠSpecial": 7539,
    "ĠSports": 6340,
    "ĠSpr": 5396,
    "ĠSpring": 8410,
    "ĠSqu": 5845,
    "ĠSquare": 8283,
    "ĠSt": 550,
    "ĠStadium": 8678,
    "ĠStan": 6073,
    "ĠStand": 7037,
    "ĠStar": 3630,
    "ĠStart": 8842,
    "ĠStat": 8651,
    "ĠState": 1791,
    "ĠStates": 1714,
    "ĠStation": 9820,
    "ĠSte": 2553,
    "ĠStep": 4839,
    "ĠStephen": 6859,
    "ĠSteve": 5528,
    "ĠSteven": 7265,
    "ĠStill": 7618,
    "ĠStone": 8357,
    "ĠStore": 9698,
    "ĠStory": 9569,
    "ĠStr": 6296,
    "ĠStreet": 3068,
    "ĠStud": 4189,
    "ĠSu": 2144,
    "ĠSub": 5005,
    "ĠSuch": 8582,
    "ĠSum": 6000,
    "ĠSun": 4083,
    "ĠSund": 2829,
    "ĠSunday": 2979,
    "ĠSup": 4693,
    "ĠSuper": 3626,
    "ĠSupp": 6698,
    "ĠSupreme": 4920,
    "ĠSur": 4997,
    "ĠSus": 9031,
    "ĠSw": 3023,
    "ĠSwed": 6234,
    "ĠSweden": 9096,
    "ĠSy": 1636,
    "ĠSydney": 9634,
    "ĠSyri": 2529,
    "ĠSyria": 3680,
    "ĠSyrian": 5159,
    "ĠSystem": 5842,
    "ĠT": 315,
    "ĠTH": 3338,
    "ĠTHE": 4896,
    "ĠTO": 6187,
    "ĠTV": 2850,
    "ĠTai": 9889,
    "ĠTake": 7582,
    "ĠTal": 6759,
    "ĠTaylor": 7550,
    "ĠTe": 1788,
    "ĠTeam": 5008,
    "ĠTech": 9587,
    "ĠTechn": 5958,
    "ĠTechnology": 9072,
    "ĠTed": 9284,
    "ĠTele": 9571,
    "ĠTem": 7358,
    "ĠTen": 9556,
    "ĠTenn": 8284,
    "ĠTer": 5124,
    "ĠTes": 9701,
    "ĠTest": 7450,
    "ĠTex": 3130,
    "ĠTexas": 3422,
    "ĠTh": 556,
    "ĠThank": 7158,
    "ĠThanks": 7374,
    "ĠThat": 1236,
    "ĠThe": 393,
    "ĠTheir": 5092,
    "ĠThen": 3590,
    "ĠThere": 1337,
    "ĠThese": 2505,
    "ĠThey": 1079,
    "ĠThis": 853,
    "ĠThomas": 5079,
    "ĠThose": 5357,
    "ĠThough": 7139,
    "ĠThree": 7946,
    "ĠThrough": 9847,
    "ĠThursday": 2901,
    "ĠThus": 7842,
    "ĠTim": 4870,
    "ĠTime": 5208,
    "ĠTimes": 3105,
    "ĠTit": 6882,
    "ĠTo": 1990,
    "ĠToday": 5753,
    "ĠTok": 9839,
    "ĠTom": 3879,
    "ĠTony": 7609,
    "ĠTop": 6621,
    "ĠTor": 3695,
    "ĠToronto": 5256,
    "ĠTour": 9111,
    "ĠTown": 8286,
    "ĠTr": 820,
    "ĠTra": 5936,
    "ĠTrade": 9803,
    "ĠTrans": 4150,
    "ĠTre": 4689,
    "ĠTri": 8671,
    "ĠTrib": 8960,
    "ĠTro": 8727,
    "ĠTrump": 1080,
    "ĠTuesday": 2712,
    "ĠTur": 3339,
    "ĠTurk": 7098,
    "ĠTurkey": 5784,
    "ĠTurkish": 8005,
    "ĠTurn": 7116,
    "ĠTw": 7273,
    "ĠTwitter": 2424,
    "ĠTwo": 5171,
    "ĠTy": 4716,
    "ĠU": 483,
    "ĠUFC": 8105,
    "ĠUK": 2994,
    "ĠUN": 4651,
    "ĠUS": 1244,
    "ĠUSA": 5262,
    "ĠUber": 9859,
    "ĠUk": 4446,
    "ĠUkrain": 4709,
    "ĠUkraine": 6068,
    "ĠUlt": 8299,
    "ĠUn": 781,
    "ĠUnder": 5240,
    "ĠUnfortunately": 8804,
    "ĠUnion": 3819,
    "ĠUnited": 1409,
    "ĠUniversity": 1830,
    "ĠUp": 3962,
    "ĠUr": 9346,
    "ĠUs": 5105,
    "ĠUse": 8894,
    "ĠUt": 7228,
    "ĠUtah": 9099,
    "ĠV": 643,
    "ĠVR": 7977,
    "ĠVal": 3629,
    "ĠValley": 6470,
    "ĠVan": 6743,
    "ĠVancouver": 8643,
    "ĠVeg": 7715,
    "ĠVegas": 8431,
    "ĠVer": 4766,
    "ĠVice": 9577,
    "ĠVict": 6071,
    "ĠVictor": 7293,
    "ĠVideo": 9879,
    "ĠViet": 7596,
    "ĠVietnam": 9451,
    "ĠView": 7072,
    "ĠVik": 9748,
    "ĠVill": 9300,
    "ĠVirgin": 4898,
    "ĠVirginia": 5417,
    "ĠVis": 7902,
    "ĠVol": 6217,
    "ĠW": 373,
    "ĠWH": 9238,
    "ĠWW": 8613,
    "ĠWal": 5882,
    "ĠWales": 9835,
    "ĠWalk": 6298,
    "ĠWalker": 8389,
    "ĠWall": 4217,
    "ĠWar": 2019,
    "ĠWarren": 9472,
    "ĠWars": 6718,
    "ĠWas": 9291,
    "ĠWashington": 2208,
    "ĠWat": 6824,
    "ĠWatch": 6510,
    "ĠWater": 7243,
    "ĠWay": 6563,
    "ĠWe": 763,
    "ĠWeb": 5077,
    "ĠWed": 2766,
    "ĠWednesday": 2882,
    "ĠWeek": 6177,
    "ĠWell": 4099,
    "ĠWest": 2400,
    "ĠWestern": 4289,
    "ĠWh": 864,
    "ĠWhat": 1924,
    "ĠWhe": 6297,
    "ĠWhen": 1790,
    "ĠWhere": 7296,
    "ĠWhich": 8821,
    "ĠWhile": 2753,
    "ĠWhite": 2432,
    "ĠWho": 5502,
    "ĠWhy": 4231,
    "ĠWik": 6535,
    "ĠWil": 4606,
    "ĠWild": 6685,
    "ĠWill": 2459,
    "ĠWilliam": 5809,
    "ĠWilliams": 5577,
    "ĠWilson": 6881,
    "ĠWin": 7459,
    "ĠWind": 3696,
    "ĠWindows": 4376,
    "ĠWisconsin": 7755,
    "ĠWith": 2172,
    "ĠWithout": 8849,
    "ĠWolf": 9535,
    "ĠWomen": 6902,
    "ĠWood": 5953,
    "ĠWork": 6065,
    "ĠWorld": 2099,
    "ĠX": 1847,
    "ĠXbox": 8320,
    "ĠY": 629,
    "ĠYOU": 9245,
    "ĠYeah": 9994,
    "ĠYear": 6456,
    "ĠYemen": 9712,
    "ĠYes": 4803,
    "ĠYet": 5852,
    "ĠYork": 1702,
    "ĠYou": 1043,
    "ĠYouTube": 6455,
    "ĠYoung": 6768,
    "ĠYour": 4494,
    "ĠZ": 1331,
    "ĠZeal": 7454,
    "ĠZealand": 7678,
    "Ġ[": 813,
    "Ġ\\": 5904,
    "Ġ]": 1758,
    "Ġ_": 8754,
    "Ġa": 258,
    "Ġab": 445,
    "Ġabandon": 6143,
    "Ġabandoned": 8895,
    "Ġabilities": 9260,
    "Ġability": 2736,
    "Ġable": 1450,
    "Ġabortion": 6926,
    "Ġabout": 516,
    "Ġabove": 2256,
    "Ġabroad": 9108,
    "Ġabs": 2391,
    "Ġabsence": 8536,
    "Ġabsolute": 4031,
    "Ġabsolutely": 5200,
    "Ġabsor": 9088,
    "Ġabuse": 4772,
    "Ġac": 925,
    "Ġacadem": 5106,
    "Ġacademic": 7487,
    "Ġacc": 693,
    "Ġacceler": 7793,
    "Ġaccept": 2447,
    "Ġaccepted": 6131,
    "Ġaccess": 1907,
    "Ġaccessible": 9663,
    "Ġaccident": 5635,
    "Ġaccommod": 8749,
    "Ġaccomp": 7512,
    "Ġaccompl": 5947,
    "Ġaccomplish": 9091,
    "Ġaccording": 1598,
    "Ġaccount": 1875,
    "Ġaccounts": 5115,
    "Ġaccur": 4701,
    "Ġaccurate": 7291,
    "Ġaccus": 8421,
    "Ġaccused": 4395,
    "Ġachie": 3121,
    "Ġachieve": 4353,
    "Ġachieved": 7927,
    "Ġacid": 9196,
    "Ġacknow": 4901,
    "Ġacknowled": 6492,
    "Ġacknowledge": 9996,
    "Ġacknowledged": 8854,
    "Ġacqu": 4032,
    "Ġacquired": 8904,
    "Ġacross": 1782,
    "Ġact": 713,
    "Ġacting": 6582,
    "Ġaction": 2269,
    "Ġactions": 3726,
    "Ġactiv": 1741,
    "Ġactive": 4416,
    "Ġactively": 9304,
    "Ġactivist": 8569,
    "Ġactivists": 6002,
    "Ġactivities": 4658,
    "Ġactivity": 3938,
    "Ġactor": 7223,
    "Ġactors": 8521,
    "Ġacts": 6427,
    "Ġactual": 4071,
    "Ġactually": 1579,
    "Ġad": 515,
    "Ġadapt": 6940,
    "Ġadd": 767,
    "Ġadded": 1926,
    "Ġadding": 4013,
    "Ġaddition": 3088,
    "Ġadditional": 3464,
    "Ġaddress": 2280,
    "Ġaddressed": 8672,
    "Ġaddresses": 9791,
    "Ġadds": 6195,
    "Ġadjust": 5236,
    "Ġadm": 6461,
    "Ġadminist": 2310,
    "Ġadministration": 2880,
    "Ġadmit": 7201,
    "Ġadmitted": 5922,
    "Ġadop": 4110,
    "Ġadopted": 7673,
    "Ġads": 7469,
    "Ġadult": 4089,
    "Ġadults": 6362,
    "Ġadv": 1224,
    "Ġadvance": 5711,
    "Ġadvanced": 6120,
    "Ġadvant": 3845,
    "Ġadvantage": 4347,
    "Ġadventure": 9537,
    "Ġadvert": 5790,
    "Ġadvertising": 7707,
    "Ġadvice": 5878,
    "Ġadvis": 7563,
    "Ġadvoc": 4242,
    "Ġadvocates": 8547,
    "Ġaer": 9457,
    "Ġaf": 6204,
    "Ġaff": 1514,
    "Ġaffairs": 8423,
    "Ġaffect": 2808,
    "Ġaffected": 5490,
    "Ġaffili": 7745,
    "Ġafford": 4711,
    "Ġaffordable": 9475,
    "Ġafraid": 7602,
    "Ġafter": 683,
    "Ġafternoon": 5615,
    "Ġag": 544,
    "Ġagain": 735,
    "Ġagainst": 931,
    "Ġage": 2535,
    "Ġaged": 9726,
    "Ġagencies": 5180,
    "Ġagency": 3501,
    "Ġagenda": 6700,
    "Ġagent": 5575,
    "Ġagents": 5929,
    "Ġages": 9525,
    "Ġaggress": 4985,
    "Ġaggressive": 7368,
    "Ġago": 1884,
    "Ġagree": 2320,
    "Ġagreed": 4274,
    "Ġagreement": 4076,
    "Ġagric": 7774,
    "Ġahead": 3522,
    "Ġaid": 5606,
    "Ġaim": 3619,
    "Ġaimed": 7472,
    "Ġair": 1570,
    "Ġaircraft": 5604,
    "Ġairport": 7858,
    "Ġal": 424,
    "Ġalarm": 9406,
    "Ġalbum": 3994,
    "Ġalcohol": 6205,
    "Ġalgorith": 7778,
    "Ġalien": 8297,
    "Ġalive": 6795,
    "Ġall": 486,
    "Ġalleg": 2375,
    "Ġallegations": 6001,
    "Ġalleged": 3564,
    "Ġallegedly": 6384,
    "Ġallies": 6928,
    "Ġallow": 1235,
    "Ġallowed": 2933,
    "Ġallowing": 4683,
    "Ġallows": 3730,
    "Ġalmost": 1897,
    "Ġalone": 3412,
    "Ġalong": 1718,
    "Ġalongside": 6605,
    "Ġalready": 1407,
    "Ġalso": 600,
    "Ġalt": 6218,
    "Ġalter": 9519,
    "Ġaltern": 3782,
    "Ġalternative": 5137,
    "Ġalthough": 3416,
    "Ġalways": 1417,
    "Ġam": 728,
    "Ġamazing": 5003,
    "Ġamb": 4470,
    "Ġamid": 8622,
    "Ġamong": 1740,
    "Ġamount": 2262,
    "Ġamounts": 7120,
    "Ġan": 282,
    "Ġanal": 1940,
    "Ġanaly": 3747,
    "Ġanalysis": 3670,
    "Ġanalyst": 9585,
    "Ġancient": 6579,
    "Ġand": 294,
    "Ġang": 3754,
    "Ġanger": 8279,
    "Ġangry": 7321,
    "Ġanim": 2383,
    "Ġanimal": 5191,
    "Ġanimals": 4587,
    "Ġann": 1330,
    "Ġanniversary": 9407,
    "Ġannoun": 1826,
    "Ġannounce": 4351,
    "Ġannounced": 2609,
    "Ġannouncement": 6138,
    "Ġannual": 4687,
    "Ġanother": 1165,
    "Ġans": 9621,
    "Ġansw": 2562,
    "Ġanswer": 3222,
    "Ġanswered": 9975,
    "Ġanswers": 7179,
    "Ġant": 1707,
    "Ġanti": 2592,
    "Ġanticip": 7502,
    "Ġanx": 7123,
    "Ġanxiety": 9337,
    "Ġany": 626,
    "Ġanybody": 8293,
    "Ġanymore": 7207,
    "Ġanyone": 2542,
    "Ġanything": 1950,
    "Ġanyway": 6852,
    "Ġanywhere": 6338,
    "Ġap": 2359,
    "Ġapart": 5223,
    "Ġapartment": 7264,
    "Ġapolog": 7621,
    "Ġapp": 609,
    "Ġapparent": 3826,
    "Ġapparently": 5160,
    "Ġappeal": 4523,
    "Ġappear": 1647,
    "Ġappearance": 5491,
    "Ġappearances": 9042,
    "Ġappeared": 3743,
    "Ġappears": 3540,
    "Ġappl": 4131,
    "Ġapplic": 2536,
    "Ġapplication": 4100,
    "Ġapplications": 5248,
    "Ġapplied": 6154,
    "Ġapply": 5148,
    "Ġappoint": 5057,
    "Ġappointed": 9052,
    "Ġappre": 5134,
    "Ġappreci": 5578,
    "Ġappreciate": 8702,
    "Ġappro": 1315,
    "Ġapproach": 2852,
    "Ġapproached": 9249,
    "Ġappropri": 4890,
    "Ġappropriate": 5939,
    "Ġapproval": 6741,
    "Ġapproved": 5783,
    "Ġapprox": 5872,
    "Ġapproximately": 6847,
    "Ġapps": 5671,
    "Ġar": 602,
    "Ġarbit": 9436,
    "Ġarch": 3662,
    "Ġarchitect": 5943,
    "Ġarchitecture": 9549,
    "Ġare": 382,
    "Ġarea": 1951,
    "Ġareas": 2845,
    "Ġaren": 3249,
    "Ġarg": 1708,
    "Ġargue": 5996,
    "Ġargued": 5553,
    "Ġargues": 9319,
    "Ġarguing": 9353,
    "Ġargument": 4514,
    "Ġarguments": 6939,
    "Ġarm": 3910,
    "Ġarmed": 5985,
    "Ġarms": 5278,
    "Ġarmy": 5039,
    "Ġaround": 1028,
    "Ġarrange": 7986,
    "Ġarray": 8296,
    "Ġarrest": 2688,
    "Ġarrested": 4154,
    "Ġarri": 2813,
    "Ġarrival": 9901,
    "Ġarrive": 8945,
    "Ġarrived": 4895,
    "Ġart": 1193,
    "Ġarticle": 2534,
    "Ġarticles": 6276,
    "Ġartific": 9135,
    "Ġartist": 6080,
    "Ġartists": 6614,
    "Ġas": 353,
    "Ġaside": 6790,
    "Ġask": 1208,
    "Ġasked": 1807,
    "Ġasking": 4167,
    "Ġasks": 8128,
    "Ġaspect": 4647,
    "Ġaspects": 7176,
    "Ġass": 874,
    "Ġassass": 9505,
    "Ġassault": 4164,
    "Ġassert": 8940,
    "Ġassess": 4831,
    "Ġassessment": 9000,
    "Ġassets": 6688,
    "Ġassign": 9154,
    "Ġassigned": 9667,
    "Ġassist": 3364,
    "Ġassistance": 7413,
    "Ġassistant": 7383,
    "Ġassoci": 2722,
    "Ġassociated": 4328,
    "Ġassociation": 8125,
    "Ġassum": 4348,
    "Ġassume": 6915,
    "Ġassumed": 9521,
    "Ġast": 5684,
    "Ġastron": 8742,
    "Ġat": 371,
    "Ġath": 5195,
    "Ġathlet": 6146,
    "Ġathletes": 9801,
    "Ġatmosp": 6167,
    "Ġatmosphere": 7278,
    "Ġatt": 701,
    "Ġattached": 8430,
    "Ġattack": 1336,
    "Ġattacked": 6878,
    "Ġattacking": 8426,
    "Ġattacks": 3235,
    "Ġattempt": 2066,
    "Ġattempted": 6626,
    "Ġattempting": 8440,
    "Ġattempts": 5718,
    "Ġattend": 4764,
    "Ġattended": 7498,
    "Ġattention": 2984,
    "Ġattitude": 8654,
    "Ġattorney": 5306,
    "Ġattract": 3896,
    "Ġaud": 2527,
    "Ġaudience": 4426,
    "Ġaudio": 7430,
    "Ġaut": 1989,
    "Ġauth": 5937,
    "Ġauthent": 8628,
    "Ġauthor": 1767,
    "Ġauthorities": 4042,
    "Ġauthority": 5188,
    "Ġauthors": 6514,
    "Ġauto": 9085,
    "Ġautom": 3711,
    "Ġautomatically": 7493,
    "Ġautonom": 9546,
    "Ġav": 1273,
    "Ġavail": 1771,
    "Ġavailable": 1862,
    "Ġaver": 8007,
    "Ġaverage": 2686,
    "Ġavoid": 3442,
    "Ġaw": 3296,
    "Ġaward": 5070,
    "Ġawarded": 9565,
    "Ġaware": 3684,
    "Ġawareness": 8408,
    "Ġaway": 1468,
    "Ġawesome": 7218,
    "Ġax": 8978,
    "Ġb": 275,
    "Ġbab": 9269,
    "Ġbaby": 5372,
    "Ġback": 722,
    "Ġbacked": 7966,
    "Ġbackground": 4553,
    "Ġbacking": 9843,
    "Ġbacter": 8772,
    "Ġbad": 1973,
    "Ġbag": 6441,
    "Ġbail": 8147,
    "Ġbal": 3640,
    "Ġbalance": 5122,
    "Ġball": 2338,
    "Ġballot": 8822,
    "Ġban": 2158,
    "Ġband": 3644,
    "Ġbank": 2830,
    "Ġbanking": 9217,
    "Ġbanks": 4836,
    "Ġbanned": 7907,
    "Ġbar": 2318,
    "Ġbare": 6135,
    "Ġbarely": 8026,
    "Ġbarrel": 8855,
    "Ġbars": 8596,
    "Ġbas": 1608,
    "Ġbase": 2590,
    "Ġbaseball": 7307,
    "Ġbased": 1866,
    "Ġbasic": 4021,
    "Ġbasically": 5610,
    "Ġbasis": 4300,
    "Ġbasket": 6745,
    "Ġbasketball": 7799,
    "Ġbat": 1853,
    "Ġbath": 8001,
    "Ġbatt": 6497,
    "Ġbattery": 6782,
    "Ġbattle": 3509,
    "Ġbattles": 9796,
    "Ġbe": 309,
    "Ġbeach": 9950,
    "Ġbear": 7052,
    "Ġbeat": 4055,
    "Ġbeating": 9989,
    "Ġbeaut": 3816,
    "Ġbeautiful": 5221,
    "Ġbeauty": 9061,
    "Ġbec": 603,
    "Ġbecame": 2272,
    "Ġbecause": 748,
    "Ġbecom": 2709,
    "Ġbecome": 1578,
    "Ġbecomes": 4338,
    "Ġbecoming": 4381,
    "Ġbed": 4453,
    "Ġbeen": 549,
    "Ġbeer": 5097,
    "Ġbefore": 885,
    "Ġbeg": 4065,
    "Ġbegan": 2230,
    "Ġbegin": 2175,
    "Ġbeginning": 3608,
    "Ġbegins": 6176,
    "Ġbegun": 8117,
    "Ġbeh": 1313,
    "Ġbehalf": 7828,
    "Ġbehav": 2949,
    "Ġbehavi": 6192,
    "Ġbehavior": 4064,
    "Ġbehaviour": 8260,
    "Ġbehind": 1987,
    "Ġbeing": 802,
    "Ġbeings": 9855,
    "Ġbel": 875,
    "Ġbelie": 1142,
    "Ġbelief": 4440,
    "Ġbeliefs": 7960,
    "Ġbelieve": 1819,
    "Ġbelieved": 4121,
    "Ġbelieves": 4712,
    "Ġbelong": 5596,
    "Ġbelow": 2342,
    "Ġben": 1822,
    "Ġbench": 7103,
    "Ġbenef": 2118,
    "Ġbenefit": 4141,
    "Ġbenefits": 3793,
    "Ġbes": 7606,
    "Ġbest": 1232,
    "Ġbet": 718,
    "Ġbetter": 1299,
    "Ġbetween": 980,
    "Ġbeyond": 3429,
    "Ġbi": 2986,
    "Ġbias": 9602,
    "Ġbid": 7035,
    "Ġbig": 1111,
    "Ġbigger": 5011,
    "Ġbiggest": 3240,
    "Ġbike": 6342,
    "Ġbill": 1983,
    "Ġbillion": 2395,
    "Ġbills": 7360,
    "Ġbin": 9728,
    "Ġbirds": 9601,
    "Ġbirth": 4069,
    "Ġbit": 1615,
    "Ġbitcoin": 7573,
    "Ġbl": 716,
    "Ġblack": 2038,
    "Ġblame": 6850,
    "Ġblank": 9730,
    "Ġblast": 8912,
    "Ġble": 7155,
    "Ġblind": 7672,
    "Ġblock": 2466,
    "Ġblocked": 9095,
    "Ġblocks": 7496,
    "Ġblog": 3533,
    "Ġblood": 3292,
    "Ġblow": 6352,
    "Ġblue": 4685,
    "Ġbo": 1429,
    "Ġboard": 2929,
    "Ġboat": 8572,
    "Ġbodies": 5763,
    "Ġbody": 2081,
    "Ġbom": 7519,
    "Ġbomb": 4478,
    "Ġbon": 6389,
    "Ġbond": 6082,
    "Ġbonus": 9109,
    "Ġbook": 1430,
    "Ġbooks": 3656,
    "Ġboost": 5397,
    "Ġboot": 7230,
    "Ġborder": 4200,
    "Ġborders": 9533,
    "Ġborn": 4379,
    "Ġborrow": 7861,
    "Ġboss": 6288,
    "Ġbot": 6202,
    "Ġboth": 1085,
    "Ġbott": 3701,
    "Ġbottle": 9826,
    "Ġbottom": 4431,
    "Ġbought": 5515,
    "Ġbound": 5623,
    "Ġbow": 9984,
    "Ġbowl": 9942,
    "Ġbox": 3153,
    "Ġboy": 2911,
    "Ġboys": 6231,
    "Ġbr": 858,
    "Ġbra": 8136,
    "Ġbrain": 3507,
    "Ġbranch": 8162,
    "Ġbrand": 4232,
    "Ġbre": 1413,
    "Ġbread": 9159,
    "Ġbreak": 2260,
    "Ġbreaking": 6344,
    "Ġbreaks": 8867,
    "Ġbreat": 5418,
    "Ġbreath": 9174,
    "Ġbrew": 7280,
    "Ġbridge": 7770,
    "Ġbrief": 4125,
    "Ġbright": 6268,
    "Ġbrill": 8473,
    "Ġbrilliant": 9219,
    "Ġbring": 2060,
    "Ġbringing": 5375,
    "Ġbrings": 6220,
    "Ġbro": 1318,
    "Ġbroad": 2687,
    "Ġbroadcast": 5787,
    "Ġbroader": 9363,
    "Ġbroke": 5428,
    "Ġbroken": 5341,
    "Ġbrother": 3843,
    "Ġbrothers": 8527,
    "Ġbrought": 3000,
    "Ġbrow": 5485,
    "Ġbrown": 8771,
    "Ġbrowser": 7787,
    "Ġbrut": 7669,
    "Ġbu": 792,
    "Ġbub": 9068,
    "Ġbud": 2990,
    "Ġbudget": 3594,
    "Ġbuff": 8700,
    "Ġbug": 6423,
    "Ġbuild": 1278,
    "Ġbuilding": 2323,
    "Ġbuildings": 6014,
    "Ġbuilt": 2895,
    "Ġbul": 4852,
    "Ġbull": 5827,
    "Ġbunch": 6997,
    "Ġbur": 4315,
    "Ġburd": 8150,
    "Ġburden": 9850,
    "Ġbureau": 8540,
    "Ġburn": 5694,
    "Ġburning": 9572,
    "Ġbus": 1223,
    "Ġbusiness": 1421,
    "Ġbusinesses": 4649,
    "Ġbusy": 7611,
    "Ġbut": 475,
    "Ġbutt": 9334,
    "Ġbutton": 6269,
    "Ġbuy": 2776,
    "Ġbuying": 6356,
    "Ġby": 418,
    "Ġc": 270,
    "Ġca": 1839,
    "Ġcable": 7588,
    "Ġcal": 2691,
    "Ġcalcul": 5674,
    "Ġcall": 818,
    "Ġcalled": 1321,
    "Ġcalling": 3981,
    "Ġcalls": 3404,
    "Ġcalm": 9518,
    "Ġcame": 1513,
    "Ġcamer": 3394,
    "Ġcamera": 4393,
    "Ġcameras": 7719,
    "Ġcamp": 1199,
    "Ġcampaign": 1509,
    "Ġcampaigns": 8157,
    "Ġcampus": 6426,
    "Ġcan": 478,
    "Ġcance": 9102,
    "Ġcancer": 4795,
    "Ġcand": 2189,
    "Ġcandid": 2371,
    "Ġcandidate": 3651,
    "Ġcandidates": 4680,
    "Ġcann": 5823,
    "Ġcannabis": 7856,
    "Ġcannot": 2612,
    "Ġcap": 1084,
    "Ġcapabilities": 8976,
    "Ġcapable": 5811,
    "Ġcapacity": 5269,
    "Ġcapital": 2787,
    "Ġcapitalism": 9918,
    "Ġcapt": 2672,
    "Ġcaptain": 8384,
    "Ġcaption": 5817,
    "Ġcapture": 7396,
    "Ġcaptured": 7138,
    "Ġcar": 1065,
    "Ġcarbon": 5422,
    "Ġcard": 3124,
    "Ġcards": 4586,
    "Ġcare": 1263,
    "Ġcareer": 2853,
    "Ġcareful": 8618,
    "Ġcarefully": 8192,
    "Ġcarried": 5056,
    "Ġcarry": 3226,
    "Ġcarrying": 6550,
    "Ġcars": 4149,
    "Ġcart": 5666,
    "Ġcas": 5492,
    "Ġcase": 1324,
    "Ġcases": 2662,
    "Ġcash": 4628,
    "Ġcast": 3498,
    "Ġcasual": 8338,
    "Ġcat": 3456,
    "Ġcatch": 4751,
    "Ġcateg": 4645,
    "Ġcategories": 9636,
    "Ġcategory": 7317,
    "Ġcaught": 4679,
    "Ġcause": 2974,
    "Ġcaused": 3956,
    "Ġcauses": 6051,
    "Ġcausing": 6701,
    "Ġce": 2528,
    "Ġcele": 3428,
    "Ġceleb": 8586,
    "Ġcelebr": 4216,
    "Ġcelebrate": 9344,
    "Ġcell": 2694,
    "Ġcells": 4767,
    "Ġcent": 1131,
    "Ġcenter": 3459,
    "Ġcenters": 9138,
    "Ġcentral": 3752,
    "Ġcentre": 6069,
    "Ġcenturies": 9682,
    "Ġcentury": 3635,
    "Ġcere": 6360,
    "Ġceremony": 9520,
    "Ġcert": 6631,
    "Ġcertain": 1698,
    "Ġcertainly": 3270,
    "Ġch": 442,
    "Ġcha": 8012,
    "Ġchain": 6351,
    "Ġchair": 4292,
    "Ġchairman": 6716,
    "Ġchall": 2156,
    "Ġchalleng": 3467,
    "Ġchallenge": 3823,
    "Ġchallenges": 5450,
    "Ġchallenging": 8062,
    "Ġchampion": 7018,
    "Ġchampionship": 7529,
    "Ġchance": 2733,
    "Ġchances": 7431,
    "Ġchang": 1448,
    "Ġchange": 1391,
    "Ġchanged": 3299,
    "Ġchanges": 2430,
    "Ġchanging": 5164,
    "Ġchannel": 6687,
    "Ġchannels": 9223,
    "Ġchapter": 8561,
    "Ġchar": 1371,
    "Ġcharac": 1640,
    "Ġcharacter": 2239,
    "Ġcharacters": 3615,
    "Ġcharg": 2365,
    "Ġcharge": 3814,
    "Ġcharged": 4538,
    "Ġcharges": 4016,
    "Ġcharity": 9788,
    "Ġchart": 6191,
    "Ġchat": 7590,
    "Ġche": 1178,
    "Ġcheap": 6528,
    "Ġcheck": 2462,
    "Ġchecks": 8848,
    "Ġchem": 4296,
    "Ġchemical": 5520,
    "Ġchest": 9534,
    "Ġchicken": 9329,
    "Ġchief": 3340,
    "Ġchild": 1206,
    "Ġchildhood": 9294,
    "Ġchildren": 1666,
    "Ġcho": 1752,
    "Ġchoice": 3460,
    "Ġchoices": 7154,
    "Ġchoose": 4134,
    "Ġchose": 6907,
    "Ġchosen": 7101,
    "Ġchurch": 4459,
    "Ġcig": 9237,
    "Ġcirc": 2487,
    "Ġcircle": 9476,
    "Ġcircum": 4957,
    "Ġcircumst": 5893,
    "Ġcircumstances": 6501,
    "Ġcited": 7726,
    "Ġcities": 3974,
    "Ġcitiz": 3065,
    "Ġcitizen": 8339,
    "Ġcitizens": 3676,
    "Ġcity": 1472,
    "Ġcivil": 2654,
    "Ġcivilian": 9398,
    "Ġcivilians": 8403,
    "Ġcl": 534,
    "Ġclaim": 1437,
    "Ġclaimed": 3957,
    "Ġclaiming": 7133,
    "Ġclaims": 3220,
    "Ġclar": 9163,
    "Ġclass": 1434,
    "Ġclasses": 6283,
    "Ġclassic": 6359,
    "Ġclassified": 9083,
    "Ġcle": 1160,
    "Ġclean": 3550,
    "Ġclear": 1918,
    "Ġclearly": 3849,
    "Ġclick": 4959,
    "Ġclient": 6081,
    "Ġclients": 7301,
    "Ġclim": 8812,
    "Ġclimate": 3209,
    "Ġclimb": 8115,
    "Ġclin": 5400,
    "Ġclinical": 9752,
    "Ġclock": 8956,
    "Ġclos": 3470,
    "Ġclose": 1857,
    "Ġclosed": 4597,
    "Ġclosely": 6448,
    "Ġcloser": 5209,
    "Ġclosing": 8696,
    "Ġclot": 5431,
    "Ġclothes": 8653,
    "Ġclothing": 9699,
    "Ġcloud": 5818,
    "Ġclub": 2725,
    "Ġclubs": 7855,
    "Ġco": 681,
    "Ġcoach": 3077,
    "Ġcoaches": 8542,
    "Ġcoaching": 9973,
    "Ġcoal": 4344,
    "Ġcoalition": 7266,
    "Ġcoast": 5867,
    "Ġcoc": 8563,
    "Ġcode": 2522,
    "Ġcoff": 5887,
    "Ġcoffee": 6808,
    "Ġcogn": 8501,
    "Ġcoinc": 9679,
    "Ġcol": 974,
    "Ġcold": 5107,
    "Ġcoll": 2683,
    "Ġcollabor": 5729,
    "Ġcollapse": 8226,
    "Ġcolle": 5198,
    "Ġcolleagues": 6331,
    "Ġcollect": 2757,
    "Ġcollected": 7569,
    "Ġcollection": 4972,
    "Ġcollective": 8364,
    "Ġcollege": 3631,
    "Ġcolon": 7131,
    "Ġcolor": 3902,
    "Ġcolors": 8668,
    "Ġcolumn": 6650,
    "Ġcom": 388,
    "Ġcomb": 2054,
    "Ġcombat": 5426,
    "Ġcombination": 6263,
    "Ġcombined": 5643,
    "Ġcome": 1228,
    "Ġcomedy": 8847,
    "Ġcomes": 1892,
    "Ġcomfort": 4498,
    "Ġcomfortable": 6589,
    "Ġcomic": 7629,
    "Ġcoming": 2105,
    "Ġcomm": 709,
    "Ġcommand": 3589,
    "Ġcomment": 2610,
    "Ġcomments": 3359,
    "Ġcommer": 4039,
    "Ġcommercial": 4562,
    "Ġcommission": 4993,
    "Ġcommit": 1914,
    "Ġcommitment": 6604,
    "Ġcommitted": 4885,
    "Ġcommittee": 4526,
    "Ġcommon": 2332,
    "Ġcommonly": 8870,
    "Ġcommun": 1182,
    "Ġcommunic": 3295,
    "Ġcommunication": 6776,
    "Ġcommunications": 7006,
    "Ġcommunities": 4450,
    "Ġcommunity": 1793,
    "Ġcomp": 547,
    "Ġcompan": 2062,
    "Ġcompanies": 2185,
    "Ġcompany": 1402,
    "Ġcompar": 4639,
    "Ġcompare": 9200,
    "Ġcompared": 3623,
    "Ġcomparison": 7055,
    "Ġcompat": 9900,
    "Ġcompe": 8957,
    "Ġcompens": 7370,
    "Ġcompet": 1984,
    "Ġcompete": 7676,
    "Ġcompeting": 9714,
    "Ġcompetition": 4554,
    "Ġcompetitive": 6542,
    "Ġcompl": 2171,
    "Ġcomplaint": 7415,
    "Ġcomplaints": 8269,
    "Ġcomple": 1267,
    "Ġcomplete": 1952,
    "Ġcompleted": 5659,
    "Ġcompletely": 3194,
    "Ġcomplex": 3462,
    "Ġcomplicated": 7429,
    "Ġcomponent": 7876,
    "Ġcomponents": 7199,
    "Ġcompre": 7531,
    "Ġcomprehens": 8331,
    "Ġcomprehensive": 9491,
    "Ġcomprom": 7092,
    "Ġcomput": 2566,
    "Ġcomputer": 3617,
    "Ġcomputers": 7797,
    "Ġcon": 364,
    "Ġconc": 3195,
    "Ġconce": 8667,
    "Ġconcent": 5572,
    "Ġconcept": 3457,
    "Ġconcer": 1756,
    "Ġconcern": 4710,
    "Ġconcerned": 4629,
    "Ġconcerns": 4026,
    "Ġconclud": 4882,
    "Ġconcluded": 7270,
    "Ġconclus": 5374,
    "Ġconclusion": 7376,
    "Ġconcrete": 9062,
    "Ġcond": 1846,
    "Ġcondem": 7028,
    "Ġcondition": 4350,
    "Ġconditions": 3586,
    "Ġconduct": 3112,
    "Ġconducted": 5447,
    "Ġconf": 973,
    "Ġconference": 3666,
    "Ġconfidence": 5830,
    "Ġconfident": 5828,
    "Ġconfig": 6235,
    "Ġconfir": 3699,
    "Ġconfirm": 5973,
    "Ġconfirmed": 4190,
    "Ġconflic": 3794,
    "Ġconflict": 4785,
    "Ġconfront": 6942,
    "Ġcongress": 6762,
    "Ġcongressional": 9144,
    "Ġconnect": 2097,
    "Ġconnected": 5908,
    "Ġconnection": 4947,
    "Ġconnections": 8231,
    "Ġcons": 745,
    "Ġconscious": 7359,
    "Ġconsensus": 9759,
    "Ġconsent": 9553,
    "Ġconsequ": 4671,
    "Ġconsequences": 6161,
    "Ġconserv": 3141,
    "Ġconservative": 4512,
    "Ġconservatives": 8967,
    "Ġconsider": 2480,
    "Ġconsideration": 9555,
    "Ġconsidered": 3097,
    "Ġconsidering": 5599,
    "Ġconsist": 3420,
    "Ġconsistent": 6256,
    "Ġconsistently": 8647,
    "Ġconsole": 8729,
    "Ġconspir": 7398,
    "Ġconspiracy": 8551,
    "Ġconst": 1515,
    "Ġconstant": 7020,
    "Ġconstantly": 7188,
    "Ġconstit": 7205,
    "Ġconstitutional": 8288,
    "Ġconstruct": 5644,
    "Ġconstruction": 4713,
    "Ġconsult": 5339,
    "Ġconsum": 2458,
    "Ġconsumer": 6295,
    "Ġconsumers": 5597,
    "Ġconsumption": 7350,
    "Ġcont": 541,
    "Ġcontact": 3045,
    "Ġcontacted": 9644,
    "Ġcontain": 4599,
    "Ġcontained": 8029,
    "Ġcontaining": 7917,
    "Ġcontains": 5995,
    "Ġcontem": 7256,
    "Ġcontent": 2663,
    "Ġcontest": 6313,
    "Ġcontext": 4703,
    "Ġcontin": 1152,
    "Ġcontinue": 2275,
    "Ġcontinued": 3347,
    "Ġcontinues": 3817,
    "Ġcontinuing": 7305,
    "Ġcontract": 2517,
    "Ġcontracts": 7693,
    "Ġcontrad": 9209,
    "Ġcontrast": 5566,
    "Ġcontribut": 3645,
    "Ġcontribute": 8159,
    "Ġcontributed": 7267,
    "Ġcontribution": 9570,
    "Ġcontributions": 8720,
    "Ġcontro": 1255,
    "Ġcontrol": 1674,
    "Ġcontrolled": 6967,
    "Ġcontrols": 7242,
    "Ġcontrovers": 4389,
    "Ġcontroversial": 6613,
    "Ġcontroversy": 8363,
    "Ġconv": 2137,
    "Ġconven": 7310,
    "Ġconvention": 5301,
    "Ġconventional": 9017,
    "Ġconver": 6905,
    "Ġconvers": 3309,
    "Ġconversation": 4825,
    "Ġconversations": 8725,
    "Ġconvicted": 8080,
    "Ġconvin": 8033,
    "Ġconvinced": 8222,
    "Ġcook": 4829,
    "Ġcool": 3717,
    "Ġcooper": 5863,
    "Ġcooperation": 9479,
    "Ġcoordin": 7663,
    "Ġcop": 2312,
    "Ġcopies": 8862,
    "Ġcopy": 3610,
    "Ġcopyright": 5708,
    "Ġcor": 1172,
    "Ġcore": 4236,
    "Ġcorner": 4979,
    "Ġcorpor": 3483,
    "Ġcorporate": 5199,
    "Ġcorporations": 8097,
    "Ġcorrect": 3703,
    "Ġcorrespond": 6261,
    "Ġcorruption": 7664,
    "Ġcos": 8329,
    "Ġcost": 1499,
    "Ġcosts": 3329,
    "Ġcou": 2092,
    "Ġcould": 686,
    "Ġcouldn": 3447,
    "Ġcoun": 2124,
    "Ġcouncil": 5407,
    "Ġcounsel": 7822,
    "Ġcount": 865,
    "Ġcounter": 3512,
    "Ġcounterpart": 9812,
    "Ġcountries": 2276,
    "Ġcountry": 1282,
    "Ġcounts": 8920,
    "Ġcounty": 7403,
    "Ġcouple": 2851,
    "Ġcour": 1053,
    "Ġcourse": 1735,
    "Ġcourt": 1992,
    "Ġcourts": 7226,
    "Ġcover": 2926,
    "Ġcoverage": 4535,
    "Ġcovered": 5282,
    "Ġcovering": 8736,
    "Ġcovers": 8590,
    "Ġcow": 9494,
    "Ġcr": 984,
    "Ġcrack": 6010,
    "Ġcraft": 5861,
    "Ġcrash": 6866,
    "Ġcrazy": 6560,
    "Ġcre": 1109,
    "Ġcream": 9640,
    "Ġcreat": 1845,
    "Ġcreate": 2161,
    "Ġcreated": 2589,
    "Ġcreates": 7767,
    "Ġcreating": 4045,
    "Ġcreation": 5846,
    "Ġcreative": 6273,
    "Ġcreatures": 9898,
    "Ġcred": 2476,
    "Ġcredit": 3766,
    "Ġcrew": 5055,
    "Ġcrime": 3771,
    "Ġcrimes": 5886,
    "Ġcrimin": 9664,
    "Ġcriminal": 3866,
    "Ġcris": 3574,
    "Ġcrisis": 3797,
    "Ġcrit": 1670,
    "Ġcritic": 3128,
    "Ġcritical": 4178,
    "Ġcriticism": 5469,
    "Ġcriticized": 9041,
    "Ġcritics": 6972,
    "Ġcro": 8496,
    "Ġcrop": 8017,
    "Ġcross": 3259,
    "Ġcrowd": 3693,
    "Ġcru": 4209,
    "Ġcrucial": 7336,
    "Ġcrus": 9881,
    "Ġcry": 4067,
    "Ġcrypt": 7685,
    "Ġcul": 9262,
    "Ġcult": 2052,
    "Ġcultural": 5481,
    "Ġculture": 3388,
    "Ġcup": 7579,
    "Ġcur": 1071,
    "Ġcurrency": 6391,
    "Ġcurrent": 1393,
    "Ġcurrently": 2790,
    "Ġcust": 8803,
    "Ġcustody": 9770,
    "Ġcustom": 2201,
    "Ġcustomer": 6463,
    "Ġcustomers": 3791,
    "Ġcut": 1837,
    "Ġcuts": 5150,
    "Ġcutting": 7115,
    "Ġcy": 2846,
    "Ġcyber": 7889,
    "Ġcycle": 6558,
    "Ġd": 290,
    "Ġdad": 8866,
    "Ġdaily": 4263,
    "Ġdam": 2219,
    "Ġdamage": 3333,
    "Ġdamaged": 9732,
    "Ġdance": 8811,
    "Ġdanger": 3335,
    "Ġdangerous": 4531,
    "Ġdark": 3588,
    "Ġdat": 4996,
    "Ġdata": 1364,
    "Ġdatab": 6150,
    "Ġdatabase": 7105,
    "Ġdate": 3578,
    "Ġdates": 9136,
    "Ġdating": 9815,
    "Ġdaughter": 4593,
    "Ġday": 1086,
    "Ġdays": 1505,
    "Ġde": 365,
    "Ġdead": 2561,
    "Ġdeadly": 9370,
    "Ġdeal": 1553,
    "Ġdealing": 6767,
    "Ġdeals": 6960,
    "Ġdeath": 1860,
    "Ġdeaths": 6280,
    "Ġdeb": 1563,
    "Ġdebate": 3513,
    "Ġdebt": 4204,
    "Ġdebut": 6054,
    "Ġdec": 719,
    "Ġdecade": 4581,
    "Ġdecades": 3767,
    "Ġdecent": 7065,
    "Ġdecide": 5051,
    "Ġdecided": 2761,
    "Ġdecision": 2121,
    "Ġdecisions": 4700,
    "Ġdeck": 7039,
    "Ġdecl": 2456,
    "Ġdeclared": 5881,
    "Ġdecline": 6569,
    "Ġdeclined": 5901,
    "Ġdecre": 6126,
    "Ġded": 4601,
    "Ġdedicated": 6641,
    "Ġdeep": 2358,
    "Ġdeeper": 8274,
    "Ġdeeply": 6774,
    "Ġdef": 815,
    "Ġdefault": 5730,
    "Ġdefe": 4322,
    "Ġdefeat": 6834,
    "Ġdefeated": 9671,
    "Ġdefence": 7605,
    "Ġdefend": 4220,
    "Ġdefending": 9846,
    "Ġdefense": 3225,
    "Ġdefensive": 4965,
    "Ġdeficit": 9082,
    "Ġdefin": 2770,
    "Ġdefine": 8318,
    "Ġdefined": 6355,
    "Ġdefinitely": 4530,
    "Ġdefinition": 7079,
    "Ġdeg": 3600,
    "Ġdegree": 5128,
    "Ġdegrees": 7461,
    "Ġdel": 2752,
    "Ġdelay": 5903,
    "Ġdeleg": 7112,
    "Ġdeli": 2859,
    "Ġdeliber": 7938,
    "Ġdelic": 9466,
    "Ġdeliver": 4784,
    "Ġdelivered": 5923,
    "Ġdelivery": 8032,
    "Ġdem": 1226,
    "Ġdemand": 3048,
    "Ġdemanding": 9308,
    "Ġdemands": 7332,
    "Ġdemocracy": 6230,
    "Ġdemocratic": 8321,
    "Ġdemonst": 3352,
    "Ġdemonstrate": 9522,
    "Ġdemonstrated": 8911,
    "Ġden": 2555,
    "Ġdenied": 5768,
    "Ġdeny": 9316,
    "Ġdep": 1214,
    "Ġdepart": 5619,
    "Ġdepartment": 4461,
    "Ġdepend": 4970,
    "Ġdepending": 7526,
    "Ġdepends": 8661,
    "Ġdeploy": 5235,
    "Ġdepression": 8752,
    "Ġdepth": 6652,
    "Ġdeputy": 8280,
    "Ġder": 4314,
    "Ġdes": 741,
    "Ġdesc": 1733,
    "Ġdescrib": 2110,
    "Ġdescribe": 6543,
    "Ġdescribed": 3302,
    "Ġdescribes": 7650,
    "Ġdescription": 8130,
    "Ġdeserve": 9515,
    "Ġdesign": 1446,
    "Ġdesigned": 3485,
    "Ġdesigns": 9253,
    "Ġdesire": 6093,
    "Ġdesk": 6659,
    "Ġdesper": 7121,
    "Ġdespite": 3219,
    "Ġdest": 2336,
    "Ġdestroy": 4346,
    "Ġdestroyed": 6855,
    "Ġdestruction": 7957,
    "Ġdet": 1094,
    "Ġdetail": 3744,
    "Ġdetailed": 6530,
    "Ġdetails": 3311,
    "Ġdetect": 4902,
    "Ġdeter": 2417,
    "Ġdetermin": 4095,
    "Ġdetermine": 5334,
    "Ġdetermined": 5507,
    "Ġdev": 1622,
    "Ġdevast": 8264,
    "Ġdevelop": 1110,
    "Ġdeveloped": 3788,
    "Ġdeveloper": 7132,
    "Ġdevelopers": 5157,
    "Ġdeveloping": 5206,
    "Ġdevelopment": 2252,
    "Ġdevice": 3602,
    "Ġdevices": 4140,
    "Ġdi": 2271,
    "Ġdiagn": 6981,
    "Ġdial": 5987,
    "Ġdialogue": 9558,
    "Ġdict": 7571,
    "Ġdid": 730,
    "Ġdidn": 1341,
    "Ġdie": 4488,
    "Ġdied": 3377,
    "Ġdiet": 6814,
    "Ġdiff": 814,
    "Ġdiffere": 985,
    "Ġdifference": 3603,
    "Ġdifferences": 5611,
    "Ġdifferent": 1171,
    "Ġdifferently": 9431,
    "Ġdifficult": 2306,
    "Ġdifficulty": 9523,
    "Ġdig": 2899,
    "Ġdigital": 4239,
    "Ġdim": 7659,
    "Ġdin": 5467,
    "Ġdinner": 7998,
    "Ġdiplom": 6119,
    "Ġdire": 4136,
    "Ġdirect": 1252,
    "Ġdirected": 7083,
    "Ġdirection": 4536,
    "Ġdirectly": 3430,
    "Ġdirector": 2745,
    "Ġdis": 595,
    "Ġdisag": 6896,
    "Ġdisagree": 8345,
    "Ġdisapp": 3568,
    "Ġdisappoint": 5773,
    "Ġdisaster": 7587,
    "Ġdisc": 990,
    "Ġdiscipl": 7710,
    "Ġdiscl": 5696,
    "Ġdiscount": 9793,
    "Ġdiscover": 6917,
    "Ġdiscovered": 4611,
    "Ġdiscovery": 8335,
    "Ġdiscrimination": 8036,
    "Ġdiscuss": 2010,
    "Ġdiscussed": 6250,
    "Ġdiscussing": 9849,
    "Ġdiscussion": 4819,
    "Ġdiscussions": 8432,
    "Ġdise": 3777,
    "Ġdisease": 4607,
    "Ġdiseases": 9937,
    "Ġdish": 9768,
    "Ġdismiss": 5716,
    "Ġdismissed": 9105,
    "Ġdisorder": 9423,
    "Ġdisp": 3653,
    "Ġdispl": 8486,
    "Ġdisplay": 3763,
    "Ġdispute": 9731,
    "Ġdisrupt": 8611,
    "Ġdiss": 5617,
    "Ġdist": 1251,
    "Ġdistance": 5713,
    "Ġdistinct": 7193,
    "Ġdistingu": 9529,
    "Ġdistract": 8993,
    "Ġdistributed": 8798,
    "Ġdistribution": 6152,
    "Ġdistrict": 4193,
    "Ġdisturb": 9338,
    "Ġdiv": 2644,
    "Ġdiverse": 8902,
    "Ġdiversity": 8594,
    "Ġdivided": 8791,
    "Ġdivision": 6459,
    "Ġdivor": 9948,
    "Ġdo": 473,
    "Ġdoc": 2150,
    "Ġdoctor": 6162,
    "Ġdoctors": 6388,
    "Ġdocument": 3159,
    "Ġdocumentary": 9161,
    "Ġdocuments": 4419,
    "Ġdoes": 869,
    "Ġdoesn": 1491,
    "Ġdog": 3572,
    "Ġdogs": 7149,
    "Ġdoing": 1646,
    "Ġdoll": 3150,
    "Ġdollar": 7491,
    "Ġdollars": 4244,
    "Ġdom": 2335,
    "Ġdomain": 9118,
    "Ġdomestic": 5098,
    "Ġdomin": 5347,
    "Ġdominant": 9840,
    "Ġdon": 797,
    "Ġdonations": 9578,
    "Ġdone": 1709,
    "Ġdoor": 3776,
    "Ġdoors": 7913,
    "Ġdou": 2250,
    "Ġdoub": 3216,
    "Ġdouble": 4398,
    "Ġdoubt": 4490,
    "Ġdown": 870,
    "Ġdownload": 4822,
    "Ġdownt": 6446,
    "Ġdowntown": 7534,
    "Ġdozen": 7351,
    "Ġdozens": 7794,
    "Ġdr": 1325,
    "Ġdraft": 3739,
    "Ġdrag": 7013,
    "Ġdram": 5438,
    "Ġdrama": 8796,
    "Ġdramatic": 8554,
    "Ġdraw": 3166,
    "Ġdrawing": 7898,
    "Ġdrawn": 7161,
    "Ġdream": 5534,
    "Ġdress": 6993,
    "Ġdrew": 8764,
    "Ġdri": 1397,
    "Ġdrink": 4226,
    "Ġdrinking": 7391,
    "Ġdrive": 3561,
    "Ġdriven": 7141,
    "Ġdriver": 4605,
    "Ġdrivers": 5979,
    "Ġdrives": 9557,
    "Ġdriving": 4596,
    "Ġdro": 3271,
    "Ġdrone": 9729,
    "Ġdrop": 3785,
    "Ġdropped": 5114,
    "Ġdrove": 9100,
    "Ġdrug": 2315,
    "Ġdrugs": 4549,
    "Ġdry": 6864,
    "Ġdu": 6717,
    "Ġdub": 9127,
    "Ġdue": 2187,
    "Ġdump": 8835,
    "Ġduring": 1100,
    "Ġdust": 9098,
    "Ġduty": 7538,
    "Ġdying": 9527,
    "Ġdynam": 6004,
    "Ġdynamic": 8350,
    "Ġe": 306,
    "Ġeach": 1211,
    "Ġeager": 9905,
    "Ġear": 1358,
    "Ġearlier": 2556,
    "Ġearly": 1659,
    "Ġearn": 5299,
    "Ġearned": 6567,
    "Ġearth": 4911,
    "Ġeas": 1388,
    "Ġease": 9695,
    "Ġeasier": 4384,
    "Ġeasily": 3710,
    "Ġeast": 6946,
    "Ġeastern": 8479,
    "Ġeasy": 2613,
    "Ġeat": 4801,
    "Ġeating": 6802,
    "Ġec": 9120,
    "Ġeconom": 1363,
    "Ġeconomic": 2451,
    "Ġeconomy": 2916,
    "Ġed": 994,
    "Ġedge": 5942,
    "Ġedit": 1495,
    "Ġedition": 7933,
    "Ġeditor": 5933,
    "Ġeduc": 2482,
    "Ġeducation": 3345,
    "Ġeducational": 9765,
    "Ġeff": 929,
    "Ġeffect": 1347,
    "Ġeffective": 4247,
    "Ġeffectively": 6025,
    "Ġeffects": 3406,
    "Ġefficiency": 8815,
    "Ġefficient": 6585,
    "Ġeffort": 3170,
    "Ġefforts": 3390,
    "Ġegg": 6617,
    "Ġeight": 3186,
    "Ġeither": 2122,
    "Ġel": 1293,
    "Ġele": 4006,
    "Ġelect": 1535,
    "Ġelected": 5440,
    "Ġelection": 2418,
    "Ġelections": 5307,
    "Ġelectric": 4391,
    "Ġelectricity": 7099,
    "Ġelectronic": 8070,
    "Ġelement": 5682,
    "Ġelements": 4958,
    "Ġelev": 7574,
    "Ġelig": 8281,
    "Ġeligible": 9773,
    "Ġelimin": 5795,
    "Ġelite": 7522,
    "Ġelse": 2079,
    "Ġelsewhere": 7203,
    "Ġem": 782,
    "Ġemail": 2874,
    "Ġemails": 5938,
    "Ġemb": 3869,
    "Ġembarrass": 8600,
    "Ġembr": 6574,
    "Ġemer": 2784,
    "Ġemerged": 7655,
    "Ġemergency": 5678,
    "Ġemerging": 9650,
    "Ġemissions": 7069,
    "Ġemot": 3900,
    "Ġemotional": 6451,
    "Ġemphas": 5940,
    "Ġemploy": 1879,
    "Ġemployed": 9207,
    "Ġemployee": 7049,
    "Ġemployees": 3997,
    "Ġemployment": 7300,
    "Ġempt": 6397,
    "Ġempty": 7074,
    "Ġen": 552,
    "Ġenable": 7503,
    "Ġenc": 2140,
    "Ġencoun": 7219,
    "Ġencounter": 9364,
    "Ġencour": 3618,
    "Ġencourage": 7068,
    "Ġencouraged": 8758,
    "Ġend": 873,
    "Ġended": 3978,
    "Ġending": 7152,
    "Ġendorse": 9777,
    "Ġends": 5620,
    "Ġenem": 3959,
    "Ġenemies": 7231,
    "Ġenemy": 5657,
    "Ġener": 2244,
    "Ġenergy": 2367,
    "Ġenforce": 4118,
    "Ġenforcement": 4780,
    "Ġeng": 1700,
    "Ġengage": 7160,
    "Ġengaged": 7480,
    "Ġengine": 2887,
    "Ġengineering": 7636,
    "Ġengineers": 9966,
    "Ġenh": 6184,
    "Ġenhance": 9831,
    "Ġenjoy": 2918,
    "Ġenjoyed": 7560,
    "Ġenorm": 7724,
    "Ġenormous": 8497,
    "Ġenough": 1517,
    "Ġens": 2980,
    "Ġensure": 4073,
    "Ġent": 939,
    "Ġenter": 4184,
    "Ġentered": 6253,
    "Ġentering": 7975,
    "Ġentertain": 5780,
    "Ġentertainment": 8509,
    "Ġenthus": 7352,
    "Ġenthusi": 9805,
    "Ġentire": 1978,
    "Ġentirely": 4600,
    "Ġentit": 7645,
    "Ġentitled": 9145,
    "Ġentr": 8676,
    "Ġentreprene": 9298,
    "Ġentry": 6227,
    "Ġenvironment": 2580,
    "Ġenvironmental": 5075,
    "Ġep": 2439,
    "Ġepis": 3476,
    "Ġepisode": 4496,
    "Ġepisodes": 7947,
    "Ġequ": 1689,
    "Ġequal": 5391,
    "Ġequality": 9156,
    "Ġequally": 8152,
    "Ġequip": 5204,
    "Ġequipment": 5406,
    "Ġequival": 6953,
    "Ġequivalent": 7535,
    "Ġer": 2006,
    "Ġera": 5408,
    "Ġerror": 5273,
    "Ġerrors": 9460,
    "Ġes": 1572,
    "Ġesc": 3712,
    "Ġescape": 7029,
    "Ġespecially": 2397,
    "Ġess": 3063,
    "Ġessential": 6395,
    "Ġessentially": 6057,
    "Ġest": 1485,
    "Ġestab": 2717,
    "Ġestabl": 4112,
    "Ġestablish": 4741,
    "Ġestablished": 4799,
    "Ġestablishment": 7835,
    "Ġestate": 7353,
    "Ġestim": 3628,
    "Ġestimate": 8375,
    "Ġestimated": 5308,
    "Ġestimates": 7211,
    "Ġet": 2624,
    "Ġetc": 4221,
    "Ġeth": 4078,
    "Ġethnic": 8168,
    "Ġeuro": 8073,
    "Ġev": 798,
    "Ġeval": 5897,
    "Ġeven": 758,
    "Ġevening": 5649,
    "Ġevent": 1667,
    "Ġevents": 2823,
    "Ġeventually": 3687,
    "Ġever": 1599,
    "Ġevery": 775,
    "Ġeverybody": 6124,
    "Ġeveryone": 2334,
    "Ġeverything": 2190,
    "Ġeverywhere": 7683,
    "Ġevidence": 2309,
    "Ġevil": 6990,
    "Ġevolution": 6434,
    "Ġex": 404,
    "Ġexact": 2653,
    "Ġexactly": 3243,
    "Ġexam": 3096,
    "Ġexample": 1703,
    "Ġexamples": 6039,
    "Ġexc": 2347,
    "Ġexceed": 8151,
    "Ġexcell": 5899,
    "Ġexcellent": 6490,
    "Ġexcept": 3260,
    "Ġexception": 7952,
    "Ġexcess": 7366,
    "Ġexch": 9069,
    "Ġexchange": 4936,
    "Ġexcited": 5582,
    "Ġexciting": 6755,
    "Ġexclus": 4906,
    "Ġexclusive": 8140,
    "Ġexec": 2188,
    "Ġexecut": 2646,
    "Ġexecution": 9498,
    "Ġexecutive": 3686,
    "Ġexecutives": 9595,
    "Ġexerc": 4678,
    "Ġexercise": 6022,
    "Ġexha": 9425,
    "Ġexhib": 6817,
    "Ġexist": 2138,
    "Ġexistence": 6310,
    "Ġexisting": 4485,
    "Ġexists": 7272,
    "Ġexit": 8946,
    "Ġexp": 1037,
    "Ġexpand": 3848,
    "Ġexpanded": 8439,
    "Ġexpanding": 9851,
    "Ġexpansion": 6114,
    "Ġexpect": 1419,
    "Ġexpectations": 7733,
    "Ġexpected": 2584,
    "Ġexpensive": 5218,
    "Ġexper": 1078,
    "Ġexperien": 3248,
    "Ġexperience": 1928,
    "Ġexperienced": 5579,
    "Ġexperiences": 5871,
    "Ġexperiment": 4642,
    "Ġexperiments": 9233,
    "Ġexpert": 5337,
    "Ġexperts": 5226,
    "Ġexpl": 1138,
    "Ġexplain": 4489,
    "Ġexplained": 4309,
    "Ġexplaining": 9987,
    "Ġexplains": 5902,
    "Ġexplan": 6122,
    "Ġexplanation": 7400,
    "Ġexplicit": 7720,
    "Ġexplo": 5775,
    "Ġexplore": 6807,
    "Ġexplos": 5595,
    "Ġexposed": 7001,
    "Ġexposure": 7567,
    "Ġexpress": 2559,
    "Ġexpressed": 5424,
    "Ġexpression": 6349,
    "Ġext": 1067,
    "Ġextend": 8428,
    "Ġextended": 6839,
    "Ġextension": 7670,
    "Ġextensive": 7119,
    "Ġextent": 6484,
    "Ġexternal": 8169,
    "Ġextra": 3230,
    "Ġextract": 7432,
    "Ġextrem": 7505,
    "Ġextreme": 3174,
    "Ġextremely": 4414,
    "Ġey": 2194,
    "Ġeye": 4113,
    "Ġeyes": 3632,
    "Ġf": 278,
    "Ġfab": 8341,
    "Ġfac": 1639,
    "Ġface": 2002,
    "Ġfaced": 6134,
    "Ġfaces": 5834,
    "Ġfacilit": 9744,
    "Ġfacilities": 6943,
    "Ġfacility": 6379,
    "Ġfacing": 5494,
    "Ġfact": 1076,
    "Ġfactor": 5712,
    "Ġfactors": 5403,
    "Ġfactory": 8474,
    "Ġfacts": 6091,
    "Ġfail": 1789,
    "Ġfailed": 3612,
    "Ġfailing": 8346,
    "Ġfailure": 5012,
    "Ġfair": 3020,
    "Ġfairly": 6306,
    "Ġfaith": 4491,
    "Ġfake": 7561,
    "Ġfall": 2040,
    "Ġfallen": 8539,
    "Ġfalling": 7043,
    "Ġfalls": 8948,
    "Ġfalse": 4627,
    "Ġfam": 1072,
    "Ġfamiliar": 5024,
    "Ġfamilies": 3720,
    "Ġfamily": 1532,
    "Ġfamous": 5285,
    "Ġfan": 3614,
    "Ġfans": 2678,
    "Ġfant": 4818,
    "Ġfantastic": 8726,
    "Ġfantasy": 8263,
    "Ġfar": 1192,
    "Ġfarm": 4653,
    "Ġfarmers": 8019,
    "Ġfasc": 6781,
    "Ġfashion": 6503,
    "Ġfast": 3081,
    "Ġfaster": 5394,
    "Ġfat": 4172,
    "Ġfate": 9444,
    "Ġfather": 2902,
    "Ġfault": 7895,
    "Ġfav": 1959,
    "Ġfavor": 2558,
    "Ġfavorite": 3918,
    "Ġfavour": 6405,
    "Ġfe": 700,
    "Ġfear": 2991,
    "Ġfears": 8369,
    "Ġfeat": 2134,
    "Ġfeature": 3691,
    "Ġfeatured": 6534,
    "Ġfeatures": 3076,
    "Ġfeaturing": 8255,
    "Ġfederal": 2191,
    "Ġfee": 7845,
    "Ġfeed": 3732,
    "Ġfeedback": 7344,
    "Ġfeel": 1242,
    "Ġfeeling": 4173,
    "Ġfeelings": 7699,
    "Ġfeels": 4924,
    "Ġfees": 6961,
    "Ġfeet": 3903,
    "Ġfell": 3029,
    "Ġfellow": 5149,
    "Ġfelt": 2869,
    "Ġfem": 2785,
    "Ġfemale": 3998,
    "Ġfemin": 6627,
    "Ġfestival": 8971,
    "Ġfet": 9638,
    "Ġfew": 1128,
    "Ġfewer": 6458,
    "Ġfiction": 8372,
    "Ġfield": 2163,
    "Ġfields": 7210,
    "Ġfif": 5309,
    "Ġfifth": 7127,
    "Ġfig": 2155,
    "Ġfight": 1736,
    "Ġfighter": 9241,
    "Ġfighters": 7177,
    "Ġfighting": 3950,
    "Ġfigure": 3505,
    "Ġfigures": 4868,
    "Ġfil": 1157,
    "Ġfile": 3402,
    "Ġfiled": 5118,
    "Ġfiles": 4855,
    "Ġfill": 6216,
    "Ġfilled": 5999,
    "Ġfilm": 1930,
    "Ġfilms": 5624,
    "Ġfin": 898,
    "Ġfinal": 2238,
    "Ġfinally": 3287,
    "Ġfinance": 7725,
    "Ġfinancial": 2758,
    "Ġfind": 1087,
    "Ġfinding": 4643,
    "Ġfindings": 5894,
    "Ġfinds": 7140,
    "Ġfine": 3954,
    "Ġfing": 9497,
    "Ġfinger": 8008,
    "Ġfinish": 5496,
    "Ġfinished": 4876,
    "Ġfire": 2149,
    "Ġfired": 5344,
    "Ġfiring": 9193,
    "Ġfirm": 3697,
    "Ġfirms": 7700,
    "Ġfirst": 685,
    "Ġfiscal": 8273,
    "Ġfish": 6035,
    "Ġfit": 3336,
    "Ġfive": 1683,
    "Ġfix": 3373,
    "Ġfixed": 6787,
    "Ġfl": 841,
    "Ġflag": 5877,
    "Ġflags": 9366,
    "Ġflash": 8135,
    "Ġflat": 5699,
    "Ġflaw": 7989,
    "Ġfle": 4969,
    "Ġfled": 9955,
    "Ġflex": 7085,
    "Ġflight": 5232,
    "Ġflo": 6033,
    "Ġflood": 6210,
    "Ġfloor": 4539,
    "Ġflow": 5346,
    "Ġflu": 6832,
    "Ġfly": 5838,
    "Ġflying": 7194,
    "Ġfoc": 1908,
    "Ġfocus": 2478,
    "Ġfocused": 4894,
    "Ġfocusing": 9266,
    "Ġfol": 5277,
    "Ġfold": 7117,
    "Ġfolks": 6726,
    "Ġfollow": 1115,
    "Ġfollowed": 3690,
    "Ġfollowers": 9639,
    "Ġfollowing": 1873,
    "Ġfollows": 6139,
    "Ġfood": 2044,
    "Ġfoods": 9909,
    "Ġfool": 9367,
    "Ġfoot": 2076,
    "Ġfootage": 7910,
    "Ġfootball": 3444,
    "Ġfor": 329,
    "Ġforce": 2619,
    "Ġforced": 3647,
    "Ġforces": 2978,
    "Ġforcing": 9357,
    "Ġfore": 1574,
    "Ġforecast": 9318,
    "Ġforeign": 2789,
    "Ġforest": 8616,
    "Ġforever": 8066,
    "Ġforg": 5951,
    "Ġforget": 5850,
    "Ġform": 1362,
    "Ġformal": 7814,
    "Ġformat": 6760,
    "Ġformation": 9625,
    "Ġformed": 6544,
    "Ġformer": 1590,
    "Ġforms": 5287,
    "Ġfort": 6164,
    "Ġforth": 6779,
    "Ġforward": 2415,
    "Ġfoss": 8686,
    "Ġfossil": 9804,
    "Ġfought": 7667,
    "Ġfound": 1023,
    "Ġfoundation": 7850,
    "Ġfounded": 7848,
    "Ġfounder": 7274,
    "Ġfour": 1295,
    "Ġfourth": 4846,
    "Ġfr": 1081,
    "Ġfrag": 8148,
    "Ġframe": 4421,
    "Ġframework": 8303,
    "Ġfranch": 6104,
    "Ġfranchise": 6887,
    "Ġfraud": 6377,
    "Ġfre": 2890,
    "Ġfree": 1462,
    "Ġfreedom": 4046,
    "Ġfrequ": 3758,
    "Ġfrequency": 9590,
    "Ġfrequently": 6580,
    "Ġfresh": 4504,
    "Ġfriend": 1530,
    "Ġfriendly": 8190,
    "Ġfriends": 2379,
    "Ġfro": 8972,
    "Ġfrom": 423,
    "Ġfront": 2091,
    "Ġfruit": 8682,
    "Ġfrust": 5744,
    "Ġfuck": 6950,
    "Ġfuel": 4704,
    "Ġfulf": 8555,
    "Ġfull": 1339,
    "Ġfully": 3840,
    "Ġfun": 1343,
    "Ġfunction": 2526,
    "Ġfunctions": 6281,
    "Ġfund": 1584,
    "Ġfundament": 5225,
    "Ġfundamental": 6555,
    "Ġfunded": 8914,
    "Ġfunding": 4034,
    "Ġfundra": 9830,
    "Ġfunds": 4877,
    "Ġfunny": 7620,
    "Ġfur": 9371,
    "Ġfurther": 2152,
    "Ġfuture": 1746,
    "Ġg": 310,
    "Ġgain": 4968,
    "Ġgained": 7844,
    "Ġgains": 8735,
    "Ġgal": 8799,
    "Ġgall": 7657,
    "Ġgam": 8598,
    "Ġgame": 933,
    "Ġgames": 1605,
    "Ġgaming": 7333,
    "Ġgang": 6777,
    "Ġgap": 6863,
    "Ġgar": 5280,
    "Ġgas": 3278,
    "Ġgate": 9778,
    "Ġgather": 5949,
    "Ġgathered": 8356,
    "Ġgathering": 9874,
    "Ġgave": 2775,
    "Ġgay": 4662,
    "Ġge": 4718,
    "Ġgear": 8457,
    "Ġgen": 2380,
    "Ġgender": 4990,
    "Ġgener": 1143,
    "Ġgeneral": 2274,
    "Ġgenerally": 4299,
    "Ġgenerate": 7308,
    "Ġgenerated": 7566,
    "Ġgeneration": 4721,
    "Ġgenerations": 9327,
    "Ġgenetic": 8438,
    "Ġgent": 9510,
    "Ġgenuine": 7871,
    "Ġget": 641,
    "Ġgets": 2966,
    "Ġgetting": 1823,
    "Ġgiant": 5821,
    "Ġgif": 9589,
    "Ġgift": 7893,
    "Ġgirl": 2773,
    "Ġgirls": 4856,
    "Ġgive": 1596,
    "Ġgiven": 1814,
    "Ġgives": 3731,
    "Ġgiving": 3321,
    "Ġgl": 1292,
    "Ġglass": 5614,
    "Ġglobal": 2721,
    "Ġgo": 457,
    "Ġgoal": 2587,
    "Ġgoals": 3811,
    "Ġgod": 6861,
    "Ġgoes": 2794,
    "Ġgoing": 917,
    "Ġgold": 4082,
    "Ġgone": 3494,
    "Ġgonna": 8014,
    "Ġgood": 924,
    "Ġgoods": 7130,
    "Ġgot": 1229,
    "Ġgotten": 7096,
    "Ġgovern": 890,
    "Ġgovernment": 1001,
    "Ġgovernments": 5387,
    "Ġgovernor": 6100,
    "Ġgr": 965,
    "Ġgra": 5844,
    "Ġgrab": 6346,
    "Ġgrad": 3708,
    "Ġgrade": 9678,
    "Ġgraduate": 9473,
    "Ġgrand": 4053,
    "Ġgrant": 7612,
    "Ġgranted": 7422,
    "Ġgraph": 4873,
    "Ġgraphics": 9979,
    "Ġgrass": 8165,
    "Ġgrav": 8715,
    "Ġgreat": 1064,
    "Ġgreater": 3880,
    "Ġgreatest": 5495,
    "Ġgreatly": 9550,
    "Ġgreen": 4085,
    "Ġgrew": 5525,
    "Ġgrid": 8969,
    "Ġgro": 7394,
    "Ġgross": 9719,
    "Ġground": 2302,
    "Ġgrounds": 8541,
    "Ġgroup": 1050,
    "Ġgroups": 2328,
    "Ġgrow": 1494,
    "Ġgrowing": 3350,
    "Ġgrown": 6516,
    "Ġgrowth": 3021,
    "Ġgu": 937,
    "Ġguarant": 5291,
    "Ġguarantee": 8688,
    "Ġguard": 4988,
    "Ġguess": 4735,
    "Ġguest": 8747,
    "Ġguide": 6564,
    "Ġguidelines": 9670,
    "Ġguilty": 6222,
    "Ġguitar": 8995,
    "Ġgun": 2282,
    "Ġguns": 5925,
    "Ġguy": 3229,
    "Ġguys": 3424,
    "Ġh": 289,
    "Ġha": 372,
    "Ġhabit": 7471,
    "Ġhack": 4620,
    "Ġhad": 529,
    "Ġhadn": 7679,
    "Ġhair": 4884,
    "Ġhal": 9528,
    "Ġhalf": 1932,
    "Ġhall": 6724,
    "Ġham": 8634,
    "Ġhand": 1058,
    "Ġhanded": 8645,
    "Ġhandful": 8415,
    "Ġhandle": 5568,
    "Ġhandling": 8712,
    "Ġhands": 2934,
    "Ġhang": 7979,
    "Ġhapp": 1075,
    "Ġhappen": 1477,
    "Ġhappened": 2780,
    "Ġhappening": 5033,
    "Ġhappens": 4012,
    "Ġhappy": 3601,
    "Ġhar": 3762,
    "Ġharass": 7050,
    "Ġharassment": 9432,
    "Ġhard": 1262,
    "Ġharder": 6462,
    "Ġhardly": 8154,
    "Ġhardware": 6382,
    "Ġharm": 4409,
    "Ġhas": 453,
    "Ġhasn": 4776,
    "Ġhat": 6420,
    "Ġhate": 5037,
    "Ġhave": 412,
    "Ġhaven": 4003,
    "Ġhaving": 1663,
    "Ġhe": 341,
    "Ġhead": 1189,
    "Ġheaded": 7888,
    "Ġheading": 8414,
    "Ġheadquarters": 8915,
    "Ġheads": 6286,
    "Ġhealth": 1458,
    "Ġhealthcare": 9434,
    "Ġhealthy": 5201,
    "Ġhear": 3163,
    "Ġheard": 2913,
    "Ġhearing": 4487,
    "Ġheart": 2685,
    "Ġheat": 5265,
    "Ġheav": 5395,
    "Ġheavily": 6304,
    "Ġheavy": 4308,
    "Ġheight": 6846,
    "Ġhel": 7436,
    "Ġheld": 2493,
    "Ġhelic": 9810,
    "Ġhelicop": 9947,
    "Ġhell": 6088,
    "Ġhelp": 951,
    "Ġhelped": 3559,
    "Ġhelpful": 8944,
    "Ġhelping": 5068,
    "Ġhelps": 5320,
    "Ġher": 634,
    "Ġhere": 1029,
    "Ġhero": 4241,
    "Ġherself": 5542,
    "Ġhidden": 7511,
    "Ġhide": 8095,
    "Ġhig": 1864,
    "Ġhigh": 995,
    "Ġhigher": 2474,
    "Ġhighest": 4255,
    "Ġhighlight": 4722,
    "Ġhighlights": 9611,
    "Ġhighly": 3855,
    "Ġhim": 694,
    "Ġhimself": 2254,
    "Ġhint": 8741,
    "Ġhip": 9884,
    "Ġhire": 9968,
    "Ġhired": 7969,
    "Ġhis": 460,
    "Ġhist": 1396,
    "Ġhistor": 3277,
    "Ġhistoric": 7796,
    "Ġhistorical": 6257,
    "Ġhistory": 1883,
    "Ġhit": 1935,
    "Ġhits": 7076,
    "Ġhitting": 8071,
    "Ġho": 7763,
    "Ġhockey": 9133,
    "Ġhol": 5728,
    "Ġhold": 1787,
    "Ġholding": 4739,
    "Ġholds": 6414,
    "Ġhole": 7886,
    "Ġholiday": 8480,
    "Ġhom": 2402,
    "Ġhome": 1250,
    "Ġhomeless": 8843,
    "Ġhomes": 4826,
    "Ġhon": 2881,
    "Ġhonest": 5152,
    "Ġhonor": 7012,
    "Ġhook": 8236,
    "Ġhop": 1507,
    "Ġhope": 2452,
    "Ġhoped": 8992,
    "Ġhopefully": 9875,
    "Ġhopes": 5667,
    "Ġhoping": 6464,
    "Ġhor": 3051,
    "Ġhorror": 8731,
    "Ġhorse": 8434,
    "Ġhosp": 9268,
    "Ġhospital": 4033,
    "Ġhospitals": 9956,
    "Ġhost": 2401,
    "Ġhosted": 9738,
    "Ġhot": 3053,
    "Ġhotel": 6692,
    "Ġhour": 1724,
    "Ġhours": 2264,
    "Ġhous": 3434,
    "Ġhouse": 2153,
    "Ġhousehold": 6392,
    "Ġhouses": 7238,
    "Ġhousing": 4897,
    "Ġhow": 687,
    "Ġhowever": 2109,
    "Ġhttp": 2908,
    "Ġhttps": 5584,
    "Ġhuge": 2841,
    "Ġhum": 1275,
    "Ġhuman": 1607,
    "Ġhumanity": 8523,
    "Ġhumans": 5176,
    "Ġhun": 5563,
    "Ġhundred": 3258,
    "Ġhundreds": 4352,
    "Ġhung": 9030,
    "Ġhur": 6471,
    "Ġhurt": 5580,
    "Ġhus": 4574,
    "Ġhusband": 4944,
    "Ġhy": 2571,
    "Ġhydro": 9463,
    "Ġhyp": 5358,
    "Ġhyper": 9107,
    "Ġhypot": 8405,
    "Ġi": 1805,
    "ĠiOS": 8292,
    "ĠiP": 8455,
    "ĠiPhone": 6079,
    "Ġice": 4399,
    "Ġicon": 7209,
    "Ġid": 5670,
    "Ġide": 1276,
    "Ġidea": 1905,
    "Ġideal": 7124,
    "Ġideas": 3753,
    "Ġident": 1834,
    "Ġidentified": 4872,
    "Ġidentify": 5598,
    "Ġidentity": 4923,
    "Ġif": 642,
    "Ġign": 3591,
    "Ġignore": 8448,
    "Ġignored": 8951,
    "Ġil": 3495,
    "Ġill": 2839,
    "Ġilleg": 3721,
    "Ġillegal": 4404,
    "Ġillness": 8082,
    "Ġillust": 6363,
    "Ġim": 536,
    "Ġimag": 3304,
    "Ġimage": 3050,
    "Ġimages": 4187,
    "Ġimagine": 5245,
    "Ġimm": 2136,
    "Ġimmedi": 2718,
    "Ġimmediate": 6507,
    "Ġimmediately": 3452,
    "Ġimmigrants": 6520,
    "Ġimmigration": 5090,
    "Ġimp": 831,
    "Ġimpact": 2622,
    "Ġimper": 7347,
    "Ġimpl": 4068,
    "Ġimplement": 3385,
    "Ġimplementation": 7734,
    "Ġimplemented": 8362,
    "Ġimplications": 9623,
    "Ġimport": 1272,
    "Ġimportance": 6354,
    "Ġimportant": 1480,
    "Ġimportantly": 9493,
    "Ġimpossible": 5123,
    "Ġimpression": 9883,
    "Ġimpressive": 6858,
    "Ġimpro": 1927,
    "Ġimprove": 2886,
    "Ġimproved": 6199,
    "Ġimprovement": 8505,
    "Ġimprovements": 8308,
    "Ġimproving": 8832,
    "Ġin": 287,
    "Ġinc": 566,
    "Ġincent": 8037,
    "Ġinches": 9607,
    "Ġincident": 3877,
    "Ġincidents": 8762,
    "Ġincl": 7183,
    "Ġinclud": 825,
    "Ġinclude": 2356,
    "Ġincluded": 2942,
    "Ġincludes": 3455,
    "Ġincluding": 1271,
    "Ġincome": 3745,
    "Ġincor": 6132,
    "Ġincorpor": 8399,
    "Ġincre": 1254,
    "Ġincrease": 2606,
    "Ġincreased": 3387,
    "Ġincreases": 6128,
    "Ġincreasing": 3162,
    "Ġincreasingly": 5145,
    "Ġincred": 4454,
    "Ġincredible": 7286,
    "Ġincredibly": 7335,
    "Ġind": 771,
    "Ġindeed": 5533,
    "Ġindepend": 3071,
    "Ġindependence": 8261,
    "Ġindependent": 4227,
    "Ġindex": 7520,
    "Ġindic": 2800,
    "Ġindicate": 7897,
    "Ġindicated": 8088,
    "Ġindicates": 9681,
    "Ġindividual": 2016,
    "Ġindividuals": 3813,
    "Ġindust": 1869,
    "Ġindustrial": 6442,
    "Ġindustries": 9939,
    "Ġindustry": 2364,
    "Ġinequ": 8962,
    "Ġinev": 7749,
    "Ġinf": 1168,
    "Ġinfect": 7318,
    "Ġinfl": 6740,
    "Ġinflation": 8779,
    "Ġinflu": 2777,
    "Ġinfluence": 4168,
    "Ġinfo": 9649,
    "Ġinform": 1270,
    "Ġinformation": 1439,
    "Ġinformed": 7304,
    "Ġinfrastructure": 5409,
    "Ġing": 6121,
    "Ġingred": 8508,
    "Ġinit": 2259,
    "Ġiniti": 4779,
    "Ġinitial": 4368,
    "Ġinitially": 6108,
    "Ġinitiative": 8166,
    "Ġinj": 2350,
    "Ġinject": 8315,
    "Ġinjured": 5962,
    "Ġinjuries": 6076,
    "Ġinjury": 4815,
    "Ġinn": 3181,
    "Ġinner": 8780,
    "Ġinnoc": 7356,
    "Ġinnocent": 9340,
    "Ġinnov": 5211,
    "Ġinnovation": 8800,
    "Ġinput": 6265,
    "Ġinqu": 7060,
    "Ġins": 1020,
    "Ġinside": 2673,
    "Ġinsisted": 9048,
    "Ġinspect": 9792,
    "Ġinspir": 7603,
    "Ġinspired": 6691,
    "Ġinst": 967,
    "Ġinstall": 4129,
    "Ġinstalled": 7528,
    "Ġinstance": 4481,
    "Ġinstead": 2393,
    "Ġinstit": 5312,
    "Ġinstitution": 9891,
    "Ġinstitutions": 5789,
    "Ġinstru": 6600,
    "Ġinstruct": 5758,
    "Ġinstructions": 9450,
    "Ġinstrument": 8851,
    "Ġinsult": 9919,
    "Ġinsurance": 4670,
    "Ġint": 491,
    "Ġintegr": 3968,
    "Ġintellect": 7108,
    "Ġintellectual": 8046,
    "Ġintelligence": 3836,
    "Ġintended": 5317,
    "Ġintense": 7614,
    "Ġintent": 6710,
    "Ġintention": 6485,
    "Ġinter": 966,
    "Ġinteract": 5126,
    "Ġinterest": 1304,
    "Ġinterested": 4251,
    "Ġinteresting": 3203,
    "Ġinterests": 4771,
    "Ġinterf": 9581,
    "Ġinterface": 7834,
    "Ġintern": 1573,
    "Ġinternal": 5238,
    "Ġinternational": 2682,
    "Ġinternet": 4473,
    "Ġinterpret": 7399,
    "Ġintervention": 8478,
    "Ġinterview": 2299,
    "Ġinterviews": 7978,
    "Ġintim": 9502,
    "Ġinto": 646,
    "Ġintrodu": 2835,
    "Ġintroduce": 9231,
    "Ġintroduced": 4783,
    "Ġintroduction": 9050,
    "Ġinv": 761,
    "Ġinvent": 8201,
    "Ġinvest": 1175,
    "Ġinvestig": 1747,
    "Ġinvestigate": 8285,
    "Ġinvestigating": 8535,
    "Ġinvestigation": 3109,
    "Ġinvestigations": 9265,
    "Ġinvestigators": 8550,
    "Ġinvestment": 4285,
    "Ġinvestments": 9758,
    "Ġinvestors": 6274,
    "Ġinvited": 8268,
    "Ġinvol": 1712,
    "Ġinvolve": 5509,
    "Ġinvolved": 2635,
    "Ġinvolvement": 8227,
    "Ġinvolves": 8524,
    "Ġinvolving": 6826,
    "Ġir": 4070,
    "Ġiron": 7452,
    "Ġis": 321,
    "Ġisland": 6278,
    "Ġisn": 1916,
    "Ġisol": 6504,
    "Ġiss": 1117,
    "Ġissue": 1867,
    "Ġissued": 4548,
    "Ġissues": 2173,
    "Ġit": 340,
    "Ġitem": 3374,
    "Ġitems": 4525,
    "Ġits": 628,
    "Ġitself": 2265,
    "Ġj": 470,
    "Ġjail": 5384,
    "Ġje": 8681,
    "Ġjo": 2112,
    "Ġjob": 1438,
    "Ġjobs": 3172,
    "Ġjoin": 4403,
    "Ġjoined": 4768,
    "Ġjoining": 8270,
    "Ġjoint": 6125,
    "Ġjoke": 8876,
    "Ġjournal": 3217,
    "Ġjournalist": 7882,
    "Ġjournalists": 6999,
    "Ġjourney": 6656,
    "Ġjoy": 8834,
    "Ġju": 7857,
    "Ġjud": 2420,
    "Ġjudge": 4170,
    "Ġjudges": 8761,
    "Ġjudgment": 9646,
    "Ġjump": 4007,
    "Ġjur": 8576,
    "Ġjury": 8324,
    "Ġjust": 627,
    "Ġjustice": 4719,
    "Ġk": 484,
    "Ġke": 894,
    "Ġkeep": 1338,
    "Ġkeeping": 4899,
    "Ġkeeps": 7303,
    "Ġkept": 3895,
    "Ġkey": 2055,
    "Ġkeys": 9350,
    "Ġkick": 4264,
    "Ġkid": 4781,
    "Ġkids": 3440,
    "Ġkil": 7325,
    "Ġkill": 1483,
    "Ġkilled": 2704,
    "Ġkilling": 4975,
    "Ġkilomet": 9541,
    "Ġkind": 1520,
    "Ġkinds": 6524,
    "Ġking": 6676,
    "Ġkit": 6309,
    "Ġkitchen": 9908,
    "Ġkm": 8710,
    "Ġkn": 633,
    "Ġknee": 9618,
    "Ġknew": 2951,
    "Ġknow": 762,
    "Ġknowing": 6727,
    "Ġknowledge": 3885,
    "Ġknown": 1775,
    "Ġknows": 3936,
    "Ġl": 302,
    "Ġla": 1651,
    "Ġlab": 2216,
    "Ġlabel": 6024,
    "Ġlabor": 4580,
    "Ġlack": 2769,
    "Ġlaid": 7798,
    "Ġland": 1876,
    "Ġlanding": 9517,
    "Ġlands": 8728,
    "Ġlandscape": 9101,
    "Ġlangu": 2631,
    "Ġlanguage": 3122,
    "Ġlanguages": 7973,
    "Ġlapt": 9713,
    "Ġlarg": 2291,
    "Ġlarge": 1526,
    "Ġlargely": 4673,
    "Ġlarger": 3856,
    "Ġlargest": 3660,
    "Ġlast": 843,
    "Ġlat": 2341,
    "Ġlate": 2374,
    "Ġlater": 1418,
    "Ġlatest": 3069,
    "Ġlatter": 6723,
    "Ġlaugh": 6410,
    "Ġlaun": 3927,
    "Ġlaunch": 3539,
    "Ġlaunched": 4519,
    "Ġlaw": 998,
    "Ġlawmakers": 7466,
    "Ġlaws": 2520,
    "Ġlawsuit": 6238,
    "Ġlawy": 4145,
    "Ġlawyer": 5989,
    "Ġlawyers": 7524,
    "Ġlay": 3298,
    "Ġlayer": 8532,
    "Ġle": 438,
    "Ġlead": 952,
    "Ġleader": 3056,
    "Ġleaders": 2202,
    "Ġleadership": 4474,
    "Ġleading": 3301,
    "Ġleads": 5561,
    "Ġleague": 3624,
    "Ġlear": 1653,
    "Ġlearn": 3176,
    "Ġlearned": 4127,
    "Ġlearning": 4260,
    "Ġleast": 1493,
    "Ġleave": 2669,
    "Ġleaves": 5945,
    "Ġleaving": 4066,
    "Ġled": 2499,
    "Ġleft": 1328,
    "Ġleg": 1132,
    "Ġlegacy": 8872,
    "Ġlegal": 2381,
    "Ġlegally": 9775,
    "Ġlegend": 7963,
    "Ġlegisl": 2946,
    "Ġlegislation": 4388,
    "Ġlegislative": 9336,
    "Ġlegit": 5969,
    "Ġlegitimate": 8511,
    "Ġlegs": 8391,
    "Ġlength": 4742,
    "Ġles": 8864,
    "Ġless": 1309,
    "Ġlet": 1306,
    "Ġlets": 8871,
    "Ġletter": 3528,
    "Ġletters": 7244,
    "Ġletting": 9080,
    "Ġlevel": 1369,
    "Ġlevels": 3103,
    "Ġliber": 3061,
    "Ġliberal": 5701,
    "Ġlibrary": 6333,
    "Ġlic": 3830,
    "Ġlicens": 8467,
    "Ġlicense": 6913,
    "Ġlie": 6291,
    "Ġlies": 6512,
    "Ġlif": 3783,
    "Ġlife": 1183,
    "Ġlight": 1827,
    "Ġlights": 7766,
    "Ġlik": 4056,
    "Ġlike": 562,
    "Ġliked": 7968,
    "Ġlikely": 1692,
    "Ġlikes": 6985,
    "Ġlim": 1838,
    "Ġlimit": 4378,
    "Ġlimited": 3642,
    "Ġlimits": 7009,
    "Ġline": 1567,
    "Ġlines": 3851,
    "Ġlink": 3003,
    "Ġlinked": 6098,
    "Ġlinks": 6368,
    "Ġliqu": 6713,
    "Ġliquid": 8528,
    "Ġlist": 1380,
    "Ġlisted": 6163,
    "Ġlisten": 5639,
    "Ġlistening": 8103,
    "Ġlists": 8252,
    "Ġlit": 1095,
    "Ġliter": 3960,
    "Ġliterally": 6733,
    "Ġliterature": 8936,
    "Ġlittle": 1312,
    "Ġlive": 1949,
    "Ġlived": 5163,
    "Ġlives": 2806,
    "Ġliving": 2698,
    "Ġlo": 2434,
    "Ġload": 4329,
    "Ġloan": 7253,
    "Ġloans": 8533,
    "Ġlobby": 8301,
    "Ġloc": 1173,
    "Ġlocal": 1784,
    "Ġlocated": 5370,
    "Ġlocation": 4428,
    "Ġlocations": 6868,
    "Ġlock": 6327,
    "Ġlocked": 8830,
    "Ġlog": 2779,
    "Ġlogic": 8502,
    "Ġlong": 881,
    "Ġlonger": 2435,
    "Ġlook": 793,
    "Ġlooked": 3281,
    "Ġlooking": 1947,
    "Ġlooks": 2997,
    "Ġloose": 9309,
    "Ġlose": 4171,
    "Ġlosing": 5186,
    "Ġloss": 2904,
    "Ġlosses": 7800,
    "Ġlost": 2396,
    "Ġlot": 1139,
    "Ġlots": 5658,
    "Ġloud": 7743,
    "Ġlove": 1880,
    "Ġloved": 5819,
    "Ġlow": 1872,
    "Ġlower": 2937,
    "Ġlowest": 8669,
    "Ġloyal": 8111,
    "Ġluck": 8316,
    "Ġlucky": 8756,
    "Ġlunch": 9437,
    "Ġlux": 9823,
    "Ġlying": 8831,
    "Ġm": 286,
    "Ġmac": 9368,
    "Ġmach": 3118,
    "Ġmachine": 4410,
    "Ġmachines": 7328,
    "Ġmad": 8896,
    "Ġmade": 901,
    "Ġmag": 2366,
    "Ġmagazine": 6156,
    "Ġmagic": 7419,
    "Ġmagn": 7908,
    "Ġmail": 7682,
    "Ġmain": 1344,
    "Ġmainly": 7592,
    "Ġmainstream": 6720,
    "Ġmaintain": 3362,
    "Ġmaintained": 9384,
    "Ġmajor": 1449,
    "Ġmajority": 3212,
    "Ġmake": 779,
    "Ġmakes": 1799,
    "Ġmaking": 1525,
    "Ġmal": 5781,
    "Ġmale": 4337,
    "Ġman": 568,
    "Ġmanage": 6357,
    "Ġmanaged": 4863,
    "Ġmanagement": 4375,
    "Ġmanager": 3842,
    "Ġmanagers": 9872,
    "Ġmanaging": 9675,
    "Ġmand": 5868,
    "Ġmanifest": 9769,
    "Ġmanip": 7357,
    "Ġmanner": 6584,
    "Ġmanufact": 3926,
    "Ġmanufacture": 6242,
    "Ġmanufacturing": 7865,
    "Ġmany": 812,
    "Ġmap": 4310,
    "Ġmaps": 8785,
    "Ġmar": 1531,
    "Ġmarch": 8930,
    "Ġmarg": 5537,
    "Ġmargin": 9697,
    "Ġmarijuana": 4444,
    "Ġmark": 1220,
    "Ġmarked": 7509,
    "Ġmarket": 1638,
    "Ġmarketing": 6366,
    "Ġmarkets": 5109,
    "Ġmarks": 8716,
    "Ġmarriage": 4374,
    "Ġmarried": 5935,
    "Ġmass": 2127,
    "Ġmassive": 4139,
    "Ġmaster": 5459,
    "Ġmat": 1405,
    "Ġmatch": 2930,
    "Ġmatches": 6911,
    "Ġmaterial": 2805,
    "Ġmaterials": 6101,
    "Ġmathem": 8875,
    "Ġmatter": 2241,
    "Ġmatters": 5765,
    "Ġmax": 4541,
    "Ġmaximum": 6879,
    "Ġmay": 806,
    "Ġmaybe": 3606,
    "Ġmayor": 7252,
    "Ġme": 511,
    "Ġmean": 1582,
    "Ġmeaning": 3570,
    "Ġmeaningful": 9691,
    "Ġmeans": 1764,
    "Ġmeant": 3685,
    "Ġmeas": 2169,
    "Ġmeasure": 3833,
    "Ġmeasured": 8890,
    "Ġmeasures": 4843,
    "Ġmeat": 6539,
    "Ġmechan": 4048,
    "Ġmechanism": 6473,
    "Ġmed": 1031,
    "Ġmedia": 1668,
    "Ġmedic": 6669,
    "Ġmedical": 3117,
    "Ġmedicine": 8553,
    "Ġmedium": 7753,
    "Ġmeet": 1676,
    "Ġmeeting": 2831,
    "Ġmeetings": 7088,
    "Ġmel": 7792,
    "Ġmem": 1027,
    "Ġmember": 2814,
    "Ġmembers": 1695,
    "Ġmembership": 9264,
    "Ġmemo": 9780,
    "Ġmemories": 9715,
    "Ġmemory": 4257,
    "Ġmen": 1512,
    "Ġment": 3361,
    "Ġmental": 5001,
    "Ġmention": 3012,
    "Ġmentioned": 4770,
    "Ġmenu": 8310,
    "Ġmer": 4123,
    "Ġmere": 4964,
    "Ġmerely": 6886,
    "Ġmess": 2035,
    "Ġmessage": 3197,
    "Ġmessages": 5892,
    "Ġmet": 1195,
    "Ġmetal": 6432,
    "Ġmethod": 2822,
    "Ġmethods": 5454,
    "Ġmice": 9927,
    "Ġmicro": 4516,
    "Ġmid": 2759,
    "Ġmiddle": 3267,
    "Ġmidfield": 8923,
    "Ġmight": 1210,
    "Ġmil": 1314,
    "Ġmiles": 4293,
    "Ġmilit": 1678,
    "Ġmilitary": 1996,
    "Ġmilk": 8126,
    "Ġmill": 3395,
    "Ġmillion": 1265,
    "Ġmillions": 4294,
    "Ġmin": 953,
    "Ġmind": 2024,
    "Ġminds": 8248,
    "Ġmine": 6529,
    "Ġmini": 9405,
    "Ġminimum": 5530,
    "Ġmining": 8662,
    "Ġminister": 4043,
    "Ġministry": 9677,
    "Ġminor": 3868,
    "Ġminority": 7703,
    "Ġminute": 5593,
    "Ġminutes": 2537,
    "Ġmir": 6160,
    "Ġmis": 2871,
    "Ġmiss": 1955,
    "Ġmissed": 6050,
    "Ġmissile": 8584,
    "Ġmissing": 4791,
    "Ġmission": 4183,
    "Ġmissions": 9776,
    "Ġmist": 3799,
    "Ġmistake": 6805,
    "Ġmistakes": 8839,
    "Ġmit": 9288,
    "Ġmix": 3700,
    "Ġmixed": 7232,
    "Ġmo": 8108,
    "Ġmob": 3334,
    "Ġmobile": 4479,
    "Ġmod": 1046,
    "Ġmode": 5541,
    "Ġmodel": 2648,
    "Ġmodels": 4844,
    "Ġmoder": 6924,
    "Ġmodern": 3253,
    "Ġmodule": 9970,
    "Ġmole": 9197,
    "Ġmom": 1887,
    "Ġmoment": 2455,
    "Ġmoments": 6418,
    "Ġmon": 888,
    "Ġmoney": 1415,
    "Ġmonit": 7495,
    "Ġmonitor": 8556,
    "Ġmonitoring": 9005,
    "Ġmonth": 1105,
    "Ġmonthly": 9251,
    "Ġmonths": 1722,
    "Ġmood": 9866,
    "Ġmoon": 9004,
    "Ġmor": 1986,
    "Ġmoral": 6060,
    "Ġmore": 506,
    "Ġmorning": 3014,
    "Ġmort": 5631,
    "Ġmortg": 9343,
    "Ġmos": 9380,
    "Ġmost": 723,
    "Ġmostly": 4101,
    "Ġmot": 2369,
    "Ġmother": 2767,
    "Ġmotion": 6431,
    "Ġmotiv": 5638,
    "Ġmotor": 6078,
    "Ġmount": 4155,
    "Ġmountain": 8648,
    "Ġmouth": 6618,
    "Ġmov": 1305,
    "Ġmove": 1334,
    "Ġmoved": 3538,
    "Ġmovement": 2969,
    "Ġmovements": 7937,
    "Ġmoves": 6185,
    "Ġmovie": 3291,
    "Ġmovies": 5917,
    "Ġmoving": 3581,
    "Ġmuch": 849,
    "Ġmult": 2000,
    "Ġmulti": 5066,
    "Ġmultiple": 3346,
    "Ġmur": 4272,
    "Ġmurd": 7251,
    "Ġmurder": 4674,
    "Ġmus": 1817,
    "Ġmuscle": 9852,
    "Ġmuseum": 9121,
    "Ġmusic": 2346,
    "Ġmusical": 8837,
    "Ġmust": 1471,
    "Ġmut": 5197,
    "Ġmy": 640,
    "Ġmyself": 3598,
    "Ġmyster": 6133,
    "Ġmyth": 7448,
    "Ġn": 301,
    "Ġna": 9813,
    "Ġname": 1617,
    "Ġnamed": 3320,
    "Ġnames": 4015,
    "Ġnar": 5359,
    "Ġnarr": 6786,
    "Ġnarrative": 7227,
    "Ġnarrow": 6796,
    "Ġnation": 2701,
    "Ġnational": 1855,
    "Ġnations": 6140,
    "Ġnative": 6289,
    "Ġnatural": 3265,
    "Ġnaturally": 8885,
    "Ġnature": 3611,
    "Ġnav": 6404,
    "Ġne": 400,
    "Ġnear": 1998,
    "Ġnearby": 6151,
    "Ġnearly": 2656,
    "Ġnecess": 2569,
    "Ġnecessarily": 6111,
    "Ġnecessary": 3649,
    "Ġneck": 8489,
    "Ġneed": 757,
    "Ġneeded": 2337,
    "Ġneeds": 2325,
    "Ġneg": 2278,
    "Ġnegative": 4447,
    "Ġnegoti": 4181,
    "Ġnegotiations": 7564,
    "Ġneigh": 2945,
    "Ġneighb": 7930,
    "Ġneighbor": 4397,
    "Ġneighborhood": 5127,
    "Ġneighbour": 8368,
    "Ġneither": 6147,
    "Ġnerv": 8707,
    "Ġnet": 1851,
    "Ġnetwork": 2826,
    "Ġnetworks": 6282,
    "Ġneuro": 7695,
    "Ġneut": 6825,
    "Ġneutral": 7948,
    "Ġnever": 1215,
    "Ġnew": 598,
    "Ġnewly": 7348,
    "Ġnews": 1365,
    "Ġnewslet": 6695,
    "Ġnewsletter": 9563,
    "Ġnewsp": 4824,
    "Ġnewspaper": 5906,
    "Ġnext": 1216,
    "Ġnic": 9754,
    "Ġnice": 3765,
    "Ġnight": 1652,
    "Ġnin": 9784,
    "Ġnine": 4441,
    "Ġno": 653,
    "Ġnobody": 7239,
    "Ġnoise": 8396,
    "Ġnom": 3599,
    "Ġnomination": 8888,
    "Ġnomine": 6959,
    "Ġnominee": 8021,
    "Ġnon": 1777,
    "Ġnone": 5042,
    "Ġnor": 4612,
    "Ġnorm": 2834,
    "Ġnormal": 3941,
    "Ġnormally": 8179,
    "Ġnorth": 4575,
    "Ġnorthern": 6835,
    "Ġnot": 408,
    "Ġnote": 3669,
    "Ġnoted": 3803,
    "Ġnotes": 4501,
    "Ġnothing": 2093,
    "Ġnotice": 4486,
    "Ġnoticed": 6765,
    "Ġnoting": 8664,
    "Ġnotion": 8116,
    "Ġnovel": 4589,
    "Ġnow": 749,
    "Ġnuclear": 3597,
    "Ġnum": 997,
    "Ġnumber": 1281,
    "Ġnumbers": 2872,
    "Ġnumerous": 5831,
    "Ġnut": 7417,
    "Ġo": 268,
    "Ġob": 961,
    "Ġobject": 2425,
    "Ġobjective": 9282,
    "Ġobjects": 6044,
    "Ġoblig": 6930,
    "Ġobs": 2729,
    "Ġobsc": 9967,
    "Ġobserv": 3821,
    "Ġobserved": 6735,
    "Ġobst": 7773,
    "Ġobtain": 4345,
    "Ġobtained": 6955,
    "Ġobv": 3202,
    "Ġobvious": 4841,
    "Ġobviously": 5545,
    "Ġocc": 1691,
    "Ġoccas": 4280,
    "Ġoccup": 4804,
    "Ġoccur": 3316,
    "Ġoccurred": 5321,
    "Ġocean": 8098,
    "Ġodd": 5319,
    "Ġodds": 9454,
    "Ġof": 288,
    "Ġoff": 546,
    "Ġoffense": 6170,
    "Ġoffensive": 4811,
    "Ġoffer": 2801,
    "Ġoffered": 4074,
    "Ġoffering": 5421,
    "Ġoffers": 4267,
    "Ġoffic": 982,
    "Ġoffice": 2267,
    "Ġofficer": 3503,
    "Ġofficers": 3256,
    "Ġoffices": 8602,
    "Ġofficial": 1423,
    "Ġofficially": 7102,
    "Ġofficials": 2221,
    "Ġoften": 1591,
    "Ġoil": 2734,
    "Ġokay": 9446,
    "Ġold": 1487,
    "Ġolder": 4655,
    "Ġon": 318,
    "Ġonce": 1745,
    "Ġone": 520,
    "Ġones": 3300,
    "Ġongoing": 5913,
    "Ġonline": 2477,
    "Ġonly": 699,
    "Ġonto": 4323,
    "Ġop": 992,
    "Ġopen": 1231,
    "Ġopened": 4354,
    "Ġopening": 4258,
    "Ġopenly": 9745,
    "Ġopens": 9686,
    "Ġoper": 1466,
    "Ġoperate": 7468,
    "Ġoperating": 5135,
    "Ġoperation": 4821,
    "Ġoperations": 4174,
    "Ġopin": 3521,
    "Ġopinion": 4320,
    "Ġopinions": 8581,
    "Ġopp": 1149,
    "Ġopponent": 6422,
    "Ġopponents": 6715,
    "Ġopportun": 2431,
    "Ġopportunities": 5652,
    "Ġopportunity": 3207,
    "Ġopposed": 5704,
    "Ġopposite": 6415,
    "Ġopposition": 4214,
    "Ġopt": 2234,
    "Ġoptim": 5777,
    "Ġoption": 3541,
    "Ġoptions": 3966,
    "Ġor": 416,
    "Ġord": 2877,
    "Ġorder": 1613,
    "Ġordered": 5883,
    "Ġorders": 6728,
    "Ġordinary": 8931,
    "Ġorgan": 1440,
    "Ġorganic": 9914,
    "Ġorganiz": 3976,
    "Ġorganization": 3584,
    "Ġorganizations": 5036,
    "Ġorganized": 7387,
    "Ġorig": 1795,
    "Ġorigin": 7382,
    "Ġoriginal": 2661,
    "Ġoriginally": 5487,
    "Ġother": 581,
    "Ġothers": 1818,
    "Ġotherwise": 4927,
    "Ġour": 659,
    "Ġourselves": 5975,
    "Ġout": 496,
    "Ġoutcome": 7254,
    "Ġoutput": 6208,
    "Ġoutrage": 9420,
    "Ġouts": 8545,
    "Ġoutside": 2246,
    "Ġover": 591,
    "Ġoverall": 3727,
    "Ġovers": 8560,
    "Ġoverse": 7548,
    "Ġoverseas": 9321,
    "Ġovert": 8398,
    "Ġoverwhel": 6705,
    "Ġoverwhelming": 8215,
    "Ġown": 871,
    "Ġowned": 6602,
    "Ġowner": 4937,
    "Ġowners": 3955,
    "Ġownership": 8302,
    "Ġp": 280,
    "Ġpace": 7542,
    "Ġpack": 2627,
    "Ġpackage": 5762,
    "Ġpage": 2863,
    "Ġpages": 5757,
    "Ġpaid": 3245,
    "Ġpain": 2440,
    "Ġpaint": 7392,
    "Ġpair": 5101,
    "Ġpal": 6947,
    "Ġpan": 3317,
    "Ġpanel": 5656,
    "Ġpaper": 3136,
    "Ġpapers": 8578,
    "Ġpar": 1628,
    "Ġparalle": 8795,
    "Ġparam": 7164,
    "Ġparent": 2491,
    "Ġparents": 3142,
    "Ġpark": 3595,
    "Ġparking": 7185,
    "Ġparliament": 6336,
    "Ġpart": 612,
    "Ġpartic": 1298,
    "Ġparticip": 2818,
    "Ġparticipants": 6483,
    "Ġparticipate": 7782,
    "Ġparticipation": 9704,
    "Ġparticular": 2985,
    "Ġparticularly": 3215,
    "Ġparties": 4143,
    "Ġpartner": 4905,
    "Ġpartners": 4317,
    "Ġpartnership": 8922,
    "Ġparts": 3355,
    "Ġparty": 1888,
    "Ġpass": 1181,
    "Ġpassage": 9724,
    "Ġpassed": 3543,
    "Ġpassengers": 8881,
    "Ġpasses": 7490,
    "Ġpassing": 5669,
    "Ġpassion": 6799,
    "Ġpast": 1460,
    "Ġpat": 1488,
    "Ġpatch": 9157,
    "Ġpath": 3342,
    "Ġpatient": 6041,
    "Ġpatients": 4041,
    "Ġpattern": 4196,
    "Ġpatterns": 7580,
    "Ġpay": 1355,
    "Ġpaying": 5202,
    "Ġpayment": 7191,
    "Ġpayments": 7142,
    "Ġpe": 569,
    "Ġpeace": 3832,
    "Ġpeak": 8311,
    "Ġped": 6995,
    "Ġpen": 3132,
    "Ġpenalty": 7389,
    "Ġpeople": 619,
    "Ġper": 575,
    "Ġperceived": 9837,
    "Ġpercent": 1248,
    "Ġpercentage": 5504,
    "Ġperfect": 2965,
    "Ġperfectly": 7180,
    "Ġperform": 1635,
    "Ġperformance": 2862,
    "Ġperformed": 6102,
    "Ġperforming": 9065,
    "Ġperhaps": 3410,
    "Ġperiod": 2429,
    "Ġperman": 5968,
    "Ġpermanent": 7499,
    "Ġpermission": 7776,
    "Ġpermit": 8807,
    "Ġperpet": 8124,
    "Ġpers": 2897,
    "Ġperson": 1113,
    "Ġpersonal": 2540,
    "Ġpersonality": 8701,
    "Ġpersonally": 7030,
    "Ġpersonnel": 7551,
    "Ġpersons": 9125,
    "Ġperspective": 5848,
    "Ġpersu": 9489,
    "Ġpet": 5059,
    "Ġpetition": 8663,
    "Ġph": 863,
    "Ġpharm": 9688,
    "Ġphase": 7021,
    "Ġphen": 6200,
    "Ġphenomen": 6842,
    "Ġphenomenon": 9320,
    "Ġphil": 4788,
    "Ġphilos": 5187,
    "Ġphilosoph": 6107,
    "Ġphilosophy": 7984,
    "Ġphone": 2755,
    "Ġphones": 7546,
    "Ġphot": 2675,
    "Ġphoto": 4383,
    "Ġphotograp": 8778,
    "Ġphotograph": 7752,
    "Ġphotos": 4962,
    "Ġphr": 7475,
    "Ġphrase": 9212,
    "Ġphys": 2373,
    "Ġphysical": 3689,
    "Ġphysically": 9666,
    "Ġpic": 7081,
    "Ġpick": 2165,
    "Ġpicked": 5918,
    "Ġpicking": 9867,
    "Ġpicks": 9480,
    "Ġpict": 2815,
    "Ġpicture": 4120,
    "Ġpictures": 5870,
    "Ġpie": 2460,
    "Ġpiece": 3506,
    "Ġpieces": 5361,
    "Ġpig": 9306,
    "Ġpil": 5279,
    "Ġpilot": 7445,
    "Ġpin": 7552,
    "Ġpip": 6591,
    "Ġpipeline": 9292,
    "Ġpit": 5050,
    "Ġpitch": 5814,
    "Ġpl": 456,
    "Ġplace": 1268,
    "Ġplaced": 4750,
    "Ġplaces": 3919,
    "Ġplain": 8937,
    "Ġplan": 1185,
    "Ġplane": 6262,
    "Ġplanet": 5007,
    "Ġplanned": 5045,
    "Ġplanning": 4743,
    "Ġplans": 2811,
    "Ġplant": 4030,
    "Ġplants": 5698,
    "Ġplastic": 7346,
    "Ġplate": 7932,
    "Ġplatform": 3431,
    "Ġplatforms": 8420,
    "Ġplay": 666,
    "Ġplayed": 2362,
    "Ġplayer": 2057,
    "Ġplayers": 1650,
    "Ġplaying": 2368,
    "Ġplayoff": 6141,
    "Ġplayoffs": 9596,
    "Ġplays": 4631,
    "Ġple": 2408,
    "Ġplease": 4654,
    "Ġpled": 6653,
    "Ġplenty": 5404,
    "Ġplot": 6315,
    "Ġplug": 7761,
    "Ġplus": 5565,
    "Ġpo": 698,
    "Ġpocket": 9897,
    "Ġpod": 7159,
    "Ġpoint": 938,
    "Ġpointed": 5457,
    "Ġpointing": 9538,
    "Ġpoints": 2106,
    "Ġpoison": 9709,
    "Ġpol": 678,
    "Ġpolic": 1537,
    "Ġpolice": 1360,
    "Ġpolicies": 4014,
    "Ġpolicy": 2034,
    "Ġpolit": 1135,
    "Ġpolitical": 1551,
    "Ġpolitically": 9211,
    "Ġpoliticians": 5564,
    "Ġpolitics": 3769,
    "Ġpoll": 2940,
    "Ġpolls": 7058,
    "Ġpollution": 9906,
    "Ġpoly": 8615,
    "Ġpool": 5959,
    "Ġpoor": 3341,
    "Ġpop": 1329,
    "Ġpopular": 2564,
    "Ġpopularity": 9258,
    "Ġpopulation": 2992,
    "Ġpopulations": 9171,
    "Ġporn": 8658,
    "Ġport": 2600,
    "Ġportion": 7601,
    "Ġportray": 8828,
    "Ġpos": 1366,
    "Ġposition": 2240,
    "Ġpositions": 5465,
    "Ġpositive": 3646,
    "Ġposs": 1194,
    "Ġpossess": 9495,
    "Ġpossession": 7626,
    "Ġpossibility": 5220,
    "Ġpossible": 1750,
    "Ġpossibly": 5133,
    "Ġpost": 1239,
    "Ġposted": 4081,
    "Ġposts": 6694,
    "Ġpot": 1665,
    "Ġpotential": 2464,
    "Ġpotentially": 5381,
    "Ġpounds": 7598,
    "Ġpoverty": 6956,
    "Ġpower": 1177,
    "Ġpowerful": 3636,
    "Ġpowers": 5689,
    "Ġpr": 704,
    "Ġpra": 6188,
    "Ġpract": 1925,
    "Ġpractical": 8175,
    "Ġpractice": 3264,
    "Ġpractices": 6027,
    "Ġpre": 664,
    "Ġprec": 3545,
    "Ġpreced": 8614,
    "Ġprecise": 6771,
    "Ġprecisely": 9548,
    "Ġpred": 2495,
    "Ġpredict": 3802,
    "Ġpredicted": 9114,
    "Ġpref": 8652,
    "Ġprefer": 4883,
    "Ġpregn": 6633,
    "Ġprem": 3931,
    "Ġpremium": 8805,
    "Ġprep": 3060,
    "Ġprepar": 9289,
    "Ġprepare": 8142,
    "Ġprepared": 5363,
    "Ġpreparing": 9330,
    "Ġpres": 838,
    "Ġpresence": 4725,
    "Ġpresent": 1963,
    "Ġpresentation": 9822,
    "Ġpresented": 5293,
    "Ġpresidency": 9093,
    "Ġpresident": 1401,
    "Ġpresidential": 3673,
    "Ġpress": 1679,
    "Ġpressure": 3530,
    "Ġpresum": 8514,
    "Ġpret": 2080,
    "Ġpretty": 2351,
    "Ġprev": 1351,
    "Ġprevent": 3175,
    "Ġprevious": 3010,
    "Ġpreviously": 3838,
    "Ġpri": 1246,
    "Ġprice": 2742,
    "Ġprices": 3992,
    "Ġprim": 2550,
    "Ġprimarily": 7175,
    "Ġprimary": 3881,
    "Ġprime": 5462,
    "Ġprin": 5931,
    "Ġprinc": 5136,
    "Ġprincip": 8659,
    "Ġprincipal": 9998,
    "Ġprinciple": 7812,
    "Ġprinciples": 7558,
    "Ġprint": 4037,
    "Ġprior": 3146,
    "Ġpriority": 7768,
    "Ġprison": 3308,
    "Ġprisoners": 9235,
    "Ġpriv": 1763,
    "Ġprivacy": 5647,
    "Ġprivate": 2603,
    "Ġprivile": 7481,
    "Ġpro": 377,
    "Ġprob": 1816,
    "Ġprobably": 2087,
    "Ġproble": 1277,
    "Ġproblem": 1761,
    "Ġproblems": 2597,
    "Ġproced": 5573,
    "Ġprocedure": 9592,
    "Ġprocedures": 9895,
    "Ġproceed": 5706,
    "Ġprocess": 1389,
    "Ġprocesses": 7640,
    "Ġprocessing": 8035,
    "Ġprodu": 964,
    "Ġproduce": 4223,
    "Ġproduced": 4175,
    "Ġproducer": 7954,
    "Ġproducers": 9333,
    "Ġproducing": 8090,
    "Ġproduct": 1776,
    "Ġproduction": 2910,
    "Ġproducts": 3279,
    "Ġprof": 1451,
    "Ġprofess": 2326,
    "Ġprofession": 7974,
    "Ġprofessional": 4436,
    "Ġprofessor": 5142,
    "Ġprofile": 7279,
    "Ġprofit": 7026,
    "Ġprofits": 8713,
    "Ġprogram": 1352,
    "Ġprogramme": 9092,
    "Ġprogramming": 7373,
    "Ġprograms": 3872,
    "Ġprogress": 3028,
    "Ġprogressive": 8149,
    "Ġprohib": 6358,
    "Ġproject": 1435,
    "Ġprojects": 3831,
    "Ġprom": 1395,
    "Ġprominent": 7627,
    "Ġpromise": 6407,
    "Ġpromised": 6813,
    "Ġpromises": 8816,
    "Ġpromising": 9552,
    "Ġpromot": 3764,
    "Ġpromote": 6883,
    "Ġpromoting": 9743,
    "Ġprompt": 5826,
    "Ġpron": 9526,
    "Ġproof": 6862,
    "Ġprop": 1687,
    "Ġpropag": 7660,
    "Ġpropaganda": 9448,
    "Ġproper": 2009,
    "Ġproperly": 6914,
    "Ġproperties": 6793,
    "Ġproperty": 3557,
    "Ġpropos": 4103,
    "Ġproposal": 5401,
    "Ġproposals": 9034,
    "Ġproposed": 4301,
    "Ġpros": 4017,
    "Ġprosec": 8373,
    "Ġprosecut": 5419,
    "Ġprosecutors": 9421,
    "Ġprospect": 5626,
    "Ġprot": 1153,
    "Ġprote": 6912,
    "Ġprotect": 1783,
    "Ġprotected": 6763,
    "Ġprotecting": 8857,
    "Ġprotection": 4934,
    "Ġprotein": 8874,
    "Ġprotest": 4324,
    "Ġprotesters": 6895,
    "Ġprotests": 6337,
    "Ġprotocol": 8646,
    "Ġproud": 5889,
    "Ġprov": 946,
    "Ġprove": 5378,
    "Ġproved": 7330,
    "Ġproven": 8063,
    "Ġprovide": 2263,
    "Ġprovided": 3328,
    "Ġproviders": 8537,
    "Ġprovides": 4162,
    "Ġproviding": 4793,
    "Ġprovince": 7220,
    "Ġprovision": 9348,
    "Ġpsych": 3768,
    "Ġpubl": 2033,
    "Ġpublic": 1059,
    "Ġpublication": 8472,
    "Ġpublicly": 5964,
    "Ġpublished": 2751,
    "Ġpull": 2891,
    "Ġpulled": 5608,
    "Ġpump": 7964,
    "Ġpun": 3939,
    "Ġpunish": 6992,
    "Ġpunishment": 9951,
    "Ġpur": 2630,
    "Ġpurch": 3375,
    "Ġpurchase": 5569,
    "Ġpurchased": 8476,
    "Ġpure": 6087,
    "Ġpurp": 3370,
    "Ġpurpose": 4467,
    "Ġpurposes": 7113,
    "Ġpurs": 4513,
    "Ġpursue": 9188,
    "Ġpus": 3713,
    "Ġpush": 4062,
    "Ġpushed": 6221,
    "Ġpushing": 6587,
    "Ġput": 1162,
    "Ġputs": 6840,
    "Ġputting": 4509,
    "Ġpuzz": 9488,
    "Ġqu": 625,
    "Ġqual": 4138,
    "Ġquality": 3315,
    "Ġquant": 5772,
    "Ġquarter": 3255,
    "Ġquarterback": 5954,
    "Ġque": 5096,
    "Ġquest": 1222,
    "Ġquestion": 1690,
    "Ġquestioned": 9356,
    "Ġquestions": 2617,
    "Ġquick": 2022,
    "Ġquickly": 2870,
    "Ġquiet": 5779,
    "Ġquite": 2363,
    "Ġquote": 9257,
    "Ġquoted": 9433,
    "Ġr": 366,
    "Ġra": 1645,
    "Ġrac": 3052,
    "Ġrace": 2860,
    "Ġraces": 8443,
    "Ġracial": 7593,
    "Ġracing": 9848,
    "Ġracism": 9047,
    "Ġracist": 8200,
    "Ġrad": 2303,
    "Ġradical": 6145,
    "Ġradio": 4502,
    "Ġrail": 5991,
    "Ġrain": 6049,
    "Ġraise": 4694,
    "Ġraised": 4004,
    "Ġraising": 7326,
    "Ġrally": 6335,
    "Ġramp": 8999,
    "Ġran": 4464,
    "Ġrandom": 5383,
    "Ġrange": 3182,
    "Ġrank": 4109,
    "Ġranked": 8487,
    "Ġranks": 8776,
    "Ġrap": 3822,
    "Ġrape": 6811,
    "Ġrapid": 5366,
    "Ġrapidly": 8093,
    "Ġrare": 3906,
    "Ġrarely": 7709,
    "Ġrat": 4387,
    "Ġrate": 2572,
    "Ġrates": 3844,
    "Ġrather": 2015,
    "Ġrating": 7484,
    "Ġratings": 9296,
    "Ġratio": 9011,
    "Ġrational": 8529,
    "Ġraw": 8447,
    "Ġre": 303,
    "Ġreach": 2995,
    "Ġreached": 3907,
    "Ġreaching": 8141,
    "Ġreact": 4584,
    "Ġreaction": 5740,
    "Ġread": 1090,
    "Ġreader": 8697,
    "Ġreaders": 5992,
    "Ġreading": 3399,
    "Ġreads": 8650,
    "Ġready": 3382,
    "Ġreal": 1032,
    "Ġreality": 3438,
    "Ġrealize": 5977,
    "Ġrealized": 6661,
    "Ġreally": 1045,
    "Ġrear": 8913,
    "Ġreason": 1794,
    "Ġreasonable": 7148,
    "Ġreasons": 3593,
    "Ġreb": 3101,
    "Ġrec": 638,
    "Ġrecall": 9170,
    "Ġrece": 1394,
    "Ġreceive": 3529,
    "Ġreceived": 2583,
    "Ġreceiver": 9063,
    "Ġreceiving": 6243,
    "Ġrecent": 1303,
    "Ġrecently": 2419,
    "Ġrecip": 7736,
    "Ġrecipe": 9718,
    "Ġrecogn": 2820,
    "Ġrecognition": 8120,
    "Ġrecognize": 6948,
    "Ġrecognized": 7915,
    "Ġrecomm": 3473,
    "Ġrecommend": 4797,
    "Ġrecommended": 8411,
    "Ġrecord": 1527,
    "Ġrecorded": 5552,
    "Ġrecording": 7568,
    "Ġrecords": 4114,
    "Ġrecover": 8239,
    "Ġrecovery": 7449,
    "Ġrecre": 9911,
    "Ġrecru": 7677,
    "Ġrecruit": 9862,
    "Ġred": 2394,
    "Ġredu": 2058,
    "Ġreduce": 4439,
    "Ġreduced": 5547,
    "Ġreducing": 8188,
    "Ġreduction": 7997,
    "Ġref": 1017,
    "Ġrefer": 3650,
    "Ġrefere": 4615,
    "Ġreference": 5761,
    "Ġreferend": 8689,
    "Ġreferendum": 8961,
    "Ġreferred": 6615,
    "Ġreferring": 8382,
    "Ġreflect": 3983,
    "Ġreform": 3850,
    "Ġreforms": 9441,
    "Ġrefuge": 4749,
    "Ġrefugees": 6844,
    "Ġrefused": 5437,
    "Ġreg": 828,
    "Ġregard": 2844,
    "Ġregarding": 5214,
    "Ġregardless": 7570,
    "Ġregime": 5524,
    "Ġregion": 3326,
    "Ġregional": 6570,
    "Ġregions": 7002,
    "Ġregist": 5064,
    "Ġregister": 8337,
    "Ġregistered": 7329,
    "Ġregul": 3179,
    "Ġregular": 3922,
    "Ġregularly": 7224,
    "Ġregulation": 8416,
    "Ġregulations": 6386,
    "Ġregulatory": 9980,
    "Ġrein": 6244,
    "Ġreject": 4339,
    "Ġrejected": 7186,
    "Ġrel": 817,
    "Ġrelated": 3796,
    "Ġrelations": 2182,
    "Ġrelationship": 2665,
    "Ġrelationships": 6554,
    "Ġrelative": 3526,
    "Ġrelatively": 4918,
    "Ġrelax": 9428,
    "Ġrele": 1187,
    "Ġrelease": 2348,
    "Ġreleased": 2227,
    "Ġreleases": 9414,
    "Ġrelevant": 6438,
    "Ġreliable": 9032,
    "Ġrelief": 7883,
    "Ġrelig": 2489,
    "Ġreligion": 5222,
    "Ġreligious": 3709,
    "Ġrely": 7866,
    "Ġrem": 803,
    "Ġremain": 3254,
    "Ġremained": 5460,
    "Ġremaining": 5527,
    "Ġremains": 3323,
    "Ġremark": 6186,
    "Ġremarkable": 9613,
    "Ġremarks": 8407,
    "Ġremem": 8334,
    "Ġremember": 3489,
    "Ġremind": 5025,
    "Ġremote": 6730,
    "Ġremove": 5451,
    "Ġremoved": 4808,
    "Ġren": 8121,
    "Ġrender": 9087,
    "Ġrenew": 5803,
    "Ġrent": 5605,
    "Ġrep": 1097,
    "Ġrepe": 2938,
    "Ġrepeat": 9568,
    "Ġrepeated": 4582,
    "Ġrepeatedly": 6619,
    "Ġrepl": 2170,
    "Ġreplace": 4269,
    "Ġreplaced": 6393,
    "Ġreplacement": 8845,
    "Ġreplied": 9037,
    "Ġreport": 892,
    "Ġreported": 1810,
    "Ġreportedly": 5832,
    "Ġreporter": 7369,
    "Ġreporters": 5742,
    "Ġreporting": 5891,
    "Ġreports": 2705,
    "Ġrepresent": 2268,
    "Ġrepresentative": 8181,
    "Ġrepresentatives": 9254,
    "Ġrepresented": 7375,
    "Ġrepresenting": 9009,
    "Ġrepresents": 6180,
    "Ġreprodu": 8437,
    "Ġreput": 6678,
    "Ġreputation": 7544,
    "Ġrequ": 1151,
    "Ġrequest": 3371,
    "Ġrequested": 9130,
    "Ġrequests": 6890,
    "Ġrequire": 2782,
    "Ġrequired": 3236,
    "Ġrequirement": 9923,
    "Ġrequirements": 6791,
    "Ġrequires": 4659,
    "Ġres": 572,
    "Ġresc": 6323,
    "Ġrescue": 9151,
    "Ġrese": 1457,
    "Ġresearc": 3474,
    "Ġresearch": 2100,
    "Ġresearchers": 3980,
    "Ġreserv": 5353,
    "Ġresident": 6319,
    "Ġresidents": 4201,
    "Ġresign": 8544,
    "Ġresist": 4437,
    "Ġresistance": 7014,
    "Ġresolution": 6127,
    "Ġresource": 8525,
    "Ġresources": 3878,
    "Ġresp": 1161,
    "Ġrespect": 2577,
    "Ġrespectively": 8207,
    "Ġrespond": 2720,
    "Ġresponded": 5782,
    "Ġrespons": 2331,
    "Ġresponse": 2671,
    "Ġresponses": 8856,
    "Ġresponsibility": 5268,
    "Ġresponsible": 4261,
    "Ġrest": 1327,
    "Ġrestaur": 4578,
    "Ġrestaurant": 6236,
    "Ġrestaurants": 9199,
    "Ġrestrict": 4270,
    "Ġrestrictions": 8064,
    "Ġresult": 1261,
    "Ġresulted": 7654,
    "Ġresulting": 7215,
    "Ġresults": 2518,
    "Ġret": 1057,
    "Ġretail": 5435,
    "Ġretain": 7136,
    "Ġretire": 6892,
    "Ġretired": 8087,
    "Ġretirement": 9216,
    "Ġreturn": 1611,
    "Ġreturned": 4451,
    "Ġreturning": 7371,
    "Ġreturns": 6479,
    "Ġrev": 2513,
    "Ġreve": 2502,
    "Ġreveal": 2927,
    "Ġrevealed": 4098,
    "Ġreveals": 9403,
    "Ġrevel": 8808,
    "Ġreven": 8402,
    "Ġrevenue": 5555,
    "Ġrevers": 9707,
    "Ġreverse": 9373,
    "Ġreview": 2515,
    "Ġreviews": 8075,
    "Ġrevolution": 5074,
    "Ġreward": 6836,
    "Ġrhet": 8775,
    "Ġrhetoric": 9988,
    "Ġrich": 5170,
    "Ġrid": 5318,
    "Ġride": 6194,
    "Ġridic": 7877,
    "Ġriding": 9680,
    "Ġrif": 8968,
    "Ġrig": 7195,
    "Ġright": 804,
    "Ġrights": 2142,
    "Ġring": 6677,
    "Ġris": 1960,
    "Ġrise": 3952,
    "Ġrising": 6252,
    "Ġrisk": 2510,
    "Ġrisks": 6816,
    "Ġrival": 7184,
    "Ġriver": 7920,
    "Ġro": 677,
    "Ġroad": 2749,
    "Ġroads": 8344,
    "Ġrob": 3454,
    "Ġrobot": 8114,
    "Ġrock": 3571,
    "Ġrocket": 9140,
    "Ġrole": 2212,
    "Ġroles": 7972,
    "Ġroll": 4976,
    "Ġrom": 8934,
    "Ġroof": 9396,
    "Ġrook": 8534,
    "Ġrookie": 9564,
    "Ġroom": 2195,
    "Ġrooms": 9416,
    "Ġroot": 7530,
    "Ġrose": 8094,
    "Ġroster": 7385,
    "Ġrot": 5978,
    "Ġrough": 4763,
    "Ġroughly": 6294,
    "Ġround": 2893,
    "Ġrounds": 9453,
    "Ġrout": 3285,
    "Ġroute": 5874,
    "Ġroutine": 7323,
    "Ġrow": 6233,
    "Ġroy": 9888,
    "Ġru": 7416,
    "Ġrub": 6957,
    "Ġrul": 1945,
    "Ġrule": 3841,
    "Ġruled": 7167,
    "Ġrules": 3059,
    "Ġruling": 5433,
    "Ġrum": 6428,
    "Ġrun": 1021,
    "Ġrunning": 2307,
    "Ġruns": 4195,
    "Ġrural": 8425,
    "Ġrus": 7378,
    "Ġrush": 9275,
    "Ġs": 265,
    "Ġsa": 443,
    "Ġsac": 5810,
    "Ġsad": 5994,
    "Ġsaf": 1859,
    "Ġsafe": 3363,
    "Ġsafety": 3491,
    "Ġsaid": 481,
    "Ġsal": 3664,
    "Ġsalary": 8465,
    "Ġsale": 5478,
    "Ġsales": 3786,
    "Ġsalt": 9189,
    "Ġsam": 6020,
    "Ġsame": 978,
    "Ġsample": 6845,
    "Ġsamples": 8371,
    "Ġsan": 4753,
    "Ġsanctions": 7713,
    "Ġsand": 6732,
    "Ġsat": 3585,
    "Ġsatell": 7393,
    "Ġsatellite": 9213,
    "Ġsatisf": 5785,
    "Ġsav": 6292,
    "Ġsave": 3890,
    "Ġsaved": 7885,
    "Ġsaving": 9273,
    "Ġsavings": 9394,
    "Ġsaw": 2357,
    "Ġsay": 839,
    "Ġsaying": 1966,
    "Ġsays": 960,
    "Ġsc": 621,
    "Ġscale": 4758,
    "Ġscan": 8919,
    "Ġscandal": 8322,
    "Ġscen": 4049,
    "Ġscenario": 7756,
    "Ġscene": 3461,
    "Ġscenes": 7456,
    "Ġsch": 5110,
    "Ġsche": 3648,
    "Ġschedul": 5196,
    "Ġschedule": 6635,
    "Ġscheduled": 6115,
    "Ġscheme": 7005,
    "Ġschol": 6383,
    "Ġscholars": 8290,
    "Ġschool": 1379,
    "Ġschools": 3678,
    "Ġscience": 3286,
    "Ġscient": 2605,
    "Ġscientific": 5088,
    "Ġscientist": 9243,
    "Ġscientists": 4430,
    "Ġscope": 8947,
    "Ġscore": 3582,
    "Ġscored": 6264,
    "Ġscores": 8271,
    "Ġscoring": 7818,
    "Ġscr": 5389,
    "Ġscreen": 3205,
    "Ġscreens": 8313,
    "Ġscript": 5081,
    "Ġscrut": 9887,
    "Ġse": 374,
    "Ġsea": 5207,
    "Ġsear": 9481,
    "Ġsearch": 3062,
    "Ġseason": 1308,
    "Ġseasons": 5446,
    "Ġseat": 5640,
    "Ġseats": 7156,
    "Ġsec": 772,
    "Ġsecond": 1219,
    "Ġsecondary": 9390,
    "Ġseconds": 5084,
    "Ġsecret": 2925,
    "Ġsecretary": 6047,
    "Ġsection": 4219,
    "Ġsector": 5382,
    "Ġsecure": 5444,
    "Ġsecurity": 2005,
    "Ġsed": 9946,
    "Ġsee": 764,
    "Ġseed": 9961,
    "Ġseeing": 4052,
    "Ġseek": 3156,
    "Ġseeking": 5213,
    "Ġseem": 1238,
    "Ġseemed": 3862,
    "Ġseemingly": 8530,
    "Ġseems": 2183,
    "Ġseen": 1661,
    "Ġsees": 6439,
    "Ġselect": 3423,
    "Ġselected": 6871,
    "Ġselection": 6828,
    "Ġself": 2211,
    "Ġsell": 3499,
    "Ġselling": 5386,
    "Ġsem": 5774,
    "Ġsemi": 9612,
    "Ġsen": 2650,
    "Ġsenator": 9115,
    "Ġsend": 3930,
    "Ġsending": 6778,
    "Ġsenior": 3756,
    "Ġsens": 3157,
    "Ġsense": 2372,
    "Ġsensitive": 8174,
    "Ġsent": 1836,
    "Ġsentence": 6644,
    "Ġsepar": 2957,
    "Ġseparate": 4484,
    "Ġsequ": 4747,
    "Ġsequence": 9113,
    "Ġser": 1022,
    "Ġseries": 1890,
    "Ġserious": 3178,
    "Ġseriously": 5646,
    "Ġserv": 1104,
    "Ġserve": 4418,
    "Ġserved": 4411,
    "Ġserver": 5155,
    "Ġservers": 9224,
    "Ġserves": 8351,
    "Ġservice": 2143,
    "Ġservices": 2519,
    "Ġserving": 6671,
    "Ġsession": 5955,
    "Ġset": 934,
    "Ġsets": 5793,
    "Ġsett": 4568,
    "Ġsetting": 4881,
    "Ġsettings": 8461,
    "Ġsettle": 5194,
    "Ġsettled": 9324,
    "Ġsettlement": 8250,
    "Ġseven": 3167,
    "Ġsevent": 9452,
    "Ġsever": 1620,
    "Ġseveral": 1673,
    "Ġsevere": 5808,
    "Ġsex": 1726,
    "Ġsexual": 3144,
    "Ġsh": 431,
    "Ġshadow": 9277,
    "Ġshall": 5352,
    "Ġshame": 9352,
    "Ġshape": 5522,
    "Ġshare": 2490,
    "Ġshared": 4402,
    "Ġshares": 7439,
    "Ġsharing": 6594,
    "Ġsharp": 7942,
    "Ġshe": 679,
    "Ġshel": 6884,
    "Ġshell": 9953,
    "Ġshield": 9386,
    "Ġshif": 6371,
    "Ġshift": 5616,
    "Ġship": 4373,
    "Ġshipping": 9917,
    "Ġships": 7905,
    "Ġshit": 7613,
    "Ġsho": 6891,
    "Ġshock": 7825,
    "Ġshoot": 2450,
    "Ġshooting": 3937,
    "Ġshop": 6038,
    "Ġshopping": 8973,
    "Ġshort": 1719,
    "Ġshortly": 7729,
    "Ġshot": 2615,
    "Ġshots": 6215,
    "Ġshould": 837,
    "Ġshoulder": 8744,
    "Ġshouldn": 5910,
    "Ġshout": 8841,
    "Ġshow": 855,
    "Ġshowed": 3319,
    "Ġshowing": 4191,
    "Ġshown": 3633,
    "Ġshows": 2333,
    "Ġshr": 9427,
    "Ġshut": 3982,
    "Ġsick": 6445,
    "Ġside": 1706,
    "Ġsides": 5021,
    "Ġsight": 7162,
    "Ġsign": 999,
    "Ġsignal": 7288,
    "Ġsigned": 3749,
    "Ġsignific": 2113,
    "Ġsignificant": 2292,
    "Ġsignificantly": 5484,
    "Ġsigning": 6562,
    "Ġsigns": 5508,
    "Ġsil": 3537,
    "Ġsilence": 9469,
    "Ġsilver": 8861,
    "Ġsim": 970,
    "Ġsimilar": 2114,
    "Ġsimpl": 6766,
    "Ġsimple": 2836,
    "Ġsimply": 2294,
    "Ġsimultane": 9575,
    "Ġsin": 8406,
    "Ġsince": 1120,
    "Ġsing": 1634,
    "Ġsingle": 2014,
    "Ġsister": 6714,
    "Ġsit": 1370,
    "Ġsite": 2442,
    "Ġsites": 4573,
    "Ġsitting": 5258,
    "Ġsituation": 2799,
    "Ġsituations": 7282,
    "Ġsix": 1948,
    "Ġsize": 3040,
    "Ġsk": 1484,
    "Ġske": 6096,
    "Ġskept": 9035,
    "Ġskill": 6596,
    "Ġskills": 4888,
    "Ġskin": 5217,
    "Ġsky": 6785,
    "Ġsl": 1096,
    "Ġsle": 3482,
    "Ġsleep": 4371,
    "Ġslight": 4038,
    "Ġslightly": 4949,
    "Ġslow": 3108,
    "Ġslowly": 6894,
    "Ġsm": 913,
    "Ġsmall": 1375,
    "Ġsmaller": 4610,
    "Ġsmart": 3742,
    "Ġsmartphone": 9332,
    "Ġsmell": 9315,
    "Ġsmile": 9648,
    "Ġsmoke": 8224,
    "Ġsmoking": 9314,
    "Ġsmooth": 8083,
    "Ġsn": 3125,
    "Ġsnow": 6361,
    "Ġso": 522,
    "Ġsoc": 1176,
    "Ġsoccer": 9226,
    "Ġsocial": 1669,
    "Ġsociety": 3223,
    "Ġsoft": 2696,
    "Ġsoftware": 3490,
    "Ġsoil": 8909,
    "Ġsol": 1416,
    "Ġsolar": 5227,
    "Ġsold": 2514,
    "Ġsoldiers": 5189,
    "Ġsole": 6977,
    "Ġsolid": 4442,
    "Ġsolution": 4248,
    "Ġsolutions": 7214,
    "Ġsolve": 7536,
    "Ġsome": 583,
    "Ġsomebody": 7151,
    "Ġsomehow": 7010,
    "Ġsomeone": 2046,
    "Ġsomet": 1012,
    "Ġsomething": 1169,
    "Ġsometimes": 3282,
    "Ġsomewhat": 6400,
    "Ġsomewhere": 7046,
    "Ġson": 3168,
    "Ġsong": 3032,
    "Ġsongs": 6189,
    "Ġsoon": 2441,
    "Ġsoph": 8360,
    "Ġsorry": 8531,
    "Ġsort": 3127,
    "Ġsorts": 9408,
    "Ġsought": 6251,
    "Ġsoul": 7137,
    "Ġsound": 2215,
    "Ġsounds": 5181,
    "Ġsour": 1844,
    "Ġsource": 2710,
    "Ġsources": 3940,
    "Ġsouth": 4828,
    "Ġsouthern": 7063,
    "Ġsovere": 9981,
    "Ġsp": 578,
    "Ġspace": 2082,
    "Ġspaces": 8387,
    "Ġspark": 7924,
    "Ġspe": 712,
    "Ġspeak": 2651,
    "Ġspeaking": 5030,
    "Ġspeaks": 8692,
    "Ġspec": 1060,
    "Ġspecial": 2053,
    "Ġspecies": 4400,
    "Ġspecific": 2286,
    "Ġspecifically": 5379,
    "Ġspect": 5027,
    "Ġspectrum": 9817,
    "Ġspeech": 3437,
    "Ġspeed": 3095,
    "Ġspell": 9676,
    "Ġspend": 3971,
    "Ġspending": 3672,
    "Ġspent": 2935,
    "Ġspin": 7109,
    "Ġspir": 3899,
    "Ġspirit": 4891,
    "Ġspiritual": 8724,
    "Ġspl": 4396,
    "Ġsplit": 5807,
    "Ġspoke": 4567,
    "Ġspoken": 8767,
    "Ġspokes": 3154,
    "Ġspokesman": 4760,
    "Ġspokesperson": 8829,
    "Ġspokeswoman": 9147,
    "Ġspons": 6175,
    "Ġsport": 5332,
    "Ġsports": 4816,
    "Ġspot": 3405,
    "Ġspots": 9449,
    "Ġspr": 7704,
    "Ġspread": 3860,
    "Ġspring": 5625,
    "Ġsqu": 2768,
    "Ġsquad": 6499,
    "Ġsquare": 6275,
    "Ġst": 338,
    "Ġstability": 9397,
    "Ġstable": 7904,
    "Ġstadium": 7994,
    "Ġstaff": 2652,
    "Ġstage": 3546,
    "Ġstages": 8938,
    "Ġstake": 8543,
    "Ġstance": 9982,
    "Ġstand": 1291,
    "Ġstandard": 3425,
    "Ġstandards": 5071,
    "Ġstanding": 5091,
    "Ġstands": 5791,
    "Ġstar": 3090,
    "Ġstars": 5413,
    "Ġstart": 891,
    "Ġstarted": 1858,
    "Ġstarting": 3313,
    "Ġstarts": 5019,
    "Ġstat": 2258,
    "Ġstate": 852,
    "Ġstated": 4556,
    "Ġstatement": 2253,
    "Ġstatements": 5967,
    "Ġstates": 2193,
    "Ġstation": 4059,
    "Ġstations": 7665,
    "Ġstatist": 9965,
    "Ġstatistics": 8251,
    "Ġstatus": 3949,
    "Ġstay": 2504,
    "Ġstayed": 8589,
    "Ġstaying": 9599,
    "Ġste": 2941,
    "Ġstead": 7372,
    "Ġsteal": 8278,
    "Ġsteel": 8695,
    "Ġstem": 9674,
    "Ġstep": 2178,
    "Ġstepped": 9531,
    "Ġsteps": 4940,
    "Ġstere": 9894,
    "Ġstick": 4858,
    "Ġstill": 947,
    "Ġstim": 7008,
    "Ġsto": 3824,
    "Ġstock": 4695,
    "Ġstolen": 8918,
    "Ġstone": 8685,
    "Ġstood": 6219,
    "Ġstop": 2162,
    "Ġstopped": 4838,
    "Ġstops": 9853,
    "Ġstorage": 6260,
    "Ġstore": 2774,
    "Ġstored": 9445,
    "Ġstores": 6348,
    "Ġstories": 3275,
    "Ġstorm": 5741,
    "Ġstory": 1447,
    "Ġstr": 968,
    "Ġstra": 3652,
    "Ġstraight": 3864,
    "Ġstrange": 6575,
    "Ġstrateg": 4692,
    "Ġstrategic": 8235,
    "Ġstrategies": 9627,
    "Ġstrategy": 4130,
    "Ġstre": 1508,
    "Ġstream": 6704,
    "Ġstreaming": 9490,
    "Ġstreet": 4160,
    "Ġstreets": 5323,
    "Ġstreng": 3698,
    "Ġstrength": 4666,
    "Ġstress": 5411,
    "Ġstret": 5498,
    "Ġstretch": 7104,
    "Ġstri": 2222,
    "Ġstrict": 7721,
    "Ġstrik": 4423,
    "Ġstrike": 4961,
    "Ġstrikes": 7811,
    "Ġstriking": 9487,
    "Ġstring": 6302,
    "Ġstrong": 1815,
    "Ġstronger": 7111,
    "Ġstrongly": 7011,
    "Ġstru": 2508,
    "Ġstruck": 6657,
    "Ġstruct": 5049,
    "Ġstructure": 4572,
    "Ġstructures": 8028,
    "Ġstrugg": 3067,
    "Ġstruggle": 5654,
    "Ġstruggled": 9503,
    "Ġstruggling": 7922,
    "Ġstuck": 7337,
    "Ġstud": 922,
    "Ġstudent": 3445,
    "Ġstudents": 2236,
    "Ġstudied": 8898,
    "Ġstudies": 3887,
    "Ġstudio": 6660,
    "Ġstudy": 2013,
    "Ġstudying": 9785,
    "Ġstuff": 3284,
    "Ġstupid": 8412,
    "Ġsty": 8998,
    "Ġstyle": 4051,
    "Ġsu": 429,
    "Ġsub": 928,
    "Ġsubject": 2713,
    "Ġsubjects": 8294,
    "Ġsubmit": 9248,
    "Ġsubmitted": 9435,
    "Ġsubs": 5571,
    "Ġsubscrib": 6225,
    "Ġsubsequ": 6029,
    "Ġsubsequent": 8765,
    "Ġsubsid": 6737,
    "Ġsubst": 3427,
    "Ġsubstance": 9737,
    "Ġsubstant": 5862,
    "Ġsubstantial": 8522,
    "Ġsuc": 6106,
    "Ġsucceed": 6271,
    "Ġsuccess": 1720,
    "Ġsuccessful": 3853,
    "Ġsuccessfully": 7440,
    "Ġsuch": 906,
    "Ġsudden": 5052,
    "Ġsuddenly": 6893,
    "Ġsuff": 2422,
    "Ġsuffer": 8460,
    "Ġsuffered": 5865,
    "Ġsuffering": 6509,
    "Ġsufficient": 7555,
    "Ġsugar": 8287,
    "Ġsuggest": 1796,
    "Ġsuggested": 4571,
    "Ġsuggesting": 8137,
    "Ġsuggests": 4983,
    "Ġsuicide": 6703,
    "Ġsuit": 5681,
    "Ġsum": 2045,
    "Ġsummer": 3290,
    "Ġsun": 4540,
    "Ġsup": 7759,
    "Ġsuper": 2176,
    "Ġsuperior": 9626,
    "Ġsupp": 778,
    "Ġsupplies": 9064,
    "Ġsupply": 5015,
    "Ġsupport": 1051,
    "Ġsupported": 4634,
    "Ġsupporters": 4511,
    "Ġsupporting": 5586,
    "Ġsupports": 6933,
    "Ġsupposed": 4010,
    "Ġsur": 930,
    "Ġsure": 1686,
    "Ġsurely": 9385,
    "Ġsurf": 8705,
    "Ġsurface": 4632,
    "Ġsurgery": 7622,
    "Ġsurpr": 2591,
    "Ġsurprise": 5305,
    "Ġsurprised": 6169,
    "Ġsurprising": 5592,
    "Ġsurround": 4361,
    "Ġsurrounding": 6725,
    "Ġsurv": 3280,
    "Ġsurve": 3193,
    "Ġsurveillance": 6708,
    "Ġsurvey": 4928,
    "Ġsurviv": 9912,
    "Ġsurvival": 9215,
    "Ġsurvive": 7500,
    "Ġsus": 2130,
    "Ġsusp": 3735,
    "Ġsuspect": 3577,
    "Ġsuspected": 8475,
    "Ġsuspects": 9808,
    "Ġsuspended": 8577,
    "Ġsust": 5026,
    "Ġsustain": 6944,
    "Ġsw": 2094,
    "Ġswe": 3519,
    "Ġsweet": 6820,
    "Ġswim": 9090,
    "Ġswing": 8801,
    "Ġswitch": 5567,
    "Ġsy": 836,
    "Ġsym": 6347,
    "Ġsymb": 5276,
    "Ġsymbol": 6267,
    "Ġsymp": 8970,
    "Ġsympt": 7464,
    "Ġsymptoms": 8458,
    "Ġsyn": 6493,
    "Ġsynt": 8030,
    "Ġsystem": 1042,
    "Ġsystems": 3145,
    "Ġt": 257,
    "Ġtab": 9399,
    "Ġtable": 3263,
    "Ġtables": 9782,
    "Ġtack": 5143,
    "Ġtackle": 8011,
    "Ġtact": 5556,
    "Ġtactics": 9180,
    "Ġtag": 7789,
    "Ġtail": 8210,
    "Ġtake": 975,
    "Ġtaken": 1976,
    "Ġtakes": 2738,
    "Ġtaking": 2068,
    "Ġtal": 2804,
    "Ġtalent": 5998,
    "Ġtalk": 1444,
    "Ġtalked": 5665,
    "Ġtalking": 3085,
    "Ġtalks": 5032,
    "Ġtall": 7420,
    "Ġtank": 7269,
    "Ġtap": 9827,
    "Ġtape": 8921,
    "Ġtarg": 2131,
    "Ġtarget": 2552,
    "Ġtargeted": 6686,
    "Ġtargeting": 9185,
    "Ġtargets": 6321,
    "Ġtask": 4552,
    "Ġtasks": 8319,
    "Ġtast": 5239,
    "Ġtaste": 7478,
    "Ġtaught": 7516,
    "Ġtax": 1538,
    "Ġtaxes": 5044,
    "Ġtaxp": 7656,
    "Ġte": 545,
    "Ġtea": 8737,
    "Ġteac": 4210,
    "Ġteach": 4492,
    "Ġteacher": 6898,
    "Ġteachers": 6748,
    "Ġteaching": 7485,
    "Ġteam": 899,
    "Ġteams": 2828,
    "Ġtech": 6045,
    "Ġtechn": 1420,
    "Ġtechnical": 5820,
    "Ġtechnique": 8107,
    "Ġtechniques": 7451,
    "Ġtechnologies": 7196,
    "Ġtechnology": 2575,
    "Ġteen": 5311,
    "Ġtele": 5501,
    "Ġtelevision": 4275,
    "Ġtell": 1506,
    "Ġtelling": 4608,
    "Ġtells": 4756,
    "Ġtem": 2343,
    "Ġtemper": 4176,
    "Ġtemperature": 6307,
    "Ġtemperatures": 8826,
    "Ġtemporary": 8394,
    "Ġten": 3502,
    "Ġtend": 4198,
    "Ġtens": 9378,
    "Ġter": 1011,
    "Ġterm": 3305,
    "Ġtermin": 6552,
    "Ġterms": 2748,
    "Ġterrible": 7341,
    "Ġterrit": 5113,
    "Ġterritory": 6841,
    "Ġterror": 2666,
    "Ġterrorism": 6931,
    "Ġterrorist": 6019,
    "Ġterrorists": 8233,
    "Ġtest": 1354,
    "Ġtested": 6830,
    "Ġtestim": 8355,
    "Ġtestimony": 9137,
    "Ġtesting": 4690,
    "Ġtests": 5168,
    "Ġtext": 2952,
    "Ġth": 295,
    "Ġthan": 601,
    "Ġthank": 5514,
    "Ġthanks": 5047,
    "Ġthat": 317,
    "Ġthe": 262,
    "Ġtheat": 8483,
    "Ġtheir": 498,
    "Ġthem": 605,
    "Ġtheme": 6941,
    "Ġthemselves": 2266,
    "Ġthen": 811,
    "Ġtheories": 9717,
    "Ġtheory": 4265,
    "Ġtherap": 7489,
    "Ġtherapy": 9834,
    "Ġthere": 593,
    "Ġtherefore": 4900,
    "Ġthese": 783,
    "Ġthey": 474,
    "Ġthick": 7739,
    "Ġthin": 7635,
    "Ġthing": 1433,
    "Ġthings": 1190,
    "Ġthink": 826,
    "Ġthinking": 3365,
    "Ġthinks": 6083,
    "Ġthird": 2159,
    "Ġthis": 432,
    "Ġthorough": 9297,
    "Ġthose": 844,
    "Ġthough": 979,
    "Ġthought": 1779,
    "Ġthoughts": 5934,
    "Ġthous": 2906,
    "Ġthousand": 7740,
    "Ġthousands": 3517,
    "Ġthr": 5570,
    "Ġthread": 7126,
    "Ġthreat": 2011,
    "Ġthreatened": 7166,
    "Ġthreatening": 9430,
    "Ġthreats": 6178,
    "Ġthree": 1024,
    "Ġthrew": 8833,
    "Ġthrough": 832,
    "Ġthroughout": 3443,
    "Ġthrow": 3681,
    "Ġthrowing": 8680,
    "Ġthrown": 8229,
    "Ġthus": 4377,
    "Ġtick": 4238,
    "Ġticket": 7309,
    "Ġtickets": 8132,
    "Ġtie": 9033,
    "Ġtied": 7314,
    "Ġties": 7147,
    "Ġtight": 5292,
    "Ġtim": 4761,
    "Ġtime": 631,
    "Ġtimes": 1612,
    "Ġtiming": 9920,
    "Ġtiny": 6513,
    "Ġtip": 8383,
    "Ġtips": 9290,
    "Ġtired": 9809,
    "Ġtiss": 9692,
    "Ġtit": 2461,
    "Ġtitle": 3621,
    "Ġtitled": 9255,
    "Ġtitles": 7513,
    "Ġto": 284,
    "Ġtoday": 1658,
    "Ġtogether": 1900,
    "Ġtold": 1119,
    "Ġtoler": 7836,
    "Ġtom": 6466,
    "Ġtomorrow": 8538,
    "Ġton": 5345,
    "Ġtone": 8400,
    "Ġtonight": 9413,
    "Ġtons": 9958,
    "Ġtoo": 1144,
    "Ġtook": 1562,
    "Ġtool": 2867,
    "Ġtools": 4637,
    "Ġtop": 1279,
    "Ġtopic": 6971,
    "Ġtor": 7808,
    "Ġtort": 6690,
    "Ġtorture": 9442,
    "Ġtot": 2012,
    "Ġtotal": 2532,
    "Ġtotally": 6248,
    "Ġtou": 2754,
    "Ġtouch": 3587,
    "Ġtouchdown": 8424,
    "Ġtough": 4915,
    "Ġtour": 3569,
    "Ġtourn": 5493,
    "Ġtournament": 6551,
    "Ġtow": 6375,
    "Ġtoward": 3500,
    "Ġtowards": 3417,
    "Ġtown": 2954,
    "Ġtox": 7983,
    "Ġtr": 467,
    "Ġtra": 2197,
    "Ġtrack": 2421,
    "Ġtracking": 9023,
    "Ġtracks": 7610,
    "Ġtrad": 1921,
    "Ġtrade": 2920,
    "Ġtrading": 7173,
    "Ġtradition": 5824,
    "Ġtraditional": 4027,
    "Ġtraff": 3859,
    "Ġtraffic": 4560,
    "Ġtrail": 5260,
    "Ġtrain": 4284,
    "Ġtrained": 8365,
    "Ġtraining": 3036,
    "Ġtrans": 1018,
    "Ġtransaction": 9858,
    "Ġtransactions": 8990,
    "Ġtransfer": 4570,
    "Ġtransform": 6011,
    "Ġtransgender": 8306,
    "Ġtransit": 9143,
    "Ġtransition": 5839,
    "Ġtransl": 4912,
    "Ġtransp": 7007,
    "Ġtransport": 4640,
    "Ġtransportation": 8642,
    "Ġtrave": 9021,
    "Ġtravel": 2936,
    "Ġtre": 1995,
    "Ġtreat": 2237,
    "Ġtreated": 5634,
    "Ġtreatment": 3692,
    "Ġtree": 6021,
    "Ġtrees": 7122,
    "Ġtrem": 8810,
    "Ġtremend": 9560,
    "Ġtrend": 4555,
    "Ġtri": 1301,
    "Ġtrial": 4262,
    "Ġtrials": 9673,
    "Ġtrib": 6247,
    "Ġtrick": 6553,
    "Ġtried": 2973,
    "Ġtries": 8718,
    "Ġtrig": 5464,
    "Ġtrigger": 9131,
    "Ġtrillion": 9608,
    "Ġtrip": 4942,
    "Ġtro": 3472,
    "Ġtroops": 5355,
    "Ġtrou": 4018,
    "Ġtroub": 7637,
    "Ġtrouble": 5726,
    "Ġtruck": 7027,
    "Ġtrue": 2285,
    "Ġtruly": 4714,
    "Ġtrust": 3657,
    "Ġtruth": 3808,
    "Ġtry": 1994,
    "Ġtrying": 1893,
    "Ġtun": 5719,
    "Ġtur": 7206,
    "Ġturn": 1311,
    "Ġturned": 2821,
    "Ġturning": 5622,
    "Ġturns": 5130,
    "Ġtut": 9991,
    "Ġtw": 649,
    "Ġtwe": 3566,
    "Ġtweet": 4946,
    "Ġtweeted": 8470,
    "Ġtwenty": 8953,
    "Ġtwice": 5183,
    "Ġtwo": 705,
    "Ġty": 1411,
    "Ġtyp": 2330,
    "Ġtype": 2657,
    "Ġtypes": 4287,
    "Ġtypical": 6900,
    "Ġtypically": 5752,
    "Ġu": 337,
    "Ġult": 3322,
    "Ġultimate": 8429,
    "Ġultimately": 5184,
    "Ġun": 548,
    "Ġunable": 5849,
    "Ġunc": 4506,
    "Ġuncertain": 7545,
    "Ġunclear": 8178,
    "Ġuncom": 7830,
    "Ġund": 3133,
    "Ġunder": 740,
    "Ġunderlying": 9845,
    "Ġunderstand": 1754,
    "Ġunderstanding": 4356,
    "Ġunderstood": 6966,
    "Ġunemploy": 6843,
    "Ġunemployment": 8304,
    "Ġunex": 8074,
    "Ġunexpected": 9312,
    "Ġunf": 3450,
    "Ġunfair": 9924,
    "Ġuniform": 7899,
    "Ġunion": 5138,
    "Ġunions": 8963,
    "Ġunique": 3780,
    "Ġunit": 4723,
    "Ġunits": 5169,
    "Ġunivers": 5154,
    "Ġuniversal": 9317,
    "Ġuniverse": 6699,
    "Ġuniversities": 9002,
    "Ġuniversity": 5290,
    "Ġunknown": 6867,
    "Ġunless": 5261,
    "Ġunlike": 4390,
    "Ġunlikely": 6284,
    "Ġunp": 7295,
    "Ġunpre": 9383,
    "Ġuns": 4147,
    "Ġunt": 1414,
    "Ġuntil": 1549,
    "Ġunus": 6540,
    "Ġunusual": 7647,
    "Ġunw": 7806,
    "Ġup": 512,
    "Ġupcoming": 6645,
    "Ġupd": 2563,
    "Ġupdate": 4790,
    "Ġupdated": 6629,
    "Ġupdates": 5946,
    "Ġupgr": 5736,
    "Ġupgrade": 8926,
    "Ġupon": 3066,
    "Ġupper": 7345,
    "Ġupset": 8055,
    "Ġur": 2697,
    "Ġurban": 6680,
    "Ġurged": 9158,
    "Ġus": 523,
    "Ġusage": 8980,
    "Ġuse": 876,
    "Ġused": 1033,
    "Ġuseful": 4823,
    "Ġuser": 3288,
    "Ġusers": 2689,
    "Ġuses": 3774,
    "Ġusing": 1353,
    "Ġusual": 6707,
    "Ġusually": 3403,
    "Ġut": 3544,
    "Ġutil": 8119,
    "Ġv": 410,
    "Ġvac": 4096,
    "Ġvacc": 7038,
    "Ġval": 1359,
    "Ġvalid": 5801,
    "Ġvaluable": 7527,
    "Ġvalue": 2398,
    "Ġvalues": 4102,
    "Ġvan": 5915,
    "Ġvar": 1496,
    "Ġvari": 6123,
    "Ġvariety": 5108,
    "Ġvarious": 2993,
    "Ġvary": 8253,
    "Ġvast": 5230,
    "Ġve": 1558,
    "Ġveget": 7762,
    "Ġveh": 2989,
    "Ġvehicle": 4472,
    "Ġvehicles": 5313,
    "Ġven": 7769,
    "Ġver": 3480,
    "Ġvers": 1711,
    "Ġversion": 2316,
    "Ġversions": 6430,
    "Ġversus": 8390,
    "Ġvery": 846,
    "Ġves": 9142,
    "Ġveter": 4893,
    "Ġveteran": 7458,
    "Ġveterans": 9162,
    "Ġvia": 2885,
    "Ġvice": 6436,
    "Ġvict": 1970,
    "Ġvictim": 2883,
    "Ġvictims": 4432,
    "Ġvictory": 4465,
    "Ġvide": 1552,
    "Ġvideo": 1820,
    "Ġvideos": 5583,
    "Ġview": 1518,
    "Ġviewed": 8507,
    "Ġviewers": 8216,
    "Ġviews": 4507,
    "Ġvig": 9829,
    "Ġvill": 4250,
    "Ġvillage": 6980,
    "Ġviol": 1765,
    "Ġviolation": 9179,
    "Ġviolence": 3185,
    "Ġviolent": 5864,
    "Ġvir": 5523,
    "Ġvirt": 4002,
    "Ġvirtual": 6654,
    "Ġvirtually": 8683,
    "Ġvirus": 8959,
    "Ġvis": 1459,
    "Ġvisible": 7764,
    "Ġvision": 5251,
    "Ġvisit": 2960,
    "Ġvisited": 7556,
    "Ġvisiting": 9071,
    "Ġvisitors": 8401,
    "Ġvisual": 5661,
    "Ġvital": 8249,
    "Ġvo": 3001,
    "Ġvoice": 3951,
    "Ġvoices": 9584,
    "Ġvol": 2567,
    "Ġvolume": 6812,
    "Ġvolunte": 6482,
    "Ġvot": 1202,
    "Ġvote": 2423,
    "Ġvoted": 5420,
    "Ġvoter": 8806,
    "Ġvoters": 3391,
    "Ġvotes": 5139,
    "Ġvoting": 5543,
    "Ġvs": 4286,
    "Ġvul": 5140,
    "Ġvulner": 5425,
    "Ġvulnerable": 7559,
    "Ġw": 266,
    "Ġwa": 2160,
    "Ġwage": 6827,
    "Ġwages": 8404,
    "Ġwait": 4028,
    "Ġwaiting": 4794,
    "Ġwake": 6797,
    "Ġwal": 6783,
    "Ġwalk": 2497,
    "Ġwalked": 6673,
    "Ġwalking": 5928,
    "Ġwall": 3622,
    "Ġwalls": 7926,
    "Ġwant": 742,
    "Ġwanted": 2039,
    "Ġwanting": 9593,
    "Ġwants": 2953,
    "Ġwar": 1127,
    "Ġwarm": 6203,
    "Ġwarming": 7557,
    "Ġwarn": 9122,
    "Ġwarned": 6118,
    "Ġwarning": 6353,
    "Ġwarrant": 8665,
    "Ġwars": 8282,
    "Ġwas": 359,
    "Ġwasn": 2297,
    "Ġwaste": 6350,
    "Ġwat": 4157,
    "Ġwatch": 2198,
    "Ġwatched": 6702,
    "Ġwatching": 4497,
    "Ġwater": 1701,
    "Ġwaters": 8974,
    "Ġwave": 6557,
    "Ġwaves": 9540,
    "Ġway": 801,
    "Ġways": 2599,
    "Ġwe": 350,
    "Ġweak": 4953,
    "Ġwealth": 4435,
    "Ġwealthy": 9381,
    "Ġweap": 2740,
    "Ġweapon": 5455,
    "Ġweapons": 3759,
    "Ġwear": 6017,
    "Ġwearing": 5558,
    "Ġweather": 5837,
    "Ġweb": 3892,
    "Ġwebs": 2498,
    "Ġwebsite": 2923,
    "Ġwebsites": 8129,
    "Ġwedd": 9206,
    "Ġweek": 1124,
    "Ġweekend": 4084,
    "Ġweekly": 9328,
    "Ġweeks": 2410,
    "Ġweigh": 9375,
    "Ġweight": 4091,
    "Ġweird": 7313,
    "Ġwel": 4668,
    "Ġwelcome": 6837,
    "Ġwelf": 8186,
    "Ġwelfare": 8219,
    "Ġwell": 861,
    "Ġwent": 1680,
    "Ġwere": 521,
    "Ġweren": 5483,
    "Ġwest": 6873,
    "Ġwestern": 7467,
    "Ġwh": 345,
    "Ġwhat": 616,
    "Ġwhatever": 4156,
    "Ġwhe": 482,
    "Ġwheel": 7879,
    "Ġwhen": 614,
    "Ġwhenever": 9178,
    "Ġwhere": 786,
    "Ġwhereas": 9614,
    "Ġwhether": 1672,
    "Ġwhich": 537,
    "Ġwhile": 949,
    "Ġwhite": 2376,
    "Ġwho": 490,
    "Ġwhole": 2181,
    "Ġwhom": 4163,
    "Ġwhose": 2802,
    "Ġwhy": 1412,
    "Ġwid": 6919,
    "Ġwide": 2928,
    "Ġwidely": 5676,
    "Ġwider": 9181,
    "Ġwidespread": 8155,
    "Ġwife": 3469,
    "Ġwild": 4142,
    "Ġwill": 480,
    "Ġwilling": 4107,
    "Ġwin": 1367,
    "Ġwind": 2525,
    "Ġwindow": 5038,
    "Ġwindows": 9429,
    "Ġwine": 8243,
    "Ġwing": 7784,
    "Ġwinner": 7093,
    "Ġwinning": 4443,
    "Ġwins": 6565,
    "Ġwinter": 6752,
    "Ġwire": 6595,
    "Ġwish": 5053,
    "Ġwith": 352,
    "Ġwithd": 6196,
    "Ġwithdraw": 7896,
    "Ġwithin": 1732,
    "Ġwithout": 1269,
    "Ġwitness": 4737,
    "Ġwom": 1082,
    "Ġwoman": 2339,
    "Ġwomen": 1392,
    "Ġwon": 1595,
    "Ġwond": 3091,
    "Ġwonder": 4137,
    "Ġwonderful": 7826,
    "Ġwood": 5550,
    "Ġwor": 476,
    "Ġword": 1609,
    "Ġwords": 2511,
    "Ġwork": 648,
    "Ġworked": 2714,
    "Ġworker": 7591,
    "Ġworkers": 2747,
    "Ġworking": 1559,
    "Ġworks": 2488,
    "Ġworld": 920,
    "Ġworldwide": 7222,
    "Ġworried": 6923,
    "Ġworry": 5165,
    "Ġworse": 4259,
    "Ġworst": 4598,
    "Ġworth": 2695,
    "Ġwould": 533,
    "Ġwouldn": 3384,
    "Ġwounded": 9672,
    "Ġwr": 1631,
    "Ġwrest": 8746,
    "Ġwrit": 1361,
    "Ġwrite": 3372,
    "Ġwriter": 5231,
    "Ġwriters": 7365,
    "Ġwrites": 5749,
    "Ġwriting": 3358,
    "Ġwritten": 3151,
    "Ġwrong": 2469,
    "Ġwrote": 2151,
    "Ġwww": 8519,
    "Ġx": 3573,
    "Ġy": 339,
    "Ġyards": 5229,
    "Ġyear": 559,
    "Ġyears": 752,
    "Ġyellow": 8883,
    "Ġyes": 3643,
    "Ġyesterday": 6148,
    "Ġyet": 1780,
    "Ġyield": 7887,
    "Ġyou": 361,
    "Ġyoung": 1684,
    "Ġyounger": 6328,
    "Ġyour": 613,
    "Ġyourself": 3737,
    "Ġyouth": 5500,
    "Ġz": 1997,
    "Ġzero": 6443,
    "Ġzone": 5734,
    "Ġ{": 2443,
    "Ġ|": 2050,
    "Ġ}": 2977,
    "Ġ~": 9379,
    "ĠÂ": 2020,
    "ĠÂ£": 3733,
    "ĠÃ": 4206,
    "ĠÎ": 6934,
    "ĠÐ": 3531,
    "Ġâ": 3200,
    "ĠâĢ": 363,
    "ĠâĢ¢": 8939,
    "ĠâĢ¦": 3484,
    "ĠâĢĵ": 727,
    "ĠâĢĶ": 746,
    "ĠâĢĺ": 1230,
    "ĠâĢĻ": 7646,
    "ĠâĢľ": 452,
    "ĠâĢĿ": 9168,
    "ĠâĤ¬": 8548,
    "ĠâĪĴ": 9700,
    "ġ": 127,
    "Ģ": 128,
    "ģ": 129,
    "Ĥ": 130,
    "Ĥ¬": 6092,
    "ĥ": 131,
    "Ħ": 132,
    "ħ": 133,
    "Ĩ": 134,
    "ĩ": 135,
    "Ī": 136,
    "ĪĴ": 7128,
    "ī": 137,
    "Ĭ": 138,
    "ĭ": 139,
    "Į": 140,
    "į": 141,
    "İ": 142,
    "ı": 143,
    "Ĳ": 144,
    "ĳ": 145,
    "Ĵ": 146,
    "ĵ": 147,
    "Ķ": 148,
    "ķ": 149,
    "ĸ": 150,
    "Ĺ": 151,
    "ĺ": 152,
    "Ļ": 153,
    "ļ": 154,
    "Ľ": 155,
    "ľ": 156,
    "Ŀ": 157,
    "ŀ": 158,
    "Ł": 159,
    "ł": 160,
    "Ń": 173
}