{
    "!": 33,
    "!!": 4728,
    "!!!": 14045,
    "!!!!": 19609,
    "!\"": 5116,
    "!'": 20536,
    "!)": 8684,
    "!),": 23464,
    "!).": 19404,
    "!,": 26674,
    "!]": 31047,
    "!âĢĻ": 19883,
    "!âĢĿ": 4623,
    "\"": 34,
    "\")": 8495,
    "\"),": 18668,
    "\").": 18046,
    "\");": 21776,
    "\",": 2858,
    "\",\"": 11148,
    "\".": 2786,
    "\".[": 8733,
    "\":": 4956,
    "\":\"": 10400,
    "\":{\"": 30474,
    "\";": 15417,
    "\">": 9190,
    "\"?": 23974,
    "\"[": 19413,
    "\"]": 20253,
    "\"âĢĶ": 30962,
    "#": 35,
    "##": 4648,
    "###": 30838,
    "####": 8499,
    "########": 14390,
    "################": 24290,
    "$": 36,
    "$$": 25297,
    "%": 37,
    "%)": 6665,
    "%),": 17579,
    "%).": 20079,
    "%,": 8034,
    "%.": 7508,
    "&": 38,
    "'": 39,
    "''": 15153,
    "')": 16616,
    "');": 26408,
    "',": 6330,
    "'.": 8393,
    "':": 16009,
    "';": 25068,
    "']": 31139,
    "'d": 3019,
    "'ll": 2298,
    "'m": 1991,
    "'re": 1386,
    "'s": 426,
    "'t": 696,
    "'ve": 1850,
    "(": 40,
    "(\"": 10451,
    "($": 20933,
    "('": 12167,
    "((": 30375,
    "()": 5429,
    "().": 26272,
    "();": 12605,
    "({": 28555,
    ")": 41,
    ")\"": 25506,
    ")(": 14159,
    "))": 7583,
    ")))": 31100,
    "));": 28040,
    "),": 905,
    "),[": 30865,
    "),âĢĿ": 30287,
    ")-": 19951,
    ").": 829,
    ").[": 11248,
    ").âĢĿ": 27319,
    ")/": 30265,
    "):": 3734,
    ");": 3005,
    ")?": 20771,
    ")[": 22677,
    ")]": 29616,
    ")|": 15094,
    ")âĢĶ": 25046,
    "*": 42,
    "**": 2042,
    "***": 9954,
    "****": 4715,
    "********": 8794,
    "****************": 15847,
    "********************************": 31162,
    "*,": 31477,
    "*.": 31239,
    "+": 43,
    "++": 7824,
    "++++": 22850,
    "+,": 29792,
    "+.": 28926,
    ",": 44,
    ",\"": 768,
    ",'": 5448,
    ",'\"": 21457,
    ",''": 17509,
    ",,": 27093,
    ",[": 5636,
    ",âĢĻ": 5984,
    ",âĢĻâĢĻ": 20962,
    ",âĢĻâĢĿ": 20830,
    ",âĢĿ": 682,
    "-": 45,
    "-$": 21838,
    "-)": 29433,
    "-,": 29800,
    "--": 879,
    "---": 12486,
    "----": 1571,
    "--------": 2889,
    "------------": 24143,
    "----------------": 5373,
    "--------------------------------": 10900,
    "----------------------------------------------------------------": 25836,
    "->": 9690,
    ".": 46,
    ".\"": 720,
    ".\")": 30833,
    ".\"[": 7299,
    ".'": 4093,
    ".'\"": 17168,
    ".''": 18539,
    ".'âĢĿ": 30329,
    ".(": 19193,
    ".)": 2090,
    ".),": 12004,
    ".).": 16761,
    ".*": 23316,
    ".,": 1856,
    ".-": 8568,
    "..": 747,
    "...": 1453,
    "...\"": 13991,
    "...)": 31114,
    "....": 3397,
    ".....": 26807,
    "........": 7442,
    "..........": 28732,
    "................": 14666,
    "................................": 28585,
    "...]": 23741,
    "./": 22724,
    ".:": 13387,
    ".;": 21229,
    ".[": 1068,
    ".]": 10775,
    "._": 27250,
    ".ÂĶ": 27416,
    ".âĢĶ": 23706,
    ".âĢĻ": 4054,
    ".âĢĻâĢĻ": 23592,
    ".âĢĻâĢĿ": 16247,
    ".âĢľ": 13411,
    ".âĢĿ": 645,
    ".âĢĿ)": 22646,
    ".âĢĿ[": 26104,
    "/": 47,
    "/-": 24076,
    "/.": 11814,
    "//": 1662,
    "////": 20579,
    "0": 48,
    "00": 451,
    "000": 941,
    "0000": 5806,
    "000000": 26907,
    "00000000": 16046,
    "0001": 31688,
    "001": 15674,
    "003": 22069,
    "01": 5637,
    "02": 6932,
    "03": 6918,
    "04": 6869,
    "05": 5632,
    "06": 6581,
    "07": 6682,
    "08": 6568,
    "09": 6610,
    "1": 49,
    "10": 1323,
    "100": 3929,
    "1000": 17302,
    "101": 18096,
    "102": 21561,
    "103": 21873,
    "104": 21473,
    "105": 19734,
    "106": 22826,
    "107": 23105,
    "108": 23544,
    "109": 22368,
    "11": 1618,
    "110": 12855,
    "111": 22339,
    "112": 23404,
    "113": 24478,
    "114": 23935,
    "115": 21234,
    "116": 25492,
    "117": 24567,
    "118": 25628,
    "119": 24618,
    "12": 1798,
    "120": 13606,
    "121": 27193,
    "122": 26702,
    "123": 20156,
    "124": 26976,
    "125": 17137,
    "126": 27155,
    "127": 24578,
    "128": 21471,
    "129": 25884,
    "13": 2203,
    "130": 16708,
    "131": 28720,
    "132": 29319,
    "133": 26868,
    "134": 27879,
    "135": 23217,
    "136": 29181,
    "137": 28224,
    "138": 29473,
    "139": 29119,
    "14": 2101,
    "140": 19100,
    "141": 30779,
    "142": 31441,
    "143": 31074,
    "144": 27793,
    "145": 26363,
    "146": 31014,
    "147": 29662,
    "148": 29936,
    "149": 28348,
    "15": 1931,
    "150": 10371,
    "154": 31506,
    "155": 26570,
    "159": 31328,
    "16": 2088,
    "160": 18342,
    "165": 28741,
    "168": 24429,
    "17": 2313,
    "170": 22597,
    "175": 24044,
    "18": 2361,
    "180": 20498,
    "185": 31665,
    "19": 1587,
    "190": 26646,
    "192": 28972,
    "1970": 29202,
    "1980": 25218,
    "1989": 29777,
    "199": 26708,
    "1990": 20297,
    "1991": 29897,
    "1992": 28826,
    "1993": 28687,
    "1994": 27261,
    "1995": 26435,
    "1996": 26372,
    "1997": 26333,
    "1998": 25720,
    "1999": 23202,
    "2": 50,
    "20": 1166,
    "200": 3009,
    "2000": 14127,
    "2001": 20486,
    "2002": 21532,
    "2003": 20663,
    "2004": 19799,
    "2005": 19028,
    "2006": 18345,
    "2007": 16952,
    "2008": 14521,
    "2009": 13561,
    "201": 30338,
    "2010": 12269,
    "2011": 11828,
    "2012": 10646,
    "2013": 10049,
    "2014": 8482,
    "2015": 8882,
    "2016": 8588,
    "2017": 10314,
    "2018": 20446,
    "2019": 27426,
    "202": 28847,
    "21": 3858,
    "210": 27904,
    "22": 3115,
    "220": 24825,
    "225": 27932,
    "23": 3386,
    "230": 25956,
    "24": 3210,
    "240": 24047,
    "25": 2494,
    "250": 10343,
    "255": 24563,
    "256": 22869,
    "26": 3661,
    "260": 29501,
    "27": 3558,
    "270": 29456,
    "28": 3781,
    "280": 28369,
    "29": 3805,
    "3": 51,
    "30": 1842,
    "300": 7292,
    "31": 5242,
    "32": 4380,
    "320": 26707,
    "33": 4009,
    "330": 30827,
    "333": 31565,
    "34": 4543,
    "35": 3654,
    "350": 17466,
    "36": 4372,
    "360": 22846,
    "37": 4672,
    "370": 26361,
    "38": 4483,
    "380": 30552,
    "39": 4796,
    "4": 52,
    "40": 2832,
    "400": 8006,
    "404": 31414,
    "41": 5957,
    "42": 5767,
    "43": 5853,
    "44": 4335,
    "446": 28815,
    "45": 3674,
    "450": 21820,
    "46": 4998,
    "47": 4817,
    "48": 4667,
    "49": 4887,
    "5": 53,
    "50": 1528,
    "500": 4117,
    "51": 7852,
    "52": 7832,
    "53": 8023,
    "54": 7817,
    "55": 4677,
    "550": 28469,
    "56": 7342,
    "57": 7080,
    "58": 7402,
    "59": 6849,
    "6": 54,
    "60": 2639,
    "600": 9242,
    "61": 9027,
    "62": 9015,
    "63": 8949,
    "64": 5513,
    "65": 5228,
    "650": 24679,
    "66": 6058,
    "67": 6772,
    "68": 6984,
    "69": 8377,
    "7": 55,
    "70": 3990,
    "700": 10786,
    "71": 9182,
    "72": 8640,
    "73": 9201,
    "74": 8639,
    "75": 4448,
    "750": 18865,
    "76": 7804,
    "77": 5921,
    "78": 7216,
    "79": 8624,
    "8": 56,
    "80": 3188,
    "800": 8899,
    "81": 9868,
    "82": 9772,
    "83": 9524,
    "84": 9372,
    "85": 6226,
    "850": 29720,
    "86": 6403,
    "87": 8118,
    "88": 5875,
    "89": 8184,
    "9": 57,
    "90": 4165,
    "900": 14140,
    "91": 9723,
    "92": 9176,
    "93": 9165,
    "94": 9172,
    "95": 5510,
    "96": 7653,
    "97": 7632,
    "98": 7377,
    "99": 3025,
    "999": 24896,
    ":": 58,
    ":\"": 26384,
    "://": 2078,
    "::": 7807,
    ":[": 23851,
    ":\\": 25902,
    ";": 59,
    ";[": 27792,
    "<": 60,
    "</": 7198,
    "<<": 27940,
    "<|endoftext|>": 256,
    "=": 61,
    "=\"": 5330,
    "='": 22098,
    "==": 2501,
    "====": 4341,
    "========": 7483,
    "================": 13088,
    "================================": 25146,
    "=>": 27707,
    "=âĢĿ": 14895,
    ">": 62,
    "><": 16556,
    "></": 19876,
    ">>": 5540,
    ">>>>": 13592,
    ">>>>>>>>": 27865,
    "?": 63,
    "?!": 14900,
    "?\"": 3592,
    "?'": 12304,
    "?)": 11208,
    "?),": 31305,
    "?).": 27249,
    "??": 8691,
    "???": 26706,
    "?]": 27661,
    "?âĢĻ": 11235,
    "?âĢĿ": 2975,
    "@": 64,
    "@@": 31676,
    "A": 65,
    "AA": 4312,
    "AAAA": 18549,
    "AB": 10249,
    "ABC": 21012,
    "ABLE": 29138,
    "AC": 3035,
    "ACA": 20991,
    "ACE": 17051,
    "ACH": 22353,
    "ACK": 12424,
    "ACP": 27561,
    "ACT": 17086,
    "AD": 3609,
    "ADA": 26713,
    "ADE": 30295,
    "ADVERTIS": 13028,
    "ADVERTISEMENT": 13465,
    "AE": 17156,
    "AF": 9959,
    "AFP": 15112,
    "AFTA": 24939,
    "AG": 13373,
    "AGE": 27274,
    "AH": 25754,
    "AI": 25156,
    "AK": 14346,
    "AL": 2932,
    "ALE": 27033,
    "ALL": 9797,
    "ALLY": 23632,
    "AM": 3289,
    "AMA": 24409,
    "AME": 16670,
    "AMP": 26849,
    "AMY": 19021,
    "AN": 2166,
    "ANC": 23915,
    "ANCE": 29959,
    "AND": 9081,
    "ANG": 21562,
    "ANK": 20177,
    "ANN": 23970,
    "ANS": 19135,
    "ANT": 15034,
    "AP": 3658,
    "APD": 30807,
    "API": 31564,
    "APP": 26234,
    "AR": 2354,
    "ARA": 31462,
    "ARC": 26280,
    "ARD": 14439,
    "ARK": 17669,
    "ARL": 31227,
    "ARP": 29059,
    "ARR": 30424,
    "ARS": 23488,
    "ART": 10608,
    "ARY": 18909,
    "AS": 2389,
    "ASE": 17290,
    "ASH": 11706,
    "ASHINGTON": 15233,
    "ASS": 16977,
    "AST": 15335,
    "AT": 1902,
    "ATA": 21133,
    "ATCH": 10892,
    "ATE": 7775,
    "ATED": 11820,
    "ATH": 18256,
    "ATION": 11451,
    "ATO": 8027,
    "ATT": 24614,
    "AU": 29585,
    "AV": 12847,
    "AW": 28513,
    "AX": 30306,
    "AY": 9971,
    "AYS": 31543,
    "AZ": 30115,
    "Aaron": 28423,
    "Ab": 5390,
    "About": 8485,
    "Above": 29815,
    "Abs": 25067,
    "Ac": 14427,
    "Acc": 21328,
    "Access": 24415,
    "According": 3784,
    "Across": 31859,
    "Act": 9811,
    "Action": 23947,
    "Activity": 25241,
    "Actually": 24476,
    "Ad": 2548,
    "Adam": 20633,
    "Add": 6314,
    "Added": 19245,
    "Adding": 29901,
    "Additional": 20505,
    "Additionally": 20115,
    "Adv": 28874,
    "Advertisement": 3757,
    "Advertisements": 11876,
    "Advertising": 25432,
    "Af": 15474,
    "After": 2981,
    "Ag": 10736,
    "Again": 14343,
    "Age": 26485,
    "Ah": 13461,
    "Air": 18050,
    "Al": 2614,
    "Alan": 31977,
    "Alex": 13516,
    "Ali": 25376,
    "All": 3479,
    "Almost": 19860,
    "Along": 19393,
    "Also": 7311,
    "Altern": 28175,
    "Although": 6089,
    "Am": 5723,
    "Amazon": 20764,
    "Americ": 4617,
    "America": 15377,
    "American": 6168,
    "Americans": 14043,
    "Among": 11382,
    "An": 2030,
    "Analy": 29566,
    "Analysis": 27877,
    "And": 1729,
    "Andre": 26578,
    "Andrew": 17800,
    "Android": 26438,
    "Andy": 28546,
    "Ang": 14525,
    "Ann": 19673,
    "Anna": 26981,
    "Another": 5675,
    "Ant": 12936,
    "Anth": 25525,
    "Anthony": 26837,
    "Anti": 26398,
    "Any": 7135,
    "Anyone": 17609,
    "Anyway": 22430,
    "Ap": 27043,
    "Apart": 31590,
    "App": 5771,
    "Apparently": 25315,
    "Apple": 14480,
    "April": 16689,
    "Ar": 3789,
    "Arab": 26193,
    "Arch": 20716,
    "Are": 9191,
    "Ari": 21628,
    "Around": 19823,
    "Array": 30667,
    "Art": 8836,
    "Arthur": 26733,
    "Article": 14275,
    "As": 1545,
    "Ash": 26175,
    "Aside": 26470,
    "Ask": 28233,
    "Asked": 14205,
    "Ass": 8510,
    "Assad": 17757,
    "Associated": 27269,
    "Ast": 29654,
    "At": 2692,
    "Att": 11877,
    "Aud": 21758,
    "Aug": 14614,
    "August": 18311,
    "Aust": 12710,
    "Austral": 16135,
    "Australia": 22130,
    "Australian": 30538,
    "Aut": 18966,
    "Author": 14620,
    "Authorities": 22209,
    "Av": 14200,
    "Available": 26953,
    "Average": 31704,
    "Aw": 25671,
    "Az": 27837,
    "B": 66,
    "BA": 4254,
    "BB": 18184,
    "BBC": 27198,
    "BC": 2311,
    "BD": 20013,
    "BE": 14940,
    "BER": 14681,
    "BI": 3449,
    "BL": 12184,
    "BLE": 25687,
    "BM": 8952,
    "BN": 10824,
    "BO": 7864,
    "BP": 20371,
    "BR": 12992,
    "BS": 4427,
    "BSD": 25354,
    "BT": 20407,
    "BU": 24595,
    "BUR": 31812,
    "BY": 19754,
    "Ba": 31359,
    "Back": 8312,
    "Background": 25591,
    "Bad": 22970,
    "Bal": 29102,
    "Ball": 29874,
    "Ban": 29657,
    "Bank": 25495,
    "Bar": 11503,
    "Bas": 17443,
    "Base": 23121,
    "Based": 15535,
    "Basically": 27551,
    "Bat": 21689,
    "Battle": 27241,
    "Bay": 14288,
    "Be": 3694,
    "Because": 7424,
    "Before": 7874,
    "Begin": 30292,
    "Beh": 26466,
    "Being": 16312,
    "Bel": 11298,
    "Below": 20111,
    "Ben": 11570,
    "Ber": 21892,
    "Bern": 19564,
    "Bernie": 26142,
    "Berry": 18985,
    "Besides": 20825,
    "Best": 12675,
    "Bet": 13056,
    "Better": 29001,
    "Between": 20952,
    "Beyond": 20047,
    "Bi": 26616,
    "Big": 12341,
    "Bill": 15508,
    "Bit": 14166,
    "Bitcoin": 20626,
    "Bl": 4613,
    "Black": 10904,
    "Block": 23795,
    "Blood": 29858,
    "Bloom": 29468,
    "Blue": 17927,
    "Bo": 16444,
    "Bob": 19265,
    "Bon": 23914,
    "Book": 10998,
    "Books": 31505,
    "Born": 24968,
    "Boston": 27737,
    "Both": 8690,
    "Box": 18303,
    "Boy": 28171,
    "Br": 11003,
    "Brad": 21639,
    "Brazil": 31290,
    "Bre": 12242,
    "Breaking": 23838,
    "Brexit": 31664,
    "Brian": 21604,
    "Brien": 16754,
    "Bring": 30802,
    "Brit": 13857,
    "Britain": 28211,
    "British": 20352,
    "Bro": 16916,
    "Broad": 29245,
    "Bron": 16499,
    "Brown": 18233,
    "Bs": 27926,
    "Build": 20092,
    "Building": 27333,
    "Bur": 21694,
    "Bush": 28319,
    "Business": 22778,
    "But": 1302,
    "Buy": 15277,
    "By": 3738,
    "C": 67,
    "CA": 7040,
    "CAR": 17377,
    "CB": 29188,
    "CBC": 22370,
    "CBS": 19198,
    "CC": 4283,
    "CD": 10487,
    "CE": 7163,
    "CH": 4661,
    "CI": 29676,
    "CL": 5607,
    "CLA": 15527,
    "CLOSE": 24294,
    "CNN": 13110,
    "CO": 9313,
    "COM": 14056,
    "COMMENT": 30537,
    "CON": 18660,
    "CP": 15711,
    "CR": 14222,
    "CS": 7146,
    "CT": 19299,
    "Cal": 9861,
    "Calif": 15863,
    "California": 21990,
    "Call": 16879,
    "Cam": 22635,
    "Camp": 19727,
    "Can": 6197,
    "Canada": 15648,
    "Canadian": 23033,
    "Cap": 13438,
    "Captain": 28121,
    "Car": 10921,
    "Card": 21307,
    "Care": 15071,
    "Carl": 23296,
    "Case": 23440,
    "Cast": 21181,
    "Cat": 25941,
    "Cent": 19024,
    "Center": 26397,
    "Central": 28832,
    "Certainly": 29664,
    "Ch": 2209,
    "Change": 25276,
    "Chapter": 26698,
    "Char": 15531,
    "Charl": 22340,
    "Charles": 24899,
    "Charlie": 31243,
    "Chat": 29726,
    "Che": 8327,
    "Check": 11724,
    "Chicago": 21638,
    "Chief": 20535,
    "Child": 18022,
    "Children": 26651,
    "China": 11592,
    "Chinese": 20837,
    "Cho": 28902,
    "Chris": 13823,
    "Christ": 9683,
    "Christian": 17304,
    "City": 14078,
    "Civil": 30066,
    "Cl": 4215,
    "Class": 15000,
    "Cle": 14930,
    "Clearly": 23928,
    "Click": 9986,
    "Client": 28876,
    "Climate": 26103,
    "Clinton": 12976,
    "Close": 29341,
    "Cloud": 18902,
    "Co": 7780,
    "Code": 19742,
    "Coin": 26848,
    "Col": 7651,
    "Cola": 26314,
    "Coll": 23414,
    "Color": 18331,
    "Com": 7106,
    "Comb": 24907,
    "Come": 17986,
    "Coming": 25325,
    "Comm": 10079,
    "Comment": 23446,
    "Comments": 24338,
    "Common": 25314,
    "Commun": 28030,
    "Community": 29539,
    "Comp": 9203,
    "Complete": 31609,
    "Component": 31538,
    "Con": 4325,
    "Conclusion": 18860,
    "Conf": 15202,
    "Config": 29180,
    "Cong": 15428,
    "Congress": 19615,
    "Connect": 21934,
    "Connell": 29605,
    "Connor": 22459,
    "Cons": 8907,
    "Conservative": 31963,
    "Consider": 21756,
    "Const": 17375,
    "Cont": 5739,
    "Contact": 17799,
    "Content": 24037,
    "Context": 28595,
    "Contin": 17901,
    "Continue": 26750,
    "Control": 27647,
    "Controller": 25823,
    "Cook": 31256,
    "Copyright": 14513,
    "Cor": 10970,
    "Core": 21686,
    "Cost": 23435,
    "Could": 21895,
    "Coun": 25042,
    "Count": 16023,
    "Court": 19625,
    "Courtesy": 27434,
    "Cover": 28204,
    "Cr": 14572,
    "Craft": 20843,
    "Cre": 17163,
    "Creat": 29137,
    "Create": 21184,
    "Credit": 21357,
    "Crit": 19919,
    "Critics": 26296,
    "Cross": 25106,
    "Cru": 22820,
    "Cruz": 30355,
    "Cs": 28536,
    "Cur": 29233,
    "Current": 12695,
    "Currently": 18732,
    "Custom": 21210,
    "Cut": 30008,
    "Cy": 20249,
    "D": 68,
    "DA": 4850,
    "DAY": 11835,
    "DB": 13166,
    "DC": 11525,
    "DD": 22611,
    "DE": 11647,
    "DER": 27192,
    "DF": 21212,
    "DI": 16196,
    "DJ": 28093,
    "DL": 24773,
    "DM": 23780,
    "DNA": 29069,
    "DO": 20705,
    "DP": 5587,
    "DR": 10918,
    "DS": 6670,
    "DT": 26739,
    "Da": 28792,
    "Daily": 27061,
    "Dam": 19424,
    "Dan": 19309,
    "Daniel": 19829,
    "Dar": 25703,
    "Dark": 22307,
    "Data": 12248,
    "Date": 18119,
    "Dav": 8085,
    "Dave": 26031,
    "David": 9293,
    "Davis": 28700,
    "Day": 13779,
    "De": 5847,
    "Dead": 24531,
    "Dear": 18778,
    "Death": 22051,
    "Deb": 21001,
    "Dec": 13447,
    "December": 20800,
    "Deep": 28750,
    "Def": 9841,
    "Defense": 27085,
    "Del": 17015,
    "Dem": 9345,
    "Democratic": 25437,
    "Democrats": 21103,
    "Den": 19862,
    "Dep": 14371,
    "Der": 28184,
    "Des": 4904,
    "Description": 24592,
    "Design": 22856,
    "Despite": 6663,
    "Det": 15427,
    "Details": 28267,
    "Dev": 19011,
    "Develop": 18228,
    "Di": 21072,
    "Did": 11626,
    "Die": 30753,
    "Dig": 20862,
    "Digital": 29420,
    "Direct": 15244,
    "Director": 25633,
    "Dis": 10418,
    "Disc": 18755,
    "Disney": 31465,
    "Disp": 31999,
    "Dist": 21644,
    "Do": 5410,
    "Doc": 29842,
    "Does": 14295,
    "Dom": 30254,
    "Don": 3770,
    "Donald": 6468,
    "DonaldTrump": 21835,
    "Donnell": 18326,
    "Down": 11228,
    "Download": 14822,
    "Dr": 7302,
    "Drive": 28178,
    "Ds": 30486,
    "Due": 21836,
    "Dun": 30968,
    "During": 5924,
    "E": 69,
    "EA": 7572,
    "EC": 3773,
    "ECD": 25530,
    "ECT": 14942,
    "ED": 3011,
    "EE": 9075,
    "EF": 31484,
    "EG": 13099,
    "EL": 4072,
    "ELD": 29942,
    "ELECT": 28904,
    "ELL": 16484,
    "EM": 4544,
    "EMA": 23622,
    "EMENT": 11648,
    "EN": 2719,
    "ENCE": 25049,
    "END": 17920,
    "ENS": 24111,
    "ENT": 5463,
    "EO": 3965,
    "EP": 7815,
    "ER": 1648,
    "ERC": 31349,
    "ERE": 10971,
    "ERN": 25252,
    "ERO": 31192,
    "ERS": 6117,
    "ERT": 26379,
    "ERY": 24832,
    "ES": 2573,
    "ESPN": 27234,
    "ESS": 14719,
    "EST": 8558,
    "ET": 3792,
    "ETA": 22316,
    "ETH": 28221,
    "ETT": 30093,
    "EU": 16424,
    "EV": 24632,
    "EW": 7212,
    "EX": 9615,
    "EXT": 25360,
    "EY": 26728,
    "Each": 11384,
    "Earlier": 10113,
    "Early": 14680,
    "Earth": 23597,
    "East": 23719,
    "Econom": 23594,
    "Ed": 7423,
    "Edit": 27804,
    "Editor": 17351,
    "Educ": 29227,
    "Eff": 23533,
    "Egypt": 29122,
    "Eight": 24573,
    "Either": 28179,
    "El": 9412,
    "Ele": 29612,
    "Elect": 19843,
    "Element": 24748,
    "Ell": 29053,
    "Em": 11193,
    "Email": 16161,
    "Employ": 30533,
    "En": 6469,
    "End": 16663,
    "Energy": 31142,
    "Eng": 12230,
    "Engine": 28468,
    "English": 22312,
    "Enjoy": 30993,
    "Enlarge": 21498,
    "Ent": 19882,
    "Enter": 21125,
    "Environment": 29742,
    "Ep": 19044,
    "Episode": 29697,
    "Equ": 28207,
    "Er": 15078,
    "Eric": 20455,
    "Error": 24194,
    "Es": 18187,
    "Ess": 28820,
    "Est": 22694,
    "Euro": 12413,
    "Europe": 13749,
    "European": 18388,
    "Ev": 14678,
    "Even": 5267,
    "Event": 15009,
    "Eventually": 24015,
    "Ever": 20900,
    "Every": 5443,
    "Everybody": 22237,
    "Everyone": 14176,
    "Everything": 17464,
    "Ex": 4186,
    "Example": 25910,
    "Except": 30126,
    "Exception": 29109,
    "Exit": 30402,
    "Exp": 21853,
    "Exper": 19898,
    "Experts": 29588,
    "Expl": 22685,
    "Ext": 15987,
    "F": 70,
    "FA": 8298,
    "FB": 27266,
    "FBI": 31954,
    "FC": 4385,
    "FE": 24345,
    "FF": 8699,
    "FI": 16428,
    "FK": 25173,
    "FL": 3380,
    "FM": 24530,
    "FO": 9643,
    "FOR": 20857,
    "FP": 6624,
    "FR": 15019,
    "FS": 11930,
    "FT": 15069,
    "FW": 29186,
    "FX": 24685,
    "Facebook": 9010,
    "Fact": 27631,
    "Fair": 29410,
    "Fall": 31079,
    "Family": 25353,
    "Fans": 29313,
    "Far": 18198,
    "Fast": 23302,
    "Fe": 12142,
    "Feb": 16657,
    "February": 21582,
    "Federal": 21601,
    "Feed": 16711,
    "Few": 25585,
    "Fi": 10346,
    "Field": 26121,
    "Fig": 13309,
    "Figure": 12402,
    "Fil": 16664,
    "File": 16800,
    "Files": 31604,
    "Film": 29849,
    "Fin": 19771,
    "Final": 20937,
    "Finally": 10053,
    "Find": 19720,
    "Finding": 31914,
    "Fire": 15707,
    "First": 5471,
    "Fit": 30846,
    "Five": 17128,
    "Fix": 28143,
    "Fixed": 19010,
    "Fl": 10590,
    "Flor": 23712,
    "Florida": 26199,
    "Follow": 6070,
    "Following": 11453,
    "Food": 25765,
    "Foot": 21537,
    "For": 1865,
    "Force": 19888,
    "Ford": 31276,
    "Fore": 17480,
    "Foreign": 29148,
    "Form": 17951,
    "Former": 11086,
    "Fort": 21841,
    "Fortunately": 26102,
    "Found": 25737,
    "Four": 13224,
    "Fox": 15745,
    "Fr": 6738,
    "Frame": 27864,
    "Franc": 31656,
    "France": 23213,
    "Frank": 14907,
    "Fre": 24419,
    "Fred": 27635,
    "Free": 12960,
    "French": 21360,
    "Friday": 20007,
    "Friend": 24280,
    "From": 5174,
    "Fs": 31748,
    "Full": 16245,
    "Fun": 21914,
    "Fund": 22359,
    "Further": 11315,
    "Furthermore": 21517,
    "Future": 29514,
    "G": 71,
    "GA": 9465,
    "GB": 4413,
    "GBT": 7044,
    "GC": 17355,
    "GE": 8565,
    "GEL": 25744,
    "GET": 21823,
    "GF": 26990,
    "GG": 21673,
    "GH": 19817,
    "GHz": 25159,
    "GI": 19263,
    "GL": 16190,
    "GM": 12261,
    "GN": 15700,
    "GO": 8469,
    "GP": 18689,
    "GR": 14590,
    "GRE": 31844,
    "GS": 14936,
    "GT": 23083,
    "GW": 31216,
    "Gal": 27970,
    "Gall": 27682,
    "Game": 13019,
    "Games": 29107,
    "Gar": 27397,
    "Gary": 29277,
    "Gate": 24232,
    "Ge": 10024,
    "Gen": 16120,
    "Gener": 10450,
    "General": 13497,
    "Georg": 29846,
    "George": 18506,
    "Ger": 24986,
    "German": 13861,
    "Germany": 23232,
    "Get": 4327,
    "Getting": 19801,
    "Getty": 7581,
    "Gi": 30718,
    "Girl": 28535,
    "Give": 25085,
    "Given": 12331,
    "Gl": 10640,
    "Global": 22423,
    "Go": 4978,
    "God": 13579,
    "Going": 23181,
    "Gold": 15492,
    "Good": 11158,
    "Google": 9740,
    "Got": 31471,
    "Gov": 21795,
    "Govern": 22526,
    "Government": 23374,
    "Gr": 11094,
    "Grand": 26150,
    "Graph": 26929,
    "Great": 15264,
    "Green": 13742,
    "Greg": 26565,
    "Group": 20887,
    "Gs": 28128,
    "Gu": 10563,
    "Guard": 25652,
    "Gun": 27798,
    "H": 72,
    "HA": 7706,
    "HAHA": 27396,
    "HC": 17831,
    "HD": 13733,
    "HE": 20883,
    "HF": 30075,
    "HH": 23010,
    "HI": 24898,
    "HL": 5112,
    "HO": 26621,
    "HP": 10667,
    "HR": 20150,
    "HS": 7543,
    "HT": 9086,
    "Ha": 27110,
    "Hack": 31133,
    "Had": 24920,
    "Half": 31264,
    "Hall": 27473,
    "Ham": 21341,
    "Hand": 18803,
    "Happy": 23892,
    "Har": 12428,
    "Hard": 20656,
    "Harry": 26451,
    "Has": 20434,
    "Have": 12189,
    "Having": 12881,
    "Haw": 29274,
    "Hay": 28051,
    "He": 1378,
    "Head": 16330,
    "Health": 17764,
    "Hel": 16279,
    "Hell": 29745,
    "Hello": 16894,
    "Help": 27874,
    "Hen": 22590,
    "Henry": 28015,
    "Her": 8740,
    "Here": 4097,
    "Hey": 10705,
    "Hi": 20285,
    "High": 13798,
    "Hill": 13440,
    "Hillary": 16129,
    "His": 5662,
    "Hist": 12270,
    "History": 16459,
    "Hit": 25716,
    "Ho": 27548,
    "Hol": 25796,
    "Hom": 30053,
    "Home": 17624,
    "Hon": 27194,
    "Hop": 19632,
    "Hopefully": 25620,
    "Hor": 31230,
    "Host": 28601,
    "Hot": 25482,
    "House": 14845,
    "Houston": 30942,
    "How": 2388,
    "However": 4205,
    "Hub": 15334,
    "Human": 20675,
    "Hun": 27260,
    "Hundreds": 28428,
    "Hy": 18779,
    "Hz": 9786,
    "I": 73,
    "IA": 3882,
    "IAL": 20573,
    "IAN": 24514,
    "IB": 21726,
    "IC": 3138,
    "ICA": 23254,
    "ICE": 11661,
    "ICH": 25831,
    "ICK": 15122,
    "ICO": 19389,
    "ICS": 22584,
    "ICT": 31096,
    "ID": 3760,
    "IDE": 18270,
    "IDS": 14106,
    "IE": 10794,
    "IES": 17982,
    "IF": 6454,
    "IFA": 14881,
    "IFF": 30563,
    "IG": 5477,
    "IGH": 25418,
    "IGHT": 14894,
    "IGN": 23325,
    "II": 5859,
    "III": 15147,
    "IK": 30523,
    "IL": 4192,
    "ILE": 22224,
    "ILL": 11087,
    "IM": 5177,
    "IME": 15391,
    "IN": 1971,
    "INAL": 28993,
    "IND": 21655,
    "INE": 14404,
    "ING": 3977,
    "INGS": 27918,
    "INGTON": 14369,
    "INK": 22397,
    "INS": 24552,
    "INT": 19411,
    "IO": 11461,
    "ION": 5356,
    "IP": 5270,
    "IR": 6444,
    "IS": 2148,
    "ISA": 20752,
    "ISE": 28781,
    "ISH": 23582,
    "ISIS": 22978,
    "ISS": 21061,
    "IST": 12366,
    "IT": 3093,
    "ITE": 19178,
    "ITH": 14459,
    "ITION": 29773,
    "ITY": 14057,
    "IV": 5247,
    "IVE": 13036,
    "IX": 15168,
    "IZ": 21481,
    "Ice": 29716,
    "Id": 11615,
    "If": 1565,
    "Il": 27074,
    "Ill": 20697,
    "Im": 3407,
    "Image": 4550,
    "Images": 26589,
    "Imagine": 20358,
    "Imp": 28544,
    "Import": 26782,
    "Impro": 26548,
    "In": 788,
    "Inc": 19120,
    "Incre": 25002,
    "Ind": 5645,
    "Indeed": 14457,
    "Index": 27440,
    "India": 17118,
    "Indian": 26061,
    "Inf": 15506,
    "Info": 26625,
    "Information": 27910,
    "Initial": 30972,
    "Initially": 31348,
    "Ins": 18753,
    "Inside": 22138,
    "Inst": 7473,
    "Install": 30632,
    "Instead": 10454,
    "Int": 6792,
    "Inter": 12330,
    "Interest": 18421,
    "Interestingly": 26377,
    "Intern": 15725,
    "International": 22845,
    "Internet": 28559,
    "Introdu": 30197,
    "Introduction": 25558,
    "Invest": 16241,
    "Investigators": 25825,
    "Ir": 21489,
    "Iran": 17748,
    "Iraq": 25364,
    "Iron": 22439,
    "Is": 3716,
    "Islam": 13518,
    "Islamic": 21149,
    "Israel": 10478,
    "Israeli": 21929,
    "Iss": 30473,
    "It": 927,
    "Item": 21616,
    "Its": 18297,
    "J": 74,
    "JC": 31501,
    "JP": 10911,
    "JS": 19677,
    "JUST": 21979,
    "Jac": 25612,
    "Jack": 13762,
    "Jackson": 26022,
    "Jam": 26831,
    "James": 13504,
    "Jan": 13439,
    "January": 21327,
    "Japan": 15611,
    "Japanese": 24436,
    "Jason": 22555,
    "Jay": 26777,
    "Jeff": 16721,
    "Jeremy": 31378,
    "Jes": 21845,
    "Jess": 31087,
    "Jesus": 28757,
    "Jew": 20988,
    "Jewish": 23973,
    "Jim": 16452,
    "Jo": 11284,
    "Joe": 16911,
    "John": 7000,
    "Johnson": 20605,
    "Join": 19618,
    "Jon": 15866,
    "Jonathan": 25356,
    "Jones": 20842,
    "Jordan": 28934,
    "Jose": 22007,
    "Joseph": 28896,
    "Josh": 21142,
    "Journal": 22015,
    "Jud": 26141,
    "Judge": 23801,
    "Jul": 19523,
    "July": 16608,
    "June": 16177,
    "Just": 5303,
    "Justice": 24247,
    "Justin": 27601,
    "K": 75,
    "KA": 24490,
    "KE": 10723,
    "KK": 15667,
    "KO": 27080,
    "KR": 31832,
    "KS": 28375,
    "KY": 30275,
    "Kar": 30430,
    "Kat": 25676,
    "Ke": 9059,
    "Keep": 16020,
    "Kelly": 28662,
    "Ken": 20376,
    "Kevin": 20471,
    "Key": 12621,
    "Kh": 29359,
    "Kim": 20379,
    "King": 16393,
    "Kit": 20676,
    "Kn": 27639,
    "Know": 23177,
    "Ky": 26434,
    "L": 76,
    "LA": 7418,
    "LAND": 29417,
    "LAY": 23008,
    "LC": 7765,
    "LD": 14268,
    "LE": 5351,
    "LGBT": 28278,
    "LINE": 29748,
    "LL": 18884,
    "LO": 13250,
    "LP": 22038,
    "LS": 14142,
    "LY": 13186,
    "La": 12360,
    "Lab": 16947,
    "Labour": 25342,
    "Land": 24949,
    "Large": 29731,
    "Last": 5069,
    "Lat": 27591,
    "Late": 24541,
    "Later": 15777,
    "Laughs": 27891,
    "Law": 15498,
    "Lay": 28903,
    "Le": 4778,
    "Lead": 19668,
    "League": 20519,
    "Leaks": 12073,
    "Lear": 16481,
    "Learn": 25600,
    "Lee": 21346,
    "Left": 22708,
    "Leg": 14566,
    "Len": 31118,
    "Les": 31445,
    "Less": 21255,
    "Let": 5342,
    "Lev": 29522,
    "Level": 21085,
    "Lew": 28085,
    "Lib": 29438,
    "Liber": 27244,
    "Life": 14365,
    "Light": 21699,
    "Like": 6696,
    "Lim": 24041,
    "Lin": 21098,
    "Line": 18359,
    "Link": 12948,
    "LinkedIn": 30272,
    "Linux": 28542,
    "List": 10566,
    "Listen": 21176,
    "Little": 21235,
    "Live": 19414,
    "Lo": 27401,
    "Load": 22586,
    "Local": 18465,
    "Location": 22385,
    "Log": 18580,
    "London": 21773,
    "Long": 15483,
    "Look": 8163,
    "Looking": 14338,
    "Lord": 26030,
    "Los": 25916,
    "Lou": 20913,
    "Louis": 27287,
    "Love": 18579,
    "Low": 24443,
    "Lu": 24622,
    "Luc": 23550,
    "Luck": 29630,
    "Ly": 31189,
    "M": 77,
    "MA": 5972,
    "MAN": 10761,
    "MB": 11105,
    "MC": 13131,
    "MD": 16646,
    "ME": 16949,
    "MENT": 17613,
    "MG": 29891,
    "MI": 14133,
    "ML": 7178,
    "MM": 12327,
    "MO": 22593,
    "MON": 30694,
    "MORE": 19377,
    "MP": 7343,
    "MR": 22860,
    "MS": 7381,
    "MT": 26008,
    "MW": 31722,
    "Ma": 21100,
    "Mac": 15378,
    "Mad": 17374,
    "Made": 30230,
    "Mag": 22926,
    "Mail": 30199,
    "Main": 18001,
    "Major": 23307,
    "Make": 13605,
    "Making": 21291,
    "Mal": 13514,
    "Malley": 27127,
    "Man": 6329,
    "Manager": 24971,
    "Manchester": 31717,
    "Many": 6018,
    "Map": 17772,
    "Mar": 7810,
    "Marc": 19091,
    "March": 15746,
    "Marcus": 29764,
    "Mark": 10214,
    "Market": 31362,
    "Mart": 11595,
    "Martin": 21662,
    "Mary": 22349,
    "Mass": 18984,
    "Master": 25260,
    "Mat": 14606,
    "Matt": 16537,
    "Matthew": 23625,
    "Max": 16364,
    "May": 6821,
    "Maybe": 11739,
    "Mayor": 28294,
    "Mc": 8244,
    "McC": 20085,
    "Me": 8053,
    "Mean": 7689,
    "Meanwhile": 7911,
    "Med": 12318,
    "Media": 11945,
    "Meet": 26705,
    "Mel": 19811,
    "Mem": 14659,
    "Members": 22352,
    "Men": 12276,
    "Mer": 14585,
    "Merit": 30163,
    "Message": 24217,
    "Met": 13455,
    "Method": 25071,
    "Mex": 20087,
    "Mexico": 26465,
    "Mic": 22828,
    "Mich": 10031,
    "Michael": 11850,
    "Michel": 30370,
    "Micro": 14612,
    "Microsoft": 16829,
    "Mid": 24824,
    "Mike": 14110,
    "Mil": 23276,
    "Mill": 29912,
    "Miller": 30188,
    "Min": 11987,
    "Mind": 27873,
    "Mir": 29060,
    "Miss": 18381,
    "Mo": 16157,
    "Mobile": 15145,
    "Mod": 9938,
    "Model": 24742,
    "Modern": 26609,
    "Moh": 29723,
    "Mom": 28125,
    "Mon": 11603,
    "Mond": 22674,
    "Monday": 24220,
    "Money": 24399,
    "Mont": 22419,
    "Moore": 29661,
    "Mor": 17682,
    "More": 4775,
    "Moreover": 20659,
    "Mos": 28157,
    "Most": 6157,
    "Mot": 28895,
    "Mother": 30512,
    "Move": 29894,
    "Moving": 29055,
    "Mr": 4408,
    "Mrs": 24036,
    "Ms": 9645,
    "Mu": 31596,
    "Much": 16446,
    "Mult": 19136,
    "Multiple": 31760,
    "Mur": 20946,
    "Mus": 9706,
    "Music": 22894,
    "Muslim": 13952,
    "Muslims": 29980,
    "My": 3688,
    "N": 78,
    "NA": 4566,
    "NAS": 16337,
    "NASA": 22134,
    "NBA": 27211,
    "NBC": 10073,
    "NC": 6480,
    "ND": 5289,
    "NE": 16536,
    "NER": 29453,
    "NET": 13657,
    "NEW": 12975,
    "NF": 23082,
    "NFL": 28152,
    "NG": 12821,
    "NI": 24135,
    "NL": 31933,
    "NN": 4675,
    "NO": 17485,
    "NOT": 20152,
    "NOTE": 30531,
    "NP": 21994,
    "NPR": 28995,
    "NR": 23790,
    "NS": 9126,
    "NT": 12138,
    "NY": 13211,
    "Na": 27810,
    "Name": 10594,
    "National": 15406,
    "Naz": 30315,
    "Nazi": 25614,
    "Ne": 7890,
    "Nearly": 22122,
    "Need": 25344,
    "Neil": 24485,
    "Neill": 22575,
    "Neither": 22660,
    "Net": 10572,
    "Never": 12852,
    "Nevertheless": 23185,
    "New": 3750,
    "News": 8520,
    "Newsletter": 26040,
    "Next": 10474,
    "Nic": 27457,
    "Nick": 21096,
    "Night": 27421,
    "No": 3351,
    "Nob": 17937,
    "Nobody": 20011,
    "Node": 29381,
    "Non": 17113,
    "None": 16195,
    "Nor": 19549,
    "North": 12731,
    "Not": 4024,
    "Note": 8818,
    "Notes": 17544,
    "Nothing": 17844,
    "Notice": 30522,
    "Nov": 23557,
    "November": 20664,
    "Now": 3524,
    "Num": 28775,
    "Number": 21802,
    "Nusra": 30497,
    "O": 79,
    "OA": 26135,
    "OB": 31046,
    "OC": 6378,
    "OCK": 17847,
    "OD": 5948,
    "ODE": 31071,
    "OG": 23727,
    "OH": 16759,
    "OK": 9244,
    "OL": 4522,
    "OLD": 23190,
    "OLL": 20650,
    "OM": 3772,
    "OME": 16032,
    "ON": 2071,
    "OND": 21971,
    "ONE": 16895,
    "ONG": 23059,
    "OO": 15024,
    "OP": 3192,
    "OPA": 31745,
    "OR": 2763,
    "ORD": 17346,
    "ORE": 6592,
    "ORK": 16108,
    "ORN": 24818,
    "ORS": 30859,
    "ORT": 14331,
    "ORTS": 30707,
    "ORY": 20809,
    "OS": 3055,
    "OSE": 16731,
    "OSS": 22831,
    "OST": 13739,
    "OT": 3556,
    "OTH": 24495,
    "OTO": 25201,
    "OTOS": 28681,
    "OTUS": 31513,
    "OU": 4092,
    "OUND": 21743,
    "OUR": 17332,
    "OUT": 19689,
    "OW": 5385,
    "OWN": 20192,
    "Ob": 6367,
    "Obama": 11243,
    "Object": 17367,
    "Obs": 29979,
    "Obviously": 16340,
    "Occ": 28166,
    "Oct": 13722,
    "October": 19159,
    "Of": 5237,
    "Off": 7427,
    "Office": 27922,
    "Officers": 26219,
    "Official": 30547,
    "Officials": 19082,
    "Oh": 6026,
    "Ohio": 23901,
    "Ok": 19060,
    "Okay": 16839,
    "Old": 21536,
    "On": 2049,
    "Once": 7229,
    "One": 2827,
    "Online": 21544,
    "Only": 11611,
    "Op": 18459,
    "Open": 15579,
    "Oper": 19554,
    "Operation": 28920,
    "Opp": 21942,
    "Or": 6803,
    "Organ": 24321,
    "Orig": 13419,
    "Original": 23621,
    "Originally": 23429,
    "Os": 13441,
    "Other": 5976,
    "Others": 20509,
    "Our": 4848,
    "Out": 9753,
    "Outside": 26576,
    "Over": 5900,
    "Overall": 15904,
    "Own": 29206,
    "P": 80,
    "PA": 4533,
    "PC": 8395,
    "PD": 5673,
    "PDATE": 12369,
    "PDF": 21705,
    "PE": 20968,
    "PER": 21917,
    "PG": 8204,
    "PH": 14757,
    "PI": 12325,
    "PL": 10105,
    "PM": 8198,
    "PN": 13988,
    "PO": 23381,
    "PORT": 26298,
    "PP": 8838,
    "PR": 5745,
    "PRE": 29375,
    "PRO": 29205,
    "PS": 4460,
    "PT": 19223,
    "PU": 6332,
    "Pa": 28406,
    "Pac": 16783,
    "Pacific": 19831,
    "Pack": 23553,
    "Pad": 26233,
    "Page": 17321,
    "Pakistan": 24547,
    "Pal": 10843,
    "Palest": 23563,
    "Palestinian": 25999,
    "Pan": 21760,
    "Par": 12431,
    "Park": 24680,
    "Part": 8597,
    "Pass": 16853,
    "Pat": 11840,
    "Path": 21977,
    "Patrick": 27018,
    "Paul": 10242,
    "Pay": 20250,
    "Pe": 5697,
    "Pen": 28771,
    "People": 6712,
    "Per": 6593,
    "Perhaps": 11425,
    "Permalink": 31818,
    "Person": 15906,
    "Personal": 28014,
    "Pet": 27973,
    "Peter": 17476,
    "Ph": 2582,
    "Phil": 17144,
    "Phone": 5663,
    "Phones": 24804,
    "Phot": 14580,
    "Photo": 4989,
    "Photos": 19991,
    "Pict": 20408,
    "Picture": 25783,
    "Pierre": 28220,
    "Pinterest": 28099,
    "Pl": 4878,
    "Plan": 20187,
    "Play": 15522,
    "Player": 22319,
    "Players": 26504,
    "Please": 8773,
    "Plus": 18501,
    "Po": 20289,
    "Point": 14310,
    "Pol": 6412,
    "Police": 7200,
    "Polit": 29730,
    "Political": 26696,
    "Pop": 23658,
    "Port": 15740,
    "Post": 7941,
    "Posted": 14998,
    "Pot": 26719,
    "Power": 16724,
    "Pr": 7680,
    "Pre": 9802,
    "Prem": 27135,
    "Pres": 25840,
    "President": 8061,
    "Press": 12779,
    "Previous": 23743,
    "Previously": 30102,
    "Price": 21927,
    "Prime": 21155,
    "Prince": 30913,
    "Print": 19946,
    "Prior": 21416,
    "Priv": 23389,
    "Pro": 3886,
    "Probably": 31822,
    "Process": 31342,
    "Produ": 20252,
    "Product": 29445,
    "Prof": 14593,
    "Professor": 22142,
    "Program": 31389,
    "Project": 19273,
    "Prom": 26695,
    "Prop": 23896,
    "Pros": 31428,
    "Prosecutors": 29715,
    "Prot": 17734,
    "Prov": 22211,
    "Ps": 11607,
    "Public": 15298,
    "Published": 20767,
    "Put": 15226,
    "Putin": 28796,
    "Py": 21197,
    "Q": 81,
    "QL": 10669,
    "QU": 18167,
    "Qaeda": 14441,
    "Qaida": 29449,
    "Qu": 6171,
    "Que": 18109,
    "Queen": 29947,
    "Query": 21781,
    "Quest": 17286,
    "Question": 26306,
    "Quick": 24635,
    "R": 82,
    "RA": 4929,
    "RB": 24803,
    "RC": 8549,
    "RE": 2108,
    "READ": 13797,
    "REAK": 31493,
    "RED": 17894,
    "REE": 15572,
    "REL": 14029,
    "RELATED": 15662,
    "RES": 14476,
    "RI": 8340,
    "RL": 9079,
    "RNA": 28485,
    "RO": 11865,
    "RP": 19006,
    "RR": 29177,
    "RS": 8041,
    "RT": 12713,
    "RY": 24173,
    "Ra": 23942,
    "Rad": 17683,
    "Radio": 27429,
    "Ram": 29257,
    "Rather": 21908,
    "Ray": 20547,
    "Re": 3475,
    "Read": 5129,
    "Real": 16026,
    "Really": 25948,
    "Reb": 30314,
    "Rec": 7688,
    "Recent": 24970,
    "Recently": 19938,
    "Record": 26957,
    "Red": 10785,
    "Redd": 19637,
    "Reddit": 20635,
    "Ref": 8180,
    "References": 13468,
    "Reg": 9977,
    "Regardless": 22956,
    "Reilly": 18464,
    "Rel": 6922,
    "Related": 8636,
    "Release": 28652,
    "Rem": 9929,
    "Remember": 15821,
    "Ren": 27917,
    "Rep": 5799,
    "Report": 25486,
    "Reports": 30671,
    "Republic": 11998,
    "Republican": 19500,
    "Republicans": 19705,
    "Request": 28116,
    "Res": 5896,
    "Research": 24293,
    "Researchers": 19331,
    "Residents": 31744,
    "Resp": 20350,
    "Rest": 23948,
    "Result": 31634,
    "Results": 27966,
    "Ret": 14433,
    "Return": 27042,
    "Reuters": 9513,
    "Rev": 22693,
    "Review": 17808,
    "Reviewer": 29634,
    "Rich": 13754,
    "Richard": 18455,
    "Rick": 28358,
    "Right": 10868,
    "Ro": 23410,
    "Rob": 14469,
    "Rober": 13812,
    "Robert": 16893,
    "Rock": 19969,
    "Rod": 24615,
    "Rog": 26738,
    "Roll": 30201,
    "Rom": 21565,
    "Roman": 29408,
    "Romney": 30792,
    "Ron": 22080,
    "Ros": 31310,
    "Rose": 29903,
    "Round": 26224,
    "Roy": 27089,
    "Rs": 28525,
    "Rub": 18817,
    "Ruby": 27586,
    "Run": 18969,
    "Running": 28855,
    "Rus": 29101,
    "Russ": 8599,
    "Russia": 13661,
    "Russian": 13947,
    "Ryan": 17730,
    "S": 83,
    "SA": 4132,
    "SAN": 25441,
    "SB": 20849,
    "SC": 9969,
    "SD": 11189,
    "SE": 10435,
    "SEC": 29977,
    "SF": 20805,
    "SH": 15819,
    "SI": 19363,
    "SL": 9365,
    "SM": 14293,
    "SN": 17275,
    "SO": 14764,
    "SON": 13788,
    "SP": 4706,
    "SQL": 18799,
    "SR": 15480,
    "SS": 5686,
    "ST": 4281,
    "SU": 10570,
    "SW": 20546,
    "Sa": 31395,
    "Sad": 22491,
    "Sadly": 29303,
    "Sal": 18554,
    "Sam": 16146,
    "Samsung": 28746,
    "San": 14608,
    "Sand": 14992,
    "Sanders": 18830,
    "Sar": 20402,
    "Sarah": 25200,
    "Sat": 24229,
    "Saturday": 19339,
    "Saudi": 29045,
    "Save": 20404,
    "Say": 28621,
    "Sc": 4044,
    "Sch": 12941,
    "School": 25723,
    "Science": 24822,
    "Scient": 17967,
    "Scientists": 21526,
    "Score": 28237,
    "Scott": 16100,
    "Screen": 31838,
    "Script": 8579,
    "Scroll": 24118,
    "Se": 5888,
    "Sean": 24110,
    "Search": 25073,
    "Season": 21247,
    "Seattle": 29464,
    "Sec": 7258,
    "Second": 12197,
    "Secret": 22172,
    "Secretary": 31370,
    "Section": 29226,
    "Security": 23180,
    "See": 6365,
    "Select": 26417,
    "Self": 27908,
    "Semit": 14316,
    "Semitic": 22765,
    "Semitism": 21135,
    "Sen": 8498,
    "Senate": 23372,
    "Senator": 23288,
    "Send": 30432,
    "Senior": 28302,
    "Sep": 25095,
    "Sept": 16099,
    "September": 19547,
    "Ser": 13068,
    "Series": 31167,
    "Server": 26640,
    "Service": 21631,
    "Set": 12355,
    "Seven": 27137,
    "Several": 12192,
    "Sex": 24177,
    "Sh": 2915,
    "Sham": 28869,
    "Share": 10684,
    "She": 3201,
    "Shell": 29051,
    "Sher": 25112,
    "Short": 16909,
    "Shortly": 24377,
    "Should": 18921,
    "Show": 19524,
    "Side": 28088,
    "Sign": 13372,
    "Sil": 17146,
    "Sim": 9393,
    "Similar": 26921,
    "Similarly": 23444,
    "Simon": 31309,
    "Since": 5536,
    "Sing": 26461,
    "Sir": 24879,
    "Six": 19101,
    "Size": 23451,
    "Sk": 21843,
    "Sky": 22151,
    "Sl": 14630,
    "Sm": 8359,
    "Small": 24475,
    "Smart": 26153,
    "Smith": 15998,
    "Sn": 21676,
    "Snow": 27385,
    "So": 2126,
    "Social": 18644,
    "Soft": 26524,
    "Some": 3865,
    "Someone": 25259,
    "Something": 20824,
    "Sometimes": 13782,
    "Sony": 28206,
    "Soon": 25043,
    "Sorry": 21746,
    "Sound": 26075,
    "Source": 8889,
    "Sources": 18603,
    "South": 13180,
    "Sov": 31694,
    "Sp": 5538,
    "Space": 17674,
    "Spe": 6103,
    "Speaking": 10611,
    "Special": 18243,
    "Speed": 30951,
    "Sports": 15418,
    "Spot": 29184,
    "Squ": 26934,
    "St": 1498,
    "Stack": 27916,
    "Staff": 27998,
    "Stan": 28140,
    "Stand": 23480,
    "Star": 8081,
    "Stars": 30495,
    "Start": 13620,
    "Starting": 22475,
    "Stat": 27584,
    "State": 10173,
    "Station": 10475,
    "Status": 30845,
    "Stay": 24371,
    "Ste": 8677,
    "Step": 9630,
    "Stephen": 22801,
    "Steve": 17329,
    "Steven": 25121,
    "Still": 9175,
    "Stock": 27876,
    "Stop": 19171,
    "Story": 9641,
    "Str": 21411,
    "Stream": 23103,
    "Street": 31888,
    "String": 15343,
    "Stud": 13471,
    "Students": 26634,
    "Sty": 27420,
    "Su": 21621,
    "Sub": 7923,
    "Subject": 21387,
    "Subscribe": 19036,
    "Such": 14183,
    "Sum": 15996,
    "Summary": 26355,
    "Sun": 18516,
    "Sund": 20910,
    "Sunday": 22405,
    "Super": 13917,
    "Supp": 11143,
    "Support": 20980,
    "Sur": 14740,
    "Sure": 17584,
    "Sus": 27308,
    "Sw": 17695,
    "Swed": 31178,
    "Sy": 13223,
    "System": 23304,
    "T": 84,
    "TA": 5982,
    "TB": 22766,
    "TC": 5065,
    "TE": 10538,
    "TER": 9739,
    "TF": 23919,
    "TH": 5405,
    "THE": 11855,
    "TI": 23349,
    "TION": 13035,
    "TIS": 12151,
    "TL": 20838,
    "TM": 22055,
    "TO": 11009,
    "TON": 10260,
    "TOR": 26052,
    "TP": 9665,
    "TR": 9978,
    "TS": 6034,
    "TT": 17516,
    "TV": 5695,
    "TY": 16808,
    "Table": 16305,
    "Take": 12171,
    "Taking": 23463,
    "Tal": 28524,
    "Talk": 25584,
    "Target": 30467,
    "Tax": 26439,
    "Taylor": 29088,
    "Te": 6991,
    "Team": 16478,
    "Tech": 20104,
    "Techn": 25690,
    "Ted": 30653,
    "Tele": 27445,
    "Tell": 24603,
    "Tem": 21603,
    "Ten": 23021,
    "Ter": 15326,
    "Tes": 31551,
    "Test": 17589,
    "Tex": 15659,
    "Texas": 17803,
    "Text": 17403,
    "Th": 794,
    "Thank": 10704,
    "Thanks": 10358,
    "That": 2135,
    "The": 446,
    "Their": 12075,
    "Then": 6246,
    "There": 1641,
    "Therefore": 26776,
    "These": 4306,
    "They": 2521,
    "Things": 19443,
    "Think": 19068,
    "Third": 21519,
    "Thirty": 31181,
    "This": 1204,
    "Thomas": 19842,
    "Those": 7990,
    "Though": 9271,
    "Thousands": 28424,
    "Thread": 28304,
    "Three": 11109,
    "Through": 12868,
    "Throughout": 21200,
    "Thursday": 24203,
    "Thus": 18876,
    "Tim": 14950,
    "Time": 10303,
    "Times": 24936,
    "Tit": 23090,
    "Title": 28287,
    "To": 2668,
    "Today": 7364,
    "Tom": 13005,
    "Tony": 24975,
    "Too": 23850,
    "Top": 10162,
    "Topics": 21528,
    "Tor": 13954,
    "Toronto": 25830,
    "Torrent": 27901,
    "Total": 18035,
    "Tr": 3082,
    "Tra": 25504,
    "Track": 29599,
    "Trans": 10551,
    "Travel": 31148,
    "Tre": 25528,
    "Tri": 26064,
    "True": 22838,
    "Trump": 4939,
    "Try": 27248,
    "Ts": 23513,
    "Tube": 6012,
    "Tuesday": 24844,
    "Tunes": 13998,
    "Tur": 14693,
    "Turkey": 24510,
    "Turn": 20198,
    "Tw": 16378,
    "Twenty": 28612,
    "Twitter": 12031,
    "Two": 6697,
    "Ty": 9511,
    "Type": 13442,
    "U": 85,
    "UB": 22760,
    "UC": 10731,
    "UCK": 22492,
    "UD": 12145,
    "UE": 13216,
    "UG": 18134,
    "UI": 13539,
    "UK": 15223,
    "UL": 7730,
    "ULL": 17366,
    "ULT": 29262,
    "UM": 13263,
    "UMP": 23803,
    "UN": 8223,
    "UP": 15324,
    "UPDATE": 13695,
    "UR": 7129,
    "URE": 19685,
    "US": 3072,
    "USA": 13464,
    "USD": 31027,
    "USE": 19844,
    "USH": 28987,
    "UST": 9019,
    "UT": 5756,
    "UTC": 19683,
    "UTERS": 12518,
    "Uk": 24032,
    "Ult": 15862,
    "Ultimately": 21154,
    "Un": 3846,
    "Under": 8342,
    "Unfortunately": 11806,
    "United": 16700,
    "University": 21254,
    "Unless": 26257,
    "Unlike": 15776,
    "Until": 15405,
    "Up": 5354,
    "Update": 10390,
    "Updated": 16223,
    "Upon": 20612,
    "Ur": 20719,
    "Us": 7843,
    "Use": 16303,
    "User": 18226,
    "Users": 28444,
    "Using": 13269,
    "Ut": 22470,
    "V": 86,
    "VA": 14522,
    "VC": 18801,
    "VD": 9603,
    "VE": 8996,
    "VEL": 26037,
    "VER": 6968,
    "VERTIS": 12691,
    "VI": 16505,
    "VID": 15258,
    "VIDIA": 22819,
    "VM": 16546,
    "VP": 10182,
    "VR": 14957,
    "Va": 30641,
    "Val": 12974,
    "Value": 20073,
    "Van": 24071,
    "Var": 29185,
    "Ve": 21924,
    "Ver": 15361,
    "Version": 27947,
    "Very": 19912,
    "Via": 24106,
    "Vict": 21003,
    "Video": 12910,
    "View": 9749,
    "Virgin": 30858,
    "Vis": 17431,
    "Vol": 20816,
    "Vs": 26749,
    "W": 87,
    "WA": 13600,
    "WAR": 25706,
    "WASHINGTON": 16025,
    "WATCH": 27428,
    "WC": 23095,
    "WE": 21830,
    "WH": 13904,
    "WN": 30850,
    "WR": 19970,
    "WS": 12229,
    "WW": 17274,
    "Wait": 23064,
    "Wal": 22267,
    "Wall": 22013,
    "Want": 19431,
    "War": 11994,
    "Ware": 31737,
    "Was": 18694,
    "Washington": 15027,
    "Wat": 31814,
    "Watch": 9496,
    "Water": 21637,
    "Way": 25266,
    "We": 1016,
    "Web": 18139,
    "Wed": 22804,
    "Wednesday": 25627,
    "Week": 20294,
    "Welcome": 18592,
    "Well": 5705,
    "West": 13673,
    "Western": 21310,
    "Wh": 1150,
    "What": 2001,
    "Whatever": 18478,
    "Whe": 10412,
    "When": 2070,
    "Whenever": 29253,
    "Where": 8552,
    "Whether": 13483,
    "Which": 12656,
    "While": 3049,
    "White": 11844,
    "Who": 8145,
    "Why": 5016,
    "Wik": 31990,
    "Wil": 20175,
    "Wild": 26722,
    "Will": 8385,
    "William": 23345,
    "Williams": 23119,
    "Wilson": 30180,
    "Win": 17738,
    "Wind": 15012,
    "Windows": 20523,
    "Wire": 29419,
    "With": 2964,
    "Within": 19370,
    "Without": 15645,
    "Wolf": 31649,
    "Women": 17324,
    "Wood": 25842,
    "Word": 30820,
    "Work": 13257,
    "Working": 26092,
    "Works": 23231,
    "World": 11742,
    "Would": 17977,
    "Wow": 21183,
    "Writ": 13940,
    "Write": 25092,
    "Writing": 28050,
    "Written": 24447,
    "X": 88,
    "XX": 11819,
    "Y": 89,
    "YD": 31989,
    "YS": 25312,
    "Yeah": 11159,
    "Year": 20673,
    "Yes": 6130,
    "Yesterday": 21354,
    "Yet": 9186,
    "You": 1811,
    "YouTube": 29890,
    "Young": 19000,
    "Your": 8886,
    "Z": 90,
    "Zero": 31712,
    "[": 91,
    "['": 29396,
    "[/": 16418,
    "[]": 31426,
    "\\": 92,
    "\\\"": 24674,
    "\\)": 29930,
    "\\-": 20319,
    "\\/": 19297,
    "\\\\": 15822,
    "]": 93,
    "])": 16202,
    "],": 5835,
    "],\"": 28169,
    "],âĢĿ": 31942,
    "].": 5076,
    "]:": 13112,
    "];": 16513,
    "][": 2987,
    "]]": 19603,
    "^": 94,
    "^^": 26639,
    "^{": 20819,
    "_": 95,
    "__": 1346,
    "___": 17583,
    "____": 2449,
    "________": 4326,
    "________________": 7955,
    "________________________________": 15947,
    "_{": 17141,
    "`": 96,
    "a": 97,
    "aa": 9456,
    "aaaa": 31316,
    "aan": 31794,
    "ab": 406,
    "aba": 14420,
    "abad": 14122,
    "abama": 7497,
    "abase": 22201,
    "abb": 5161,
    "abbing": 12504,
    "abe": 10498,
    "abee": 22553,
    "abel": 14307,
    "aber": 30731,
    "abet": 9952,
    "abetes": 12516,
    "abeth": 8786,
    "abi": 16222,
    "abil": 8275,
    "abilities": 5722,
    "ability": 1889,
    "abin": 5815,
    "abinet": 8045,
    "abis": 6789,
    "abit": 29305,
    "abl": 12607,
    "able": 573,
    "abled": 5873,
    "ables": 3376,
    "abling": 12391,
    "ablish": 17219,
    "ablished": 20584,
    "ablishment": 22111,
    "ablo": 16850,
    "ably": 1289,
    "abor": 3206,
    "abortion": 25346,
    "about": 11048,
    "abouts": 25562,
    "above": 28521,
    "abs": 7829,
    "abul": 13893,
    "abulary": 20782,
    "abwe": 19904,
    "aby": 4106,
    "abytes": 31663,
    "ac": 313,
    "aca": 20508,
    "acas": 31813,
    "acc": 6742,
    "accept": 11731,
    "acceptable": 13258,
    "access": 16833,
    "accessible": 31034,
    "acco": 9124,
    "account": 24001,
    "accur": 14834,
    "ace": 558,
    "acebook": 2300,
    "aced": 2283,
    "acent": 12987,
    "acer": 12410,
    "acerb": 18302,
    "aces": 2123,
    "aceutical": 13547,
    "acey": 22431,
    "ach": 630,
    "acha": 30798,
    "ache": 5778,
    "ached": 2446,
    "achel": 9814,
    "achelor": 19715,
    "acher": 9864,
    "achers": 15526,
    "aches": 3504,
    "achi": 18173,
    "achine": 23769,
    "aching": 8024,
    "achment": 11226,
    "acht": 17155,
    "achus": 8134,
    "achusetts": 8259,
    "aci": 18652,
    "acial": 21308,
    "acies": 11841,
    "acing": 4094,
    "acious": 13848,
    "acity": 4518,
    "aciÃ³n": 23984,
    "ack": 449,
    "acked": 7320,
    "acker": 13681,
    "ackers": 25546,
    "acket": 9007,
    "ackets": 27989,
    "acking": 6815,
    "acks": 5120,
    "acle": 6241,
    "acles": 10445,
    "aco": 10962,
    "acon": 8325,
    "aconian": 30063,
    "acre": 10380,
    "acs": 20246,
    "act": 509,
    "acted": 20248,
    "acter": 6064,
    "acters": 27455,
    "actic": 13963,
    "acting": 25402,
    "action": 2602,
    "actions": 7462,
    "activ": 18372,
    "active": 7576,
    "actively": 28506,
    "activity": 23785,
    "actly": 23017,
    "actor": 11129,
    "actory": 12253,
    "acts": 9471,
    "acular": 12339,
    "acy": 1481,
    "ad": 325,
    "ada": 4559,
    "adal": 28717,
    "adan": 24433,
    "adas": 31476,
    "adata": 17502,
    "adays": 17746,
    "add": 3272,
    "addafi": 17856,
    "adder": 30891,
    "addock": 31613,
    "addy": 14070,
    "ade": 673,
    "aded": 5175,
    "adel": 6640,
    "adelph": 7316,
    "adelphia": 7384,
    "adem": 3518,
    "adena": 31500,
    "adequ": 15332,
    "ader": 5141,
    "aders": 9925,
    "ades": 2249,
    "adesh": 10924,
    "adh": 17948,
    "adi": 9790,
    "adia": 27071,
    "adian": 16760,
    "adic": 22837,
    "adin": 27504,
    "ading": 4362,
    "aditional": 17292,
    "adium": 5100,
    "adjusted": 30033,
    "ado": 3973,
    "ador": 6062,
    "ados": 18649,
    "adow": 5748,
    "adows": 13386,
    "ads": 7051,
    "advant": 13177,
    "ady": 4603,
    "ae": 4243,
    "aed": 7517,
    "aeda": 8985,
    "ael": 2728,
    "af": 1936,
    "afa": 25982,
    "afe": 9239,
    "afer": 29693,
    "afety": 25868,
    "aff": 1441,
    "affe": 13734,
    "affeine": 21879,
    "affer": 26564,
    "affle": 30990,
    "afi": 12996,
    "afia": 20160,
    "afort": 19365,
    "aft": 20836,
    "after": 9567,
    "ag": 370,
    "aga": 9129,
    "again": 16226,
    "against": 27784,
    "agan": 6394,
    "agar": 25634,
    "age": 507,
    "aged": 1812,
    "agement": 2972,
    "agen": 10354,
    "agent": 24115,
    "ager": 2407,
    "agers": 6094,
    "ages": 1125,
    "agg": 8374,
    "agged": 14829,
    "agger": 9949,
    "aggering": 17191,
    "agging": 14493,
    "agh": 9361,
    "aghd": 13732,
    "agher": 24673,
    "agi": 24526,
    "agic": 9056,
    "agine": 11098,
    "aging": 2574,
    "agle": 18542,
    "agn": 4935,
    "agne": 19509,
    "agnetic": 24357,
    "ago": 3381,
    "agog": 28205,
    "agogue": 25874,
    "agon": 3488,
    "agonal": 27732,
    "agonist": 15246,
    "agram": 7247,
    "agrams": 31425,
    "agraph": 12225,
    "ags": 4234,
    "agu": 11728,
    "ague": 1744,
    "agues": 5062,
    "ah": 993,
    "aha": 13510,
    "ahan": 15710,
    "ahar": 19781,
    "ahi": 30465,
    "ahl": 13262,
    "ahn": 14283,
    "aho": 15337,
    "ahon": 24638,
    "ahoo": 11044,
    "ahu": 9509,
    "ai": 1961,
    "aic": 23173,
    "aid": 1968,
    "aida": 23804,
    "aign": 1432,
    "ail": 611,
    "ailable": 10311,
    "ailand": 13975,
    "ailed": 9467,
    "ailing": 11681,
    "ails": 1913,
    "ailure": 23428,
    "aily": 2876,
    "aim": 1285,
    "ain": 392,
    "aine": 5274,
    "ained": 1497,
    "ainer": 16298,
    "aining": 1569,
    "ains": 1372,
    "aint": 3641,
    "ainted": 15709,
    "aints": 5751,
    "air": 991,
    "aird": 27863,
    "aire": 7016,
    "aired": 15110,
    "aires": 14739,
    "airo": 14676,
    "airs": 3514,
    "airy": 13297,
    "ais": 9166,
    "ait": 4652,
    "aith": 3964,
    "aj": 1133,
    "aja": 23715,
    "aji": 26295,
    "ajo": 25980,
    "ajor": 1345,
    "ak": 471,
    "aka": 8574,
    "akable": 28965,
    "ake": 540,
    "aked": 4207,
    "akedown": 26933,
    "aken": 1654,
    "akens": 28608,
    "aker": 3022,
    "akers": 3330,
    "akes": 1114,
    "akespe": 17449,
    "akespeare": 17698,
    "akh": 9580,
    "aki": 9687,
    "akin": 27223,
    "aking": 827,
    "akis": 21441,
    "akistan": 4614,
    "ako": 23793,
    "aks": 4290,
    "aku": 13772,
    "aky": 15032,
    "al": 283,
    "ala": 6028,
    "alach": 28159,
    "alan": 30576,
    "ald": 1785,
    "aldi": 31369,
    "ale": 1055,
    "aleb": 26531,
    "aled": 5687,
    "aleigh": 26693,
    "ales": 2027,
    "aley": 13731,
    "alez": 17780,
    "alf": 1556,
    "ali": 7354,
    "alia": 8893,
    "alian": 6487,
    "aliation": 19577,
    "alid": 11887,
    "alin": 14485,
    "aline": 22401,
    "aling": 5559,
    "alion": 19788,
    "alis": 26223,
    "alities": 25715,
    "ality": 1542,
    "alk": 958,
    "alker": 22931,
    "alking": 18670,
    "all": 447,
    "alla": 25879,
    "allah": 20493,
    "allas": 6798,
    "alle": 6754,
    "alled": 3031,
    "alleng": 29325,
    "allic": 23541,
    "alling": 8464,
    "allow": 15677,
    "alls": 5338,
    "ally": 454,
    "almost": 24234,
    "alo": 6962,
    "alog": 12953,
    "alogue": 28266,
    "alone": 17737,
    "along": 21813,
    "alph": 13921,
    "als": 866,
    "alse": 4090,
    "alsh": 17612,
    "also": 14452,
    "alt": 2507,
    "alth": 1074,
    "although": 15468,
    "alties": 9983,
    "alty": 6285,
    "aly": 3396,
    "alys": 29033,
    "alysis": 9878,
    "am": 324,
    "ama": 1280,
    "amac": 8760,
    "amacare": 8877,
    "aman": 12018,
    "amar": 30842,
    "amas": 15161,
    "amation": 15717,
    "amb": 3560,
    "amba": 27567,
    "amber": 7839,
    "ambers": 15765,
    "ambig": 26134,
    "ambled": 26847,
    "ambling": 11423,
    "ambo": 23630,
    "amboo": 29992,
    "ame": 492,
    "amed": 2028,
    "amel": 19944,
    "ament": 1854,
    "amental": 25331,
    "aments": 11070,
    "amer": 2177,
    "amera": 18525,
    "ames": 1009,
    "ami": 7921,
    "amic": 21084,
    "amiliar": 17743,
    "amily": 6639,
    "amin": 6059,
    "amina": 29996,
    "amination": 29455,
    "amine": 10712,
    "aminer": 26164,
    "aming": 3228,
    "amins": 28019,
    "amm": 5683,
    "ammad": 20532,
    "ammar": 17030,
    "ammed": 8610,
    "ammy": 23773,
    "amo": 15289,
    "amon": 17666,
    "among": 30857,
    "amoto": 23504,
    "amount": 18324,
    "amous": 9972,
    "amp": 672,
    "ampa": 11182,
    "amped": 15182,
    "amph": 26124,
    "amphetamine": 31215,
    "amping": 31294,
    "ampion": 5869,
    "ampions": 3535,
    "ampionship": 4579,
    "ampire": 18095,
    "ample": 1473,
    "amples": 18604,
    "amps": 13498,
    "ampton": 16668,
    "ams": 1849,
    "amsung": 8048,
    "amus": 25663,
    "amy": 15227,
    "an": 273,
    "ana": 2133,
    "analysis": 24851,
    "anamo": 23611,
    "anan": 23643,
    "anas": 17652,
    "anc": 1156,
    "ance": 606,
    "anced": 3214,
    "ancer": 18329,
    "ancers": 20280,
    "ances": 1825,
    "anch": 3463,
    "anche": 5376,
    "anches": 12022,
    "anchester": 7474,
    "anchez": 16558,
    "ancial": 2483,
    "ancies": 15958,
    "ancing": 4981,
    "anco": 25539,
    "ancouver": 8214,
    "ancy": 4736,
    "and": 389,
    "anda": 4853,
    "andal": 6373,
    "andals": 18123,
    "ande": 28550,
    "anded": 12272,
    "andem": 26082,
    "ander": 4318,
    "andi": 28636,
    "anding": 16726,
    "ando": 16054,
    "andom": 4558,
    "andon": 4669,
    "andra": 24548,
    "andro": 23705,
    "android": 30874,
    "ands": 1697,
    "andum": 24868,
    "andy": 12343,
    "ane": 1576,
    "aned": 17820,
    "aneous": 14533,
    "aneously": 26742,
    "anes": 6608,
    "aney": 18448,
    "ang": 667,
    "anga": 22088,
    "ange": 878,
    "anged": 5685,
    "angel": 8471,
    "anger": 2551,
    "angered": 15780,
    "angerous": 22458,
    "angers": 5858,
    "anges": 6874,
    "anging": 4727,
    "angle": 9876,
    "angled": 19536,
    "angles": 28289,
    "angling": 24417,
    "ango": 14893,
    "angs": 28882,
    "angu": 2327,
    "anguage": 11258,
    "anguard": 26390,
    "angular": 21749,
    "ani": 3164,
    "ania": 5017,
    "anic": 25564,
    "anie": 30049,
    "aniel": 5816,
    "anies": 16797,
    "anim": 10749,
    "aning": 7931,
    "anish": 6437,
    "anity": 19622,
    "anium": 13593,
    "ank": 957,
    "anka": 13317,
    "anke": 27559,
    "anked": 13350,
    "ankind": 29537,
    "anking": 12827,
    "anks": 2962,
    "ann": 1594,
    "anna": 8366,
    "annah": 25128,
    "anne": 15614,
    "annel": 4635,
    "annels": 8769,
    "anners": 18278,
    "anni": 27386,
    "annie": 30056,
    "annon": 9647,
    "anny": 7409,
    "ano": 5031,
    "anoia": 26521,
    "anol": 21087,
    "another": 27423,
    "anqu": 28232,
    "ans": 493,
    "ansas": 5952,
    "ansen": 29513,
    "ansing": 20595,
    "ansion": 5219,
    "ansk": 31099,
    "ansom": 18136,
    "anson": 19227,
    "ant": 420,
    "anta": 19148,
    "ante": 11214,
    "anted": 4594,
    "anth": 29075,
    "antha": 28503,
    "anthrop": 18419,
    "anti": 14786,
    "antic": 7741,
    "antically": 29805,
    "antics": 28578,
    "antine": 21284,
    "anting": 15068,
    "antly": 3884,
    "anto": 13808,
    "antom": 17890,
    "anton": 19049,
    "antry": 20766,
    "ants": 1207,
    "any": 1010,
    "anya": 31504,
    "anyahu": 11535,
    "anye": 23038,
    "anyon": 20852,
    "anz": 25709,
    "anza": 30904,
    "ao": 6929,
    "ap": 462,
    "apa": 30074,
    "apan": 2576,
    "ape": 2167,
    "aped": 5786,
    "apego": 31721,
    "aper": 2032,
    "apers": 5244,
    "apes": 7246,
    "apest": 30832,
    "aph": 3113,
    "api": 22890,
    "aping": 8891,
    "apolis": 9600,
    "apon": 28799,
    "apor": 14726,
    "apore": 10247,
    "app": 1322,
    "appa": 25220,
    "apped": 4865,
    "apper": 10816,
    "apping": 5648,
    "appings": 30032,
    "apple": 24609,
    "appointed": 26984,
    "appro": 15547,
    "appropri": 10425,
    "appropriate": 12056,
    "approved": 26267,
    "appy": 8189,
    "aps": 1580,
    "apse": 6872,
    "apt": 2865,
    "apter": 5603,
    "aptic": 31254,
    "apture": 25798,
    "apy": 14083,
    "aq": 16704,
    "aqu": 21521,
    "aque": 17787,
    "ar": 285,
    "ara": 3446,
    "arag": 28147,
    "arak": 19439,
    "arant": 4696,
    "aration": 9789,
    "arc": 2436,
    "arcer": 15304,
    "arch": 977,
    "arching": 31120,
    "archive": 30305,
    "archs": 29956,
    "archy": 9097,
    "arcity": 27727,
    "arcraft": 28978,
    "ard": 458,
    "arded": 11567,
    "arden": 6308,
    "ardi": 18273,
    "arding": 13260,
    "ardless": 13330,
    "ardo": 11190,
    "ardon": 19630,
    "ards": 1443,
    "ardy": 30831,
    "are": 530,
    "area": 18376,
    "ared": 1121,
    "arel": 22366,
    "aren": 5162,
    "arency": 10134,
    "arendra": 21447,
    "arent": 1547,
    "arenthood": 13082,
    "arently": 11921,
    "arents": 13026,
    "arer": 11812,
    "ares": 3706,
    "arest": 13248,
    "aret": 8477,
    "areth": 24089,
    "arette": 14468,
    "arettes": 12720,
    "arez": 15920,
    "arg": 860,
    "arge": 1201,
    "arget": 10203,
    "argo": 8903,
    "ari": 3262,
    "aria": 9708,
    "arian": 3413,
    "arians": 11702,
    "ariat": 20999,
    "aries": 3100,
    "arily": 3007,
    "arin": 16517,
    "aring": 1604,
    "ario": 4517,
    "arios": 11713,
    "arious": 19008,
    "aris": 22854,
    "arity": 6979,
    "arium": 20454,
    "arius": 21905,
    "ark": 676,
    "arks": 5158,
    "arl": 5970,
    "arlier": 7903,
    "arly": 872,
    "arm": 1863,
    "arma": 11923,
    "armac": 31594,
    "armed": 11267,
    "arming": 17080,
    "arms": 8526,
    "arn": 5963,
    "aro": 10585,
    "aron": 7324,
    "around": 12871,
    "arp": 5576,
    "arr": 3332,
    "arrass": 8220,
    "array": 24034,
    "arre": 8880,
    "arrett": 27306,
    "arrison": 21505,
    "arro": 29013,
    "arrow": 27817,
    "arry": 6888,
    "ars": 943,
    "arse": 17317,
    "arsh": 5078,
    "arson": 10673,
    "art": 428,
    "arta": 28642,
    "arte": 30503,
    "arted": 10107,
    "arten": 21265,
    "arter": 2289,
    "arters": 6067,
    "arth": 3075,
    "arthed": 30776,
    "arthy": 13551,
    "article": 22298,
    "articles": 27574,
    "artisan": 14393,
    "artment": 1681,
    "artney": 30921,
    "arts": 9825,
    "arty": 27668,
    "artz": 21729,
    "aru": 15339,
    "arus": 22720,
    "ary": 557,
    "as": 292,
    "asa": 15616,
    "asant": 9562,
    "asc": 3149,
    "ascal": 25265,
    "ascist": 26977,
    "ascript": 17747,
    "ascular": 18069,
    "ascus": 16740,
    "ase": 624,
    "ased": 824,
    "aser": 6885,
    "asers": 28852,
    "ases": 1436,
    "ash": 1137,
    "asha": 17692,
    "ashed": 5182,
    "ashes": 7631,
    "ashi": 15218,
    "ashing": 1852,
    "ashington": 2095,
    "ashion": 5521,
    "ashtra": 29467,
    "asi": 13837,
    "asia": 31113,
    "asing": 2145,
    "asio": 22642,
    "asion": 7786,
    "asis": 20581,
    "asive": 16024,
    "ask": 2284,
    "aska": 7783,
    "asket": 16805,
    "asketball": 22917,
    "asking": 26395,
    "asks": 6860,
    "asm": 11393,
    "asma": 15525,
    "ason": 816,
    "asonable": 17679,
    "asonic": 30260,
    "asons": 2546,
    "asp": 5653,
    "aspberry": 19379,
    "asper": 30920,
    "ass": 576,
    "assad": 28846,
    "assador": 8965,
    "assadors": 31827,
    "asse": 14470,
    "assed": 21936,
    "asser": 22501,
    "asses": 24597,
    "assic": 26879,
    "assing": 22900,
    "assion": 11302,
    "assis": 21382,
    "assium": 30837,
    "assuming": 30903,
    "assy": 9832,
    "ast": 469,
    "aste": 10895,
    "asted": 12395,
    "aster": 1861,
    "astered": 28074,
    "astern": 5854,
    "asters": 7143,
    "astery": 28314,
    "astic": 3496,
    "astical": 31377,
    "astically": 13517,
    "astics": 22394,
    "asting": 15678,
    "aston": 30836,
    "astrous": 15853,
    "asts": 7023,
    "asty": 9310,
    "asure": 6048,
    "asures": 15899,
    "asury": 9530,
    "asy": 4510,
    "at": 267,
    "ata": 1147,
    "atable": 16634,
    "atal": 12000,
    "atalie": 27659,
    "atar": 9222,
    "atch": 1007,
    "atched": 15297,
    "atching": 17228,
    "ate": 369,
    "ated": 517,
    "ateful": 10903,
    "ateg": 2549,
    "ategory": 16972,
    "ategy": 3893,
    "atel": 20911,
    "atell": 6481,
    "atellite": 27169,
    "ately": 1264,
    "ater": 733,
    "ateral": 9819,
    "atered": 28708,
    "aterial": 2620,
    "atern": 9545,
    "aternal": 15609,
    "aternity": 16291,
    "aters": 13819,
    "ates": 675,
    "ateur": 13675,
    "atever": 3554,
    "atform": 3165,
    "ath": 833,
    "athan": 6158,
    "athe": 25401,
    "athed": 28661,
    "ather": 1030,
    "athered": 7820,
    "atherine": 13977,
    "athering": 25255,
    "athetic": 16406,
    "athing": 23573,
    "athom": 29252,
    "athon": 11917,
    "athy": 7619,
    "ati": 6764,
    "atible": 24162,
    "atic": 2029,
    "atical": 22780,
    "atically": 4495,
    "atican": 15056,
    "atics": 17013,
    "atile": 12629,
    "atility": 17224,
    "atin": 12193,
    "ating": 800,
    "atinum": 19872,
    "ation": 343,
    "ational": 789,
    "ationally": 12757,
    "ations": 590,
    "atisf": 16220,
    "atism": 19643,
    "ative": 854,
    "atively": 9934,
    "atives": 2632,
    "ativity": 19436,
    "atlantic": 31402,
    "ato": 5690,
    "atoes": 12199,
    "aton": 13679,
    "ator": 1543,
    "atorial": 17855,
    "atories": 18321,
    "atorium": 24848,
    "ators": 1981,
    "atory": 2939,
    "atra": 22752,
    "atre": 12286,
    "atri": 22257,
    "ats": 1656,
    "atsu": 24948,
    "att": 2217,
    "atta": 23332,
    "attack": 17767,
    "attacks": 29988,
    "atter": 11685,
    "attered": 10693,
    "attering": 19138,
    "atti": 26628,
    "attle": 3874,
    "attled": 23950,
    "atts": 24239,
    "atum": 29404,
    "atur": 2382,
    "atural": 2715,
    "aturally": 7554,
    "aturday": 3123,
    "ature": 1357,
    "atured": 20817,
    "atures": 5271,
    "aturing": 30284,
    "atus": 10238,
    "atz": 23084,
    "au": 555,
    "auc": 12542,
    "aucas": 23114,
    "aucus": 12049,
    "aucuses": 27323,
    "aud": 3668,
    "aude": 23548,
    "audi": 27057,
    "auer": 13785,
    "auf": 22163,
    "aug": 7017,
    "augh": 1557,
    "aughed": 15015,
    "aughs": 16417,
    "aught": 3337,
    "aughter": 3580,
    "aughtered": 29834,
    "aughters": 12177,
    "aukee": 12929,
    "aul": 2196,
    "ault": 2125,
    "aun": 7100,
    "aunch": 21652,
    "aunted": 25019,
    "aunting": 19451,
    "aur": 2854,
    "aura": 30983,
    "aus": 7868,
    "ause": 669,
    "ausible": 15375,
    "aut": 2531,
    "auth": 18162,
    "author": 9721,
    "authored": 31763,
    "authorized": 18890,
    "aution": 27660,
    "autions": 30585,
    "aux": 13480,
    "av": 623,
    "ava": 4745,
    "available": 16434,
    "aval": 8743,
    "avan": 19980,
    "ave": 1026,
    "aved": 9392,
    "aven": 5125,
    "aver": 9228,
    "average": 21593,
    "aves": 3294,
    "avez": 21833,
    "avi": 16076,
    "avier": 23398,
    "avin": 20071,
    "aving": 2637,
    "avior": 20224,
    "avoid": 25617,
    "avor": 6750,
    "avorite": 24163,
    "avour": 31304,
    "avy": 2905,
    "aw": 695,
    "awa": 6625,
    "aware": 8935,
    "away": 8060,
    "aways": 20899,
    "awei": 27720,
    "awi": 18887,
    "awk": 23312,
    "awks": 10571,
    "awn": 5060,
    "aws": 13170,
    "ax": 956,
    "axies": 20470,
    "axis": 26861,
    "axy": 6975,
    "ay": 319,
    "aya": 11380,
    "ayan": 20201,
    "aye": 30017,
    "ayed": 12473,
    "ayer": 5146,
    "ayers": 6538,
    "ayette": 24720,
    "aying": 8101,
    "aylor": 6758,
    "ays": 567,
    "ayson": 28217,
    "az": 1038,
    "aza": 6095,
    "azar": 19037,
    "aze": 6756,
    "azed": 14167,
    "azeera": 19296,
    "azer": 19344,
    "azers": 25549,
    "azi": 6749,
    "azine": 4860,
    "azines": 14970,
    "azing": 4331,
    "azingly": 23660,
    "azon": 4656,
    "azor": 18562,
    "azy": 12673,
    "azz": 7754,
    "b": 98,
    "ba": 7687,
    "bable": 28018,
    "bably": 11732,
    "bach": 17557,
    "back": 1803,
    "backed": 13094,
    "backs": 8858,
    "bad": 14806,
    "bag": 20726,
    "bage": 12903,
    "bai": 22875,
    "bal": 7549,
    "balance": 20368,
    "balanced": 27612,
    "ball": 1723,
    "balls": 17900,
    "ban": 3411,
    "band": 3714,
    "bands": 21204,
    "bane": 18072,
    "bank": 17876,
    "bar": 6603,
    "bard": 19587,
    "bart": 12612,
    "bas": 17824,
    "base": 9736,
    "based": 2792,
    "bast": 18161,
    "bat": 11106,
    "baum": 21502,
    "bay": 28658,
    "bb": 15796,
    "bc": 23512,
    "bd": 31774,
    "be": 1342,
    "bean": 14059,
    "bearing": 28943,
    "beat": 11600,
    "bec": 8191,
    "because": 12509,
    "becca": 19380,
    "beck": 23244,
    "becue": 27555,
    "bed": 3102,
    "bedroom": 29103,
    "bee": 20902,
    "before": 21118,
    "begin": 31281,
    "beh": 20463,
    "being": 11142,
    "beit": 12990,
    "bel": 6722,
    "belie": 24642,
    "belief": 22120,
    "believ": 15982,
    "bell": 7894,
    "ben": 10432,
    "bench": 27032,
    "ber": 519,
    "bered": 9657,
    "berg": 3555,
    "berger": 17749,
    "berman": 26139,
    "bern": 27013,
    "bernatorial": 31016,
    "berra": 26231,
    "berries": 23437,
    "berry": 9283,
    "bers": 1155,
    "bert": 4364,
    "berto": 26775,
    "bery": 11449,
    "bes": 11322,
    "best": 12759,
    "bet": 11688,
    "better": 24289,
    "between": 23881,
    "bey": 21945,
    "bf": 28633,
    "bi": 8674,
    "bial": 20207,
    "bian": 11028,
    "bians": 26362,
    "bid": 25070,
    "bie": 12203,
    "big": 12947,
    "bike": 28012,
    "bil": 27340,
    "billion": 18601,
    "bilt": 29627,
    "bin": 10961,
    "bing": 9933,
    "bird": 19131,
    "birds": 31422,
    "birth": 25930,
    "bish": 27609,
    "bishop": 22537,
    "bit": 2618,
    "bitious": 11277,
    "bits": 9757,
    "bl": 2894,
    "black": 14039,
    "blank": 29220,
    "ble": 900,
    "bled": 19741,
    "blem": 13979,
    "blems": 24341,
    "bles": 12841,
    "bley": 31679,
    "blind": 29900,
    "bling": 20422,
    "block": 11306,
    "blog": 13926,
    "blood": 20097,
    "blown": 25770,
    "blue": 20121,
    "bn": 8307,
    "bnb": 26627,
    "bo": 2385,
    "board": 3715,
    "boarding": 21446,
    "boards": 12352,
    "boat": 23290,
    "body": 2360,
    "bol": 31577,
    "bomb": 28134,
    "bon": 3943,
    "bone": 15388,
    "bons": 21948,
    "book": 1806,
    "books": 10603,
    "boot": 26227,
    "bor": 2700,
    "border": 22999,
    "borg": 25417,
    "borhood": 29251,
    "born": 6372,
    "borne": 12307,
    "boro": 20947,
    "borough": 14655,
    "bot": 15192,
    "both": 16426,
    "bottom": 26918,
    "bound": 10672,
    "bour": 4802,
    "bourg": 22107,
    "bourne": 10387,
    "bow": 9279,
    "bows": 28649,
    "box": 3809,
    "boxes": 31675,
    "boy": 6761,
    "boys": 11348,
    "bps": 19555,
    "br": 1696,
    "bra": 16693,
    "brain": 27770,
    "bral": 25694,
    "brance": 31224,
    "brand": 19828,
    "branded": 29201,
    "braska": 15538,
    "bre": 4744,
    "bread": 29866,
    "break": 9303,
    "breaker": 27479,
    "breaking": 11126,
    "breaks": 26194,
    "brew": 12277,
    "brid": 10003,
    "bridge": 9008,
    "bright": 28831,
    "bringing": 29931,
    "bro": 7586,
    "broken": 23569,
    "brook": 17554,
    "brow": 30911,
    "bs": 1564,
    "bsite": 14809,
    "bsp": 27393,
    "bt": 25350,
    "bu": 12105,
    "buck": 29072,
    "bucks": 18224,
    "budget": 28648,
    "bug": 31323,
    "build": 15231,
    "building": 15087,
    "built": 19158,
    "bul": 14231,
    "bull": 13604,
    "bum": 3740,
    "buquerque": 30313,
    "bur": 6072,
    "burg": 6747,
    "burgh": 8013,
    "burn": 11821,
    "bury": 9554,
    "bus": 17784,
    "business": 19846,
    "buster": 20467,
    "busters": 24613,
    "but": 4591,
    "button": 23161,
    "buy": 26854,
    "by": 1540,
    "bye": 16561,
    "byn": 12282,
    "c": 99,
    "ca": 7999,
    "cair": 30048,
    "cal": 10500,
    "call": 16089,
    "called": 5930,
    "cam": 21023,
    "camera": 23287,
    "camp": 17398,
    "can": 5914,
    "cann": 29165,
    "cano": 21932,
    "cap": 10713,
    "capital": 23086,
    "caps": 25602,
    "car": 7840,
    "carbon": 24893,
    "card": 10884,
    "cards": 31289,
    "care": 5769,
    "carry": 30992,
    "cars": 30882,
    "cart": 29505,
    "cas": 26595,
    "case": 8466,
    "cast": 2684,
    "caster": 30410,
    "casting": 20061,
    "castle": 15063,
    "cat": 11426,
    "cation": 25226,
    "cats": 23224,
    "cause": 24629,
    "cc": 532,
    "cca": 14168,
    "ccess": 1519,
    "ccording": 2413,
    "cd": 15783,
    "ce": 347,
    "cean": 5445,
    "ceans": 16936,
    "ced": 766,
    "cedented": 9705,
    "cedes": 15749,
    "ceed": 2983,
    "ceived": 6664,
    "cel": 5511,
    "celer": 6986,
    "cell": 4230,
    "celona": 11695,
    "cember": 2943,
    "cend": 13631,
    "cent": 1013,
    "center": 19800,
    "central": 31947,
    "centric": 22968,
    "century": 11504,
    "cept": 1040,
    "ception": 4733,
    "ceptions": 9588,
    "ceptive": 23836,
    "cer": 1049,
    "cerpt": 15680,
    "cers": 7048,
    "cert": 31026,
    "certain": 6549,
    "cery": 31491,
    "ces": 724,
    "cess": 969,
    "cest": 9684,
    "cester": 28753,
    "cf": 21088,
    "ch": 355,
    "cha": 13325,
    "chain": 7507,
    "chair": 14541,
    "chan": 3607,
    "change": 3847,
    "changing": 19837,
    "channel": 29273,
    "chant": 16818,
    "char": 13405,
    "character": 23006,
    "chard": 28574,
    "charg": 11516,
    "charge": 12599,
    "charged": 16817,
    "charging": 31212,
    "chat": 18374,
    "che": 2565,
    "check": 10085,
    "checked": 25809,
    "ched": 1649,
    "chedel": 19988,
    "chel": 26937,
    "chell": 10612,
    "chem": 19367,
    "chemical": 31837,
    "chen": 6452,
    "chens": 24189,
    "cher": 4148,
    "chers": 6599,
    "ches": 2098,
    "chet": 24122,
    "chewan": 23397,
    "chi": 12531,
    "chie": 2888,
    "chief": 15898,
    "child": 9696,
    "children": 16144,
    "chin": 22912,
    "ching": 10402,
    "chn": 1266,
    "chnology": 17506,
    "cho": 6425,
    "choice": 22287,
    "chool": 1167,
    "chron": 12092,
    "cht": 17264,
    "church": 29611,
    "chy": 27857,
    "ci": 1044,
    "cia": 29011,
    "cial": 2492,
    "cially": 1972,
    "ciation": 18964,
    "cience": 4277,
    "cient": 3655,
    "cier": 27365,
    "cies": 3042,
    "cific": 8388,
    "cifically": 17326,
    "cified": 21081,
    "cig": 19921,
    "cigarettes": 27197,
    "cil": 2523,
    "cill": 14825,
    "cin": 20096,
    "cing": 2117,
    "cious": 5172,
    "ciously": 18952,
    "cip": 24919,
    "cipl": 19712,
    "cipled": 31960,
    "ciples": 7057,
    "circ": 21738,
    "cision": 19325,
    "citation": 11237,
    "city": 20818,
    "cium": 22293,
    "civil": 31811,
    "ck": 726,
    "cker": 13370,
    "cknow": 4748,
    "cks": 4859,
    "cl": 1249,
    "clad": 31921,
    "claim": 8606,
    "claimed": 13379,
    "clair": 24235,
    "clamation": 24795,
    "class": 5392,
    "cle": 3016,
    "clean": 28084,
    "clear": 25749,
    "cled": 20722,
    "cles": 7705,
    "click": 15832,
    "client": 26603,
    "cliffe": 30879,
    "cling": 7737,
    "clipse": 31332,
    "clock": 18508,
    "close": 22607,
    "closed": 14748,
    "closure": 13912,
    "cloud": 24340,
    "club": 17114,
    "clus": 2788,
    "clusion": 14720,
    "clusive": 16301,
    "cm": 15167,
    "cn": 31492,
    "co": 1300,
    "coal": 28830,
    "cock": 18318,
    "cod": 21483,
    "code": 11890,
    "coh": 5215,
    "cohol": 5585,
    "coholic": 22351,
    "coin": 3383,
    "coins": 13437,
    "col": 5506,
    "coll": 21330,
    "collar": 28543,
    "colm": 15908,
    "color": 15146,
    "colored": 26305,
    "com": 908,
    "comb": 21903,
    "come": 3070,
    "comed": 12408,
    "comes": 9018,
    "comfort": 19595,
    "coming": 4359,
    "comings": 25345,
    "comm": 14348,
    "comment": 25165,
    "comments": 31583,
    "commerce": 22833,
    "committee": 22848,
    "common": 19195,
    "commun": 10507,
    "communication": 31740,
    "communications": 19076,
    "community": 29935,
    "comp": 11210,
    "compass": 16172,
    "compet": 22512,
    "compl": 23293,
    "complete": 19897,
    "computer": 29068,
    "con": 1048,
    "cond": 18108,
    "conf": 8844,
    "conference": 31648,
    "config": 18995,
    "coni": 30238,
    "connect": 12363,
    "connected": 17964,
    "conom": 1274,
    "cons": 5988,
    "conscious": 18317,
    "const": 9767,
    "constitutional": 15036,
    "consuming": 30251,
    "cont": 4152,
    "content": 16683,
    "contin": 25561,
    "continental": 30332,
    "contract": 27903,
    "control": 15114,
    "controlled": 12643,
    "cook": 31361,
    "cool": 24021,
    "coon": 29873,
    "cop": 26904,
    "cor": 10135,
    "core": 8266,
    "corn": 23648,
    "correct": 29622,
    "cos": 5961,
    "cost": 15054,
    "cosystem": 10008,
    "cot": 19610,
    "cott": 11478,
    "could": 20893,
    "count": 11637,
    "counter": 26143,
    "country": 21301,
    "course": 19886,
    "court": 17484,
    "cover": 8612,
    "covered": 29718,
    "covery": 16084,
    "cow": 7066,
    "cp": 23308,
    "cr": 7340,
    "craft": 3723,
    "crat": 12663,
    "cre": 10248,
    "creat": 22772,
    "create": 21126,
    "created": 25468,
    "crib": 9094,
    "cribed": 13322,
    "crime": 23251,
    "cript": 6994,
    "cription": 7971,
    "criptions": 22422,
    "critical": 23629,
    "cro": 20746,
    "croft": 31341,
    "cross": 21196,
    "cry": 20715,
    "cs": 13007,
    "css": 31510,
    "ct": 334,
    "ctic": 9001,
    "ctica": 23369,
    "ction": 652,
    "ctions": 2963,
    "ctive": 14565,
    "ctor": 2647,
    "ctors": 4590,
    "ctory": 25538,
    "ctr": 30341,
    "ctuary": 29741,
    "cu": 26469,
    "cue": 19225,
    "cul": 3724,
    "cular": 11524,
    "culation": 15701,
    "cule": 21797,
    "cules": 14144,
    "cultural": 26499,
    "culture": 21238,
    "culus": 15763,
    "cup": 28060,
    "cur": 18816,
    "current": 16587,
    "cus": 7751,
    "custom": 29775,
    "cut": 9058,
    "cuts": 23644,
    "cutting": 25233,
    "cy": 963,
    "cycl": 18597,
    "cycle": 29106,
    "cyclop": 25705,
    "cyclopedia": 29437,
    "cz": 24600,
    "cÃ©": 26964,
    "d": 100,
    "da": 7608,
    "daily": 26547,
    "dain": 22961,
    "dale": 12835,
    "dam": 12166,
    "dan": 23061,
    "dar": 25191,
    "dark": 25254,
    "dat": 27328,
    "data": 11726,
    "date": 6007,
    "dated": 8840,
    "dates": 24365,
    "daughter": 27828,
    "day": 738,
    "days": 13814,
    "db": 14438,
    "dc": 28373,
    "dd": 2086,
    "dden": 4966,
    "dding": 30461,
    "de": 3419,
    "dead": 24507,
    "deal": 31483,
    "death": 21825,
    "deb": 16678,
    "dec": 12396,
    "ded": 9351,
    "deep": 19052,
    "def": 6066,
    "default": 23678,
    "defense": 17817,
    "define": 30706,
    "defined": 25426,
    "deg": 12474,
    "degree": 14573,
    "del": 14387,
    "dem": 8272,
    "demand": 24978,
    "den": 5257,
    "dep": 10926,
    "dependent": 22628,
    "depth": 18018,
    "der": 1146,
    "des": 8666,
    "desc": 16408,
    "described": 29027,
    "description": 29915,
    "design": 25574,
    "designed": 26803,
    "dest": 17930,
    "det": 19071,
    "deter": 21978,
    "dev": 11729,
    "develop": 15627,
    "developed": 28411,
    "df": 11046,
    "di": 12334,
    "dict": 10991,
    "did": 19469,
    "die": 15208,
    "dies": 22454,
    "dig": 13078,
    "digit": 24128,
    "dimensional": 18246,
    "din": 20171,
    "ding": 12437,
    "dir": 27531,
    "direct": 13209,
    "directed": 29448,
    "director": 27435,
    "dis": 6317,
    "disc": 14889,
    "discipl": 29991,
    "display": 14066,
    "displaystyle": 18390,
    "dist": 18130,
    "distance": 29471,
    "dit": 8637,
    "div": 9633,
    "division": 30343,
    "dney": 9053,
    "do": 4664,
    "doc": 21082,
    "document": 28007,
    "does": 21140,
    "dog": 8950,
    "dogs": 21293,
    "doing": 16087,
    "dollar": 17473,
    "dom": 3889,
    "dominated": 26536,
    "don": 9194,
    "done": 29493,
    "door": 9024,
    "doors": 19237,
    "dot": 27109,
    "double": 27293,
    "down": 2914,
    "download": 27688,
    "dr": 10460,
    "dragon": 27701,
    "draw": 25681,
    "dream": 29333,
    "dri": 8698,
    "drive": 24271,
    "driven": 13534,
    "driving": 18682,
    "dro": 6897,
    "drop": 12661,
    "dropping": 30742,
    "drug": 28193,
    "ds": 10071,
    "du": 654,
    "duc": 6326,
    "duct": 2470,
    "ducted": 20521,
    "duction": 10015,
    "due": 21709,
    "duino": 26056,
    "dule": 5916,
    "dullah": 19070,
    "duty": 23338,
    "dy": 9941,
    "e": 101,
    "ea": 23543,
    "each": 30472,
    "ead": 1310,
    "eah": 4951,
    "eal": 2229,
    "ealing": 26555,
    "ealous": 16349,
    "eals": 9547,
    "ean": 3894,
    "eanor": 17413,
    "ear": 465,
    "earance": 31293,
    "earch": 4108,
    "earchers": 13337,
    "eared": 3161,
    "earing": 7276,
    "early": 10485,
    "ears": 4445,
    "earth": 18676,
    "east": 23187,
    "eat": 28453,
    "eating": 26743,
    "eb": 1891,
    "ebus": 25929,
    "ec": 756,
    "eca": 28782,
    "ecause": 3058,
    "ecd": 18524,
    "ech": 2677,
    "eches": 13911,
    "econom": 12530,
    "economic": 15512,
    "ect": 500,
    "ected": 11895,
    "ection": 4115,
    "ective": 8493,
    "ector": 13188,
    "ects": 11406,
    "ecut": 8257,
    "ecutive": 9045,
    "ed": 277,
    "edIn": 16697,
    "eda": 22194,
    "edd": 5770,
    "eddy": 22659,
    "ede": 16427,
    "eded": 13343,
    "eder": 5350,
    "ederal": 1808,
    "ederation": 9287,
    "edge": 14759,
    "edia": 5562,
    "edience": 22244,
    "edin": 20229,
    "eding": 8819,
    "edo": 25642,
    "eds": 5760,
    "edu": 20494,
    "educ": 15926,
    "educated": 22087,
    "edy": 6214,
    "ee": 1554,
    "eed": 2438,
    "eeks": 26787,
    "eele": 21592,
    "een": 8343,
    "eenth": 29091,
    "eer": 29244,
    "ees": 2660,
    "ef": 955,
    "efe": 17841,
    "efeated": 29324,
    "eff": 3208,
    "effect": 27993,
    "effective": 26482,
    "efficient": 22034,
    "efined": 22561,
    "efully": 6519,
    "eg": 3018,
    "ega": 31104,
    "eger": 18003,
    "egr": 3458,
    "egu": 14956,
    "eh": 28301,
    "ei": 17916,
    "eight": 24199,
    "either": 31932,
    "ek": 911,
    "eking": 18330,
    "eks": 2321,
    "el": 425,
    "ela": 9046,
    "elaide": 19228,
    "eland": 7771,
    "elcome": 11944,
    "ele": 10825,
    "elect": 7781,
    "elected": 20808,
    "election": 10578,
    "electric": 24866,
    "eled": 17280,
    "eler": 16043,
    "eless": 5061,
    "elf": 8177,
    "elfare": 25693,
    "elia": 29604,
    "elig": 26330,
    "eligible": 29422,
    "elin": 24529,
    "eline": 4355,
    "elines": 17925,
    "eling": 10290,
    "ell": 840,
    "ella": 12666,
    "ellar": 13712,
    "ellation": 26188,
    "elle": 10272,
    "ellect": 6489,
    "ellectual": 26342,
    "elled": 17860,
    "eller": 11750,
    "elli": 22117,
    "ellig": 2724,
    "elligence": 3107,
    "elling": 15619,
    "ello": 11399,
    "ellow": 5965,
    "elly": 5805,
    "elman": 26192,
    "elo": 22520,
    "elong": 17897,
    "els": 1504,
    "elsen": 21164,
    "elsh": 17081,
    "elsius": 28395,
    "elson": 9400,
    "elt": 2083,
    "elta": 13253,
    "elve": 10696,
    "em": 414,
    "ema": 20555,
    "emade": 21538,
    "email": 15070,
    "emaker": 30509,
    "emale": 15722,
    "eman": 7982,
    "emb": 25091,
    "embed": 31902,
    "ember": 1588,
    "eme": 31007,
    "emed": 9285,
    "emen": 7411,
    "ement": 16629,
    "emer": 21309,
    "emet": 16865,
    "emetery": 17158,
    "emic": 9995,
    "emies": 30926,
    "emin": 11851,
    "eming": 28646,
    "emit": 11804,
    "emon": 22994,
    "employ": 5855,
    "employment": 28625,
    "emporary": 30485,
    "empt": 1731,
    "emption": 19546,
    "ems": 7047,
    "emy": 21396,
    "en": 269,
    "ena": 6411,
    "enable": 29934,
    "enabled": 26829,
    "ename": 22930,
    "enary": 23453,
    "enas": 29019,
    "enberg": 20128,
    "enburg": 30881,
    "enc": 13041,
    "ence": 586,
    "enced": 5296,
    "encer": 12061,
    "ences": 2958,
    "ench": 25253,
    "encia": 22508,
    "encies": 3751,
    "encing": 9013,
    "ency": 1332,
    "end": 441,
    "enda": 6023,
    "endant": 28467,
    "endar": 10278,
    "endas": 28390,
    "ende": 30072,
    "ended": 1716,
    "ender": 2243,
    "endered": 26587,
    "enders": 7073,
    "endez": 30491,
    "ending": 1490,
    "endment": 5416,
    "endo": 26909,
    "endon": 31550,
    "endor": 29845,
    "ends": 2586,
    "ene": 1682,
    "ened": 2900,
    "ener": 904,
    "eneration": 17919,
    "energy": 18538,
    "enery": 26407,
    "enes": 18608,
    "eness": 10122,
    "enez": 9234,
    "enezuel": 10095,
    "enf": 23884,
    "enfranch": 30177,
    "eng": 1601,
    "enge": 3348,
    "engeance": 26594,
    "enger": 6129,
    "engers": 8123,
    "engine": 18482,
    "ength": 3969,
    "engu": 13849,
    "enh": 23216,
    "ening": 2988,
    "enko": 25462,
    "enly": 17455,
    "enment": 21708,
    "enn": 1710,
    "enna": 12971,
    "enne": 28213,
    "ennial": 24702,
    "ennis": 9205,
    "enny": 8138,
    "eno": 23982,
    "enos": 24800,
    "ens": 636,
    "ense": 1066,
    "ensed": 17190,
    "ensen": 16747,
    "enses": 4909,
    "ensible": 28977,
    "ensing": 29356,
    "ension": 3231,
    "ensions": 5677,
    "ensitive": 28387,
    "ensity": 6804,
    "ensive": 1813,
    "enson": 16218,
    "ensor": 31236,
    "ensual": 28600,
    "ensus": 6572,
    "ent": 300,
    "enta": 30698,
    "ental": 10166,
    "ente": 20106,
    "ented": 4233,
    "enter": 9299,
    "enth": 7833,
    "enthal": 29292,
    "ential": 1721,
    "entially": 3227,
    "entials": 14373,
    "entin": 30813,
    "enting": 29983,
    "ention": 1158,
    "entions": 14954,
    "ently": 2180,
    "enton": 23628,
    "entric": 21018,
    "entry": 18203,
    "ents": 751,
    "enture": 6037,
    "enty": 3663,
    "env": 30676,
    "eny": 30809,
    "enz": 16582,
    "enza": 22551,
    "enzie": 22235,
    "eon": 23720,
    "eor": 12849,
    "eous": 18082,
    "ep": 527,
    "epend": 2411,
    "ependence": 14092,
    "ependent": 7892,
    "epernick": 22669,
    "eping": 7168,
    "eprint": 18642,
    "eps": 25898,
    "ept": 19338,
    "equ": 4622,
    "er": 264,
    "era": 7438,
    "eral": 1536,
    "erala": 27493,
    "erald": 11271,
    "erals": 16192,
    "erate": 27307,
    "erc": 3268,
    "ercise": 27756,
    "ere": 563,
    "ered": 1099,
    "erek": 15843,
    "erem": 24491,
    "eremy": 9755,
    "eren": 12746,
    "erence": 1929,
    "erences": 6381,
    "erenn": 26774,
    "erent": 9693,
    "erential": 29568,
    "erer": 12587,
    "erers": 17711,
    "erest": 1198,
    "erg": 8991,
    "ergy": 29824,
    "eri": 31242,
    "eria": 9779,
    "erie": 18437,
    "eries": 8846,
    "ering": 1340,
    "erion": 29516,
    "erk": 19966,
    "erm": 20226,
    "erman": 1953,
    "ern": 1524,
    "ername": 20200,
    "ernand": 11033,
    "ernandez": 15414,
    "ernel": 11767,
    "erness": 17691,
    "ernick": 21812,
    "erno": 31297,
    "ero": 3702,
    "eroids": 30409,
    "eros": 26412,
    "erous": 5119,
    "err": 11564,
    "error": 26992,
    "erry": 3800,
    "ers": 360,
    "ersion": 11920,
    "erson": 910,
    "ert": 1977,
    "ertain": 1456,
    "ertainly": 16278,
    "erted": 8878,
    "erting": 15604,
    "erts": 9286,
    "erv": 715,
    "ervation": 13638,
    "ervative": 17572,
    "ervatives": 29067,
    "erve": 3237,
    "erved": 8040,
    "erves": 10001,
    "ervice": 17107,
    "erville": 30500,
    "erving": 12616,
    "ery": 2247,
    "es": 276,
    "esame": 31109,
    "esar": 18656,
    "esc": 6488,
    "escope": 16060,
    "ese": 2849,
    "esh": 8484,
    "esides": 12083,
    "esis": 12869,
    "esity": 13987,
    "esome": 6105,
    "especially": 15328,
    "esque": 23070,
    "ess": 411,
    "essa": 20876,
    "essage": 17045,
    "esse": 28818,
    "essed": 7405,
    "essee": 9542,
    "essential": 27519,
    "essim": 23620,
    "ession": 2968,
    "essional": 13532,
    "essions": 5621,
    "essler": 28043,
    "essment": 24274,
    "essor": 5986,
    "essors": 19987,
    "est": 386,
    "esta": 15950,
    "established": 23784,
    "estation": 31169,
    "este": 16834,
    "ested": 9461,
    "esteem": 28573,
    "ester": 8196,
    "estern": 2959,
    "esters": 5788,
    "estial": 28795,
    "estic": 4222,
    "estinal": 25306,
    "estine": 20131,
    "estival": 5794,
    "eston": 17034,
    "estone": 12770,
    "estones": 28881,
    "ests": 2716,
    "esty": 8908,
    "estyle": 10264,
    "esville": 17218,
    "esy": 7441,
    "et": 322,
    "eta": 16299,
    "etary": 7649,
    "etc": 20287,
    "ete": 14653,
    "eted": 20137,
    "eteen": 31042,
    "eteenth": 25103,
    "eter": 2595,
    "etermined": 28589,
    "eters": 8954,
    "eth": 3104,
    "ethe": 9532,
    "etheless": 10978,
    "ether": 6831,
    "ethical": 26874,
    "ethyl": 28570,
    "etic": 5486,
    "etics": 22791,
    "eties": 26003,
    "etime": 7849,
    "eting": 13924,
    "etition": 16162,
    "etitive": 20551,
    "eto": 27364,
    "eton": 16651,
    "etooth": 17459,
    "etr": 22200,
    "etro": 3718,
    "etroit": 6429,
    "ets": 1054,
    "etsk": 25037,
    "ett": 3257,
    "etta": 13897,
    "ette": 6036,
    "ettes": 22841,
    "etti": 20926,
    "ettings": 20349,
    "etts": 7953,
    "etus": 25995,
    "ety": 2864,
    "etz": 18477,
    "eu": 12796,
    "eur": 19254,
    "eus": 23262,
    "ev": 1982,
    "eval": 19660,
    "even": 9760,
    "event": 20323,
    "ever": 983,
    "everal": 7521,
    "every": 15549,
    "evil": 23960,
    "evin": 5911,
    "ew": 561,
    "ewater": 26748,
    "eway": 17721,
    "eworthy": 22975,
    "ews": 16091,
    "ex": 1118,
    "example": 28868,
    "exc": 27222,
    "except": 19706,
    "exe": 24798,
    "existent": 29136,
    "existing": 22936,
    "exp": 14710,
    "exper": 21630,
    "expl": 21410,
    "ext": 3211,
    "extreme": 23430,
    "extremely": 31252,
    "ey": 4759,
    "eye": 27154,
    "eyed": 18280,
    "ez": 7245,
    "f": 102,
    "fa": 19012,
    "face": 2922,
    "facebook": 22269,
    "faced": 22304,
    "facing": 25322,
    "fact": 19917,
    "fair": 18472,
    "fake": 26171,
    "fall": 7642,
    "falls": 20875,
    "false": 21037,
    "family": 18551,
    "fan": 24669,
    "far": 14932,
    "fare": 9202,
    "fashion": 22331,
    "fashioned": 24423,
    "fast": 7190,
    "fat": 23486,
    "father": 10593,
    "fax": 19506,
    "fc": 27157,
    "fd": 27622,
    "fe": 5111,
    "fect": 2533,
    "fed": 20681,
    "feed": 14818,
    "feeding": 25667,
    "feld": 13463,
    "fell": 23419,
    "felt": 28075,
    "female": 28946,
    "femin": 29472,
    "fer": 2554,
    "ference": 4624,
    "fest": 22380,
    "fet": 26840,
    "few": 27492,
    "ff": 497,
    "ffield": 24466,
    "ffiti": 20638,
    "fi": 11933,
    "fiction": 22096,
    "field": 3037,
    "fields": 27841,
    "fif": 29172,
    "fig": 22533,
    "fight": 21192,
    "fighting": 25636,
    "figure": 25001,
    "fil": 12955,
    "file": 11983,
    "files": 26242,
    "fill": 21595,
    "filled": 18400,
    "film": 23794,
    "fin": 15283,
    "final": 18089,
    "finals": 23560,
    "find": 24587,
    "finder": 29225,
    "fing": 31229,
    "fire": 6925,
    "fired": 21066,
    "fires": 22578,
    "first": 11279,
    "fish": 11405,
    "fit": 10345,
    "fits": 19252,
    "fitting": 30046,
    "five": 13213,
    "fix": 17293,
    "fl": 3307,
    "flation": 28679,
    "flies": 28583,
    "flight": 19907,
    "flix": 8759,
    "float": 26529,
    "floor": 26860,
    "flow": 12028,
    "flower": 28749,
    "fly": 13358,
    "fo": 29714,
    "focused": 21944,
    "fol": 9164,
    "fold": 12823,
    "folk": 20393,
    "follow": 27179,
    "font": 26406,
    "foo": 29498,
    "food": 18812,
    "foot": 6630,
    "for": 1625,
    "force": 2982,
    "forcement": 13018,
    "ford": 3451,
    "fore": 773,
    "forest": 29938,
    "forestation": 31459,
    "fork": 31739,
    "form": 711,
    "formance": 11904,
    "format": 28866,
    "formation": 4834,
    "formed": 12212,
    "former": 11586,
    "formers": 26071,
    "forming": 14622,
    "forms": 26724,
    "fort": 3389,
    "forth": 24188,
    "fortunately": 6300,
    "forward": 11139,
    "found": 7823,
    "founded": 22532,
    "founder": 11946,
    "four": 14075,
    "fox": 12781,
    "fr": 8096,
    "frac": 21588,
    "frame": 15190,
    "fre": 26057,
    "free": 5766,
    "frequ": 29553,
    "fried": 29454,
    "friend": 6547,
    "friendly": 11370,
    "from": 7525,
    "front": 7694,
    "fs": 12375,
    "ft": 717,
    "ften": 14400,
    "fter": 620,
    "ftime": 26780,
    "fts": 31522,
    "fty": 16932,
    "fu": 26123,
    "fuel": 22466,
    "ful": 919,
    "full": 15497,
    "fully": 2837,
    "fulness": 15618,
    "fun": 18144,
    "function": 10751,
    "fund": 9039,
    "funded": 14104,
    "funding": 20103,
    "furt": 24802,
    "fy": 25134,
    "g": 103,
    "ga": 4963,
    "gaard": 30198,
    "gae": 21587,
    "gage": 21442,
    "gal": 11547,
    "gall": 26239,
    "gam": 24772,
    "game": 6453,
    "games": 26753,
    "gan": 942,
    "gang": 26266,
    "gar": 4967,
    "gard": 23377,
    "gary": 12165,
    "gas": 19231,
    "gate": 10471,
    "gay": 18138,
    "ge": 479,
    "geant": 26101,
    "gebra": 29656,
    "ged": 1934,
    "gel": 13959,
    "gem": 19244,
    "gen": 4197,
    "gence": 11725,
    "gencies": 31161,
    "gency": 4604,
    "gender": 6945,
    "gener": 8427,
    "general": 22241,
    "generated": 28735,
    "generation": 16307,
    "gent": 6149,
    "gently": 29242,
    "geon": 8635,
    "geoning": 26507,
    "geons": 31509,
    "ger": 1387,
    "gerald": 22234,
    "gered": 9824,
    "geries": 25359,
    "gering": 23300,
    "gers": 5020,
    "gery": 6875,
    "ges": 3089,
    "gest": 2976,
    "get": 1134,
    "gether": 1898,
    "getown": 24081,
    "gets": 10463,
    "gg": 1002,
    "gged": 10925,
    "gger": 19426,
    "ggest": 1770,
    "ggie": 20182,
    "gging": 17359,
    "ggle": 15925,
    "ggles": 31884,
    "ggy": 18572,
    "gh": 464,
    "ghai": 16690,
    "ghan": 4480,
    "ghazi": 16866,
    "gi": 13118,
    "gia": 6056,
    "gian": 13109,
    "gic": 24347,
    "gie": 20327,
    "giene": 27766,
    "gin": 1619,
    "ging": 2708,
    "gio": 22090,
    "girl": 17125,
    "git": 24382,
    "github": 23148,
    "give": 29744,
    "given": 31826,
    "giving": 13200,
    "gl": 5367,
    "glas": 12665,
    "glass": 21450,
    "global": 23101,
    "glomer": 28368,
    "gly": 10915,
    "gmail": 19222,
    "gment": 5609,
    "gments": 12155,
    "gn": 5085,
    "go": 2111,
    "goal": 27986,
    "god": 31050,
    "goers": 24167,
    "going": 4588,
    "gold": 29278,
    "gom": 16225,
    "gomery": 16920,
    "gon": 17593,
    "gone": 18883,
    "good": 10829,
    "google": 24127,
    "gor": 6721,
    "gorith": 7410,
    "got": 24000,
    "gotten": 28511,
    "gov": 11250,
    "government": 11719,
    "governmental": 27284,
    "gow": 17568,
    "gr": 887,
    "grad": 10637,
    "gradation": 25041,
    "grade": 10111,
    "gram": 1247,
    "grand": 22033,
    "graph": 10399,
    "grass": 29080,
    "grat": 16816,
    "grav": 15905,
    "gre": 27549,
    "great": 16306,
    "green": 14840,
    "greg": 6500,
    "gregated": 27456,
    "gregation": 14837,
    "gren": 27934,
    "gress": 1781,
    "gression": 29941,
    "gressive": 23028,
    "grid": 27678,
    "gro": 14154,
    "ground": 2971,
    "group": 12036,
    "groups": 30042,
    "growing": 19885,
    "grown": 18441,
    "growth": 26210,
    "gs": 15471,
    "gt": 12525,
    "gu": 5192,
    "guard": 17531,
    "gue": 17066,
    "guided": 19719,
    "gun": 7714,
    "gus": 10161,
    "guy": 22569,
    "guyen": 31542,
    "gy": 1283,
    "gypt": 5035,
    "h": 104,
    "ha": 3147,
    "hab": 5630,
    "habi": 27758,
    "had": 16438,
    "hagen": 21329,
    "haired": 29179,
    "hal": 13950,
    "half": 12258,
    "hall": 18287,
    "ham": 2570,
    "hammad": 13376,
    "hammer": 27091,
    "han": 6987,
    "hand": 5325,
    "handed": 12187,
    "hang": 31993,
    "hani": 29490,
    "happy": 31753,
    "haps": 2560,
    "har": 9112,
    "hard": 9722,
    "hardt": 23151,
    "harm": 27540,
    "hart": 17132,
    "has": 10104,
    "hash": 21842,
    "hat": 16767,
    "hate": 31031,
    "hatt": 9662,
    "hattan": 10505,
    "haul": 13275,
    "haus": 24656,
    "have": 13243,
    "haw": 17676,
    "hawks": 23279,
    "he": 259,
    "hea": 23831,
    "head": 2218,
    "headed": 14735,
    "heading": 30352,
    "heads": 15668,
    "health": 12455,
    "healthy": 20641,
    "heard": 21268,
    "heart": 17395,
    "hearted": 18114,
    "heast": 8232,
    "heastern": 15624,
    "heat": 29973,
    "heavy": 22000,
    "hed": 703,
    "hedral": 19235,
    "hedul": 5022,
    "hee": 20247,
    "heed": 19807,
    "heid": 21009,
    "height": 26329,
    "heim": 8863,
    "heimer": 14499,
    "heit": 26132,
    "hel": 2741,
    "held": 9355,
    "hell": 16420,
    "hello": 31469,
    "help": 14329,
    "helps": 29774,
    "helsea": 8901,
    "hem": 4621,
    "hement": 29134,
    "hemy": 31879,
    "hen": 857,
    "hend": 15608,
    "hene": 23734,
    "henko": 22048,
    "hens": 4974,
    "hensive": 29212,
    "hent": 7492,
    "her": 367,
    "here": 1463,
    "hered": 5650,
    "herence": 22474,
    "herent": 7690,
    "heres": 19264,
    "heric": 13347,
    "hern": 2621,
    "hero": 10522,
    "hers": 1909,
    "herty": 23781,
    "hes": 1008,
    "hesda": 30362,
    "hesis": 8916,
    "hest": 3477,
    "hester": 18081,
    "het": 3158,
    "hetamine": 25928,
    "hetic": 6450,
    "hetical": 18358,
    "hetically": 28691,
    "hetics": 23138,
    "hett": 15470,
    "hetti": 31537,
    "hetto": 31608,
    "hew": 13949,
    "hey": 17475,
    "hh": 17425,
    "hi": 5006,
    "hib": 3318,
    "hibition": 23241,
    "hift": 24736,
    "hig": 21549,
    "high": 8942,
    "highest": 28554,
    "hill": 12034,
    "hin": 24983,
    "hing": 674,
    "hip": 1006,
    "hips": 6433,
    "hire": 10592,
    "his": 13909,
    "hist": 10366,
    "historic": 27583,
    "history": 31081,
    "hit": 18594,
    "hl": 19308,
    "hm": 22662,
    "hma": 23669,
    "hn": 19170,
    "hner": 14460,
    "ho": 8067,
    "hod": 2444,
    "hof": 29171,
    "hog": 31971,
    "hol": 12198,
    "hold": 3038,
    "holder": 14781,
    "holders": 9610,
    "hole": 14382,
    "holes": 25081,
    "holm": 19177,
    "hom": 25619,
    "home": 13408,
    "hon": 21876,
    "hood": 2641,
    "hop": 8879,
    "hops": 20898,
    "hor": 16521,
    "horn": 30571,
    "horse": 27731,
    "host": 5802,
    "hot": 8608,
    "hots": 15969,
    "hou": 21964,
    "hour": 8453,
    "hours": 31022,
    "house": 4493,
    "houses": 18783,
    "how": 4657,
    "hower": 26559,
    "hp": 27679,
    "hr": 10636,
    "ht": 5449,
    "htaking": 29352,
    "htm": 27965,
    "html": 9458,
    "http": 4119,
    "https": 8068,
    "hu": 15846,
    "hum": 15296,
    "human": 10403,
    "hun": 21702,
    "hunt": 31968,
    "hurst": 28668,
    "hus": 6651,
    "hy": 5651,
    "hyd": 24014,
    "hydro": 29823,
    "hyth": 11868,
    "i": 105,
    "ia": 528,
    "iability": 8655,
    "iable": 3801,
    "iably": 16639,
    "iac": 9807,
    "iago": 24176,
    "iah": 11412,
    "iak": 27259,
    "ial": 495,
    "ially": 1728,
    "ials": 10456,
    "iam": 3033,
    "iami": 6672,
    "iams": 5205,
    "ian": 644,
    "iana": 7248,
    "iance": 3861,
    "iances": 15336,
    "iang": 13666,
    "iani": 19494,
    "iann": 27533,
    "iano": 9128,
    "ians": 1399,
    "iant": 3080,
    "iao": 20183,
    "iar": 11073,
    "iary": 12623,
    "ias": 5275,
    "iasm": 13665,
    "iat": 6084,
    "iate": 8982,
    "iated": 12790,
    "iates": 30312,
    "iating": 23733,
    "iation": 4288,
    "iatric": 18164,
    "iatus": 29031,
    "iaz": 16368,
    "ib": 585,
    "iba": 24263,
    "ibal": 19017,
    "iban": 10243,
    "iband": 26100,
    "ibe": 24829,
    "iber": 1821,
    "iberal": 16720,
    "ibi": 25887,
    "ibilities": 7523,
    "ibility": 2226,
    "ibl": 10561,
    "ible": 893,
    "ibles": 16924,
    "ibli": 26036,
    "iblical": 16165,
    "ibling": 29211,
    "iblings": 17915,
    "ibly": 3004,
    "ibo": 24216,
    "ibr": 3247,
    "ibrary": 4665,
    "ibus": 29073,
    "ic": 293,
    "ica": 4019,
    "icable": 19751,
    "icago": 3942,
    "ical": 592,
    "ically": 1123,
    "icals": 24959,
    "ican": 6325,
    "icans": 19279,
    "icate": 7691,
    "icated": 3439,
    "icates": 19948,
    "icating": 15936,
    "ication": 4932,
    "ications": 4842,
    "ice": 502,
    "iced": 3873,
    "icer": 7237,
    "icers": 14801,
    "ices": 1093,
    "icester": 20288,
    "ich": 485,
    "iche": 14298,
    "ichever": 25065,
    "ichi": 22490,
    "ichick": 31589,
    "icht": 17418,
    "ici": 4676,
    "icia": 29598,
    "icial": 4224,
    "icially": 24095,
    "icials": 13079,
    "ician": 6287,
    "icians": 4291,
    "iciaries": 26191,
    "iciary": 12653,
    "icidal": 21818,
    "icide": 5002,
    "icides": 16068,
    "iciency": 6753,
    "icient": 3523,
    "icing": 6075,
    "icio": 31959,
    "icious": 6290,
    "icip": 4360,
    "icism": 9464,
    "icit": 3935,
    "icity": 8734,
    "ick": 657,
    "icked": 11023,
    "icken": 7095,
    "icker": 19084,
    "ickers": 20332,
    "icket": 8417,
    "ickets": 14912,
    "icking": 8323,
    "icks": 3312,
    "icky": 19941,
    "icle": 1623,
    "icles": 3099,
    "ico": 3198,
    "icon": 4814,
    "icro": 2516,
    "ics": 877,
    "ict": 702,
    "icted": 5173,
    "icter": 28736,
    "iction": 2950,
    "ictionary": 16140,
    "ictions": 8504,
    "icts": 12608,
    "icular": 22634,
    "icularly": 19755,
    "icult": 2089,
    "icultural": 22075,
    "icus": 21786,
    "icut": 12583,
    "icy": 4684,
    "icz": 23396,
    "id": 311,
    "ida": 3344,
    "idable": 21487,
    "idad": 21852,
    "idae": 30961,
    "idal": 11205,
    "idan": 27767,
    "idant": 30817,
    "idas": 23552,
    "idate": 21475,
    "idation": 29650,
    "idav": 19568,
    "iday": 2225,
    "idays": 13367,
    "idd": 1637,
    "idden": 5283,
    "idding": 12481,
    "iddle": 2322,
    "iddled": 30331,
    "iddles": 28432,
    "iddy": 31424,
    "ide": 489,
    "ided": 1384,
    "idel": 5732,
    "idelines": 7701,
    "idelity": 22954,
    "iden": 11022,
    "idence": 1675,
    "idency": 7479,
    "ident": 661,
    "idental": 31413,
    "identally": 20835,
    "identified": 16632,
    "idents": 3044,
    "ideo": 6259,
    "ideos": 15938,
    "idepress": 26034,
    "ider": 1502,
    "idered": 3017,
    "idering": 5067,
    "iders": 3916,
    "ides": 1503,
    "idespread": 7970,
    "idge": 3160,
    "idges": 14425,
    "idget": 27047,
    "idi": 17567,
    "idian": 25556,
    "iding": 2486,
    "idious": 30092,
    "idis": 24538,
    "idity": 17184,
    "ido": 14685,
    "ids": 2048,
    "idth": 12234,
    "idy": 18380,
    "ie": 448,
    "iece": 17770,
    "ied": 822,
    "ief": 1906,
    "ieg": 26416,
    "iegel": 29835,
    "iel": 8003,
    "ield": 1218,
    "ielding": 31926,
    "iem": 27961,
    "ien": 1988,
    "ience": 1188,
    "ienced": 24676,
    "iences": 8708,
    "iencies": 20586,
    "iens": 10540,
    "ient": 1233,
    "ients": 2544,
    "ier": 1203,
    "ierce": 9543,
    "iere": 11007,
    "ieri": 23802,
    "ierra": 14832,
    "ierre": 12016,
    "iers": 3244,
    "iership": 29458,
    "ies": 439,
    "iesel": 28097,
    "iest": 6109,
    "iet": 1154,
    "ietal": 18974,
    "ieth": 18293,
    "ieties": 8905,
    "iets": 25626,
    "iety": 1841,
    "ieu": 20184,
    "iev": 9573,
    "ieval": 14587,
    "ieve": 16297,
    "ieves": 18908,
    "iew": 810,
    "if": 368,
    "ifa": 18896,
    "ifax": 22106,
    "ife": 902,
    "ifer": 7327,
    "ifest": 8277,
    "iff": 732,
    "iffany": 31893,
    "iffe": 19294,
    "ifference": 26076,
    "ifferent": 12893,
    "iffs": 9661,
    "ifi": 24854,
    "ifiable": 16347,
    "ific": 851,
    "ificant": 16411,
    "ification": 3054,
    "ifications": 7363,
    "ificent": 21764,
    "ificial": 29615,
    "ified": 1544,
    "ifier": 10897,
    "ifiers": 16345,
    "ifies": 7727,
    "ifle": 19119,
    "iform": 7042,
    "ift": 2349,
    "ifted": 20504,
    "ifting": 13743,
    "ifts": 23467,
    "ifty": 23945,
    "iful": 4449,
    "ifully": 16400,
    "ify": 2072,
    "ifying": 3996,
    "ig": 328,
    "iga": 14267,
    "igan": 4907,
    "igans": 31262,
    "igate": 9761,
    "igated": 23902,
    "igating": 26010,
    "igation": 7110,
    "igator": 25778,
    "igators": 21613,
    "ige": 11260,
    "igel": 18785,
    "igen": 7816,
    "igenous": 9890,
    "iger": 6518,
    "igers": 12916,
    "igg": 6870,
    "igger": 21840,
    "iggins": 19032,
    "iggle": 26303,
    "iggs": 17399,
    "igh": 395,
    "ighed": 12917,
    "ight": 435,
    "ighter": 4977,
    "ighters": 5560,
    "ighth": 10286,
    "ighting": 11701,
    "ights": 2955,
    "ighty": 20026,
    "igi": 29048,
    "igion": 17282,
    "igious": 9651,
    "igm": 16957,
    "igma": 13206,
    "ign": 554,
    "ignant": 23475,
    "igned": 4133,
    "ignment": 20306,
    "ignt": 13948,
    "ignty": 14169,
    "igo": 18048,
    "igr": 3155,
    "igrant": 8241,
    "igrants": 4720,
    "igrated": 30725,
    "igration": 3679,
    "igs": 16448,
    "igue": 16495,
    "igure": 6949,
    "ih": 4438,
    "ihad": 8314,
    "ihar": 28502,
    "ihil": 22582,
    "ii": 6345,
    "iii": 27788,
    "ij": 2465,
    "ija": 28261,
    "iji": 22911,
    "ijing": 8789,
    "ijuana": 4063,
    "ik": 1217,
    "ika": 9295,
    "ike": 510,
    "iked": 22543,
    "iker": 17861,
    "ikers": 23007,
    "ikes": 8170,
    "ikh": 10453,
    "ikhail": 31900,
    "iki": 9347,
    "iking": 14189,
    "ikk": 30505,
    "iko": 17102,
    "il": 351,
    "ila": 8730,
    "ilant": 31949,
    "ilar": 1910,
    "ilarly": 7319,
    "ilated": 30337,
    "ilater": 30253,
    "ilateral": 12718,
    "ilaterally": 30989,
    "ilation": 11196,
    "ild": 692,
    "ilda": 28618,
    "ile": 584,
    "ileaks": 21006,
    "iled": 3979,
    "ilem": 18452,
    "iler": 7658,
    "ilers": 18171,
    "iles": 3414,
    "iley": 8989,
    "ili": 2301,
    "ilia": 16685,
    "ilian": 31503,
    "iliar": 4524,
    "iliary": 31793,
    "iliated": 26502,
    "iliation": 13956,
    "ilib": 21952,
    "ilibrium": 24356,
    "ilies": 3534,
    "ilight": 17866,
    "iling": 4609,
    "ilingual": 31655,
    "ilion": 26871,
    "ilipp": 7854,
    "ilit": 5866,
    "ilitary": 15954,
    "ilitating": 30229,
    "ilitation": 17806,
    "ilities": 2541,
    "ility": 916,
    "ill": 356,
    "illa": 5121,
    "illance": 6136,
    "illard": 27830,
    "illas": 22453,
    "ille": 3111,
    "illed": 3239,
    "iller": 4532,
    "illery": 14077,
    "illes": 20039,
    "illian": 31674,
    "illing": 4282,
    "illion": 950,
    "illions": 22739,
    "illo": 13568,
    "illon": 20466,
    "ills": 2638,
    "illusion": 29164,
    "illy": 6052,
    "ilo": 27608,
    "ilogy": 18513,
    "ilot": 23714,
    "ils": 5028,
    "ilst": 11466,
    "ilt": 2214,
    "ilton": 7760,
    "ilty": 5909,
    "ily": 805,
    "im": 323,
    "ima": 7407,
    "imag": 19934,
    "image": 13293,
    "images": 25725,
    "imagin": 30470,
    "imal": 5099,
    "iman": 21901,
    "imate": 1734,
    "imated": 15573,
    "imately": 3119,
    "imates": 27299,
    "imation": 21507,
    "imb": 4943,
    "imbabwe": 19976,
    "ime": 524,
    "imedia": 18702,
    "imen": 19449,
    "imens": 12626,
    "imensional": 16653,
    "iment": 2924,
    "imental": 16969,
    "iments": 6744,
    "imer": 18764,
    "imes": 959,
    "imet": 26836,
    "imeter": 15902,
    "imeters": 30209,
    "img": 17271,
    "imi": 24634,
    "imin": 3143,
    "iminal": 3401,
    "imination": 18730,
    "imir": 10967,
    "imity": 17837,
    "imize": 10542,
    "imm": 8211,
    "immer": 10727,
    "immers": 31343,
    "imming": 26786,
    "imo": 21692,
    "imon": 24906,
    "imore": 7993,
    "imp": 7249,
    "import": 15229,
    "important": 21658,
    "imposed": 30334,
    "impro": 28549,
    "imps": 25741,
    "impse": 16565,
    "ims": 12180,
    "imson": 25407,
    "imum": 3525,
    "in": 260,
    "ina": 1335,
    "inal": 1348,
    "inally": 3266,
    "inals": 9424,
    "inance": 13394,
    "inary": 3367,
    "inas": 21435,
    "inate": 14819,
    "inated": 3883,
    "inating": 9198,
    "ination": 1901,
    "inational": 20892,
    "inations": 7241,
    "inav": 24082,
    "inburgh": 18971,
    "inc": 1792,
    "ince": 884,
    "inces": 15273,
    "inch": 8694,
    "incial": 11500,
    "incinn": 12740,
    "incinnati": 12819,
    "include": 27217,
    "including": 8444,
    "incoln": 10377,
    "income": 10722,
    "incre": 22902,
    "inct": 4569,
    "inction": 8958,
    "inctions": 28851,
    "ind": 538,
    "inda": 19816,
    "indal": 31457,
    "independent": 31546,
    "inder": 7565,
    "inders": 29154,
    "index": 16021,
    "inding": 7367,
    "induced": 19202,
    "indust": 18861,
    "industrial": 24464,
    "ine": 514,
    "inea": 18552,
    "ined": 1376,
    "inel": 19891,
    "inem": 6478,
    "inement": 19718,
    "inence": 30001,
    "inent": 5423,
    "inental": 18735,
    "iner": 7054,
    "iners": 18208,
    "inery": 14694,
    "ines": 1091,
    "inese": 3252,
    "iness": 1213,
    "inez": 15440,
    "inf": 8127,
    "infect": 30369,
    "inflamm": 31850,
    "info": 15370,
    "information": 15755,
    "informed": 29007,
    "ing": 279,
    "inge": 10757,
    "inged": 29838,
    "ingen": 29129,
    "inger": 4029,
    "inges": 23876,
    "ingham": 19918,
    "inging": 13147,
    "ingle": 17025,
    "ingly": 3945,
    "ingo": 28624,
    "ingrich": 17661,
    "ings": 655,
    "ington": 8987,
    "ingu": 6904,
    "inh": 25009,
    "inho": 15363,
    "ini": 5326,
    "inian": 19187,
    "ining": 3177,
    "inion": 24469,
    "inis": 15462,
    "inished": 30176,
    "init": 25338,
    "inite": 11247,
    "initely": 12517,
    "inition": 25883,
    "inity": 7306,
    "inj": 22554,
    "ink": 668,
    "inke": 30546,
    "inker": 26286,
    "inking": 7772,
    "inkle": 20258,
    "inks": 3074,
    "inn": 3775,
    "innamon": 24594,
    "inness": 24435,
    "ino": 2781,
    "inoids": 30750,
    "inois": 8245,
    "inos": 13895,
    "inous": 26843,
    "input": 25293,
    "inqu": 19957,
    "ins": 1056,
    "inski": 18458,
    "insky": 19675,
    "inson": 6937,
    "inspired": 20291,
    "inst": 10703,
    "install": 26694,
    "instein": 10129,
    "insula": 14351,
    "int": 597,
    "intage": 15782,
    "integr": 18796,
    "intelligence": 26790,
    "intend": 7094,
    "intendent": 18893,
    "intendo": 8500,
    "intensive": 30923,
    "inter": 4754,
    "interest": 7988,
    "interested": 30157,
    "intern": 25963,
    "inters": 20869,
    "inth": 22311,
    "into": 19638,
    "inton": 1941,
    "introdu": 26000,
    "inv": 19009,
    "invest": 20828,
    "iny": 3812,
    "inyl": 19657,
    "io": 971,
    "iod": 2279,
    "iol": 1575,
    "iola": 23726,
    "iolet": 22246,
    "iological": 16277,
    "iologist": 25515,
    "iology": 13869,
    "ion": 298,
    "iona": 31633,
    "ionage": 19737,
    "ional": 1550,
    "ionally": 5919,
    "ione": 8146,
    "ioned": 14161,
    "ions": 508,
    "iop": 14036,
    "ior": 1469,
    "iors": 11788,
    "ios": 4475,
    "iosity": 13783,
    "iot": 5249,
    "iotic": 27872,
    "iots": 13680,
    "iott": 18220,
    "ious": 690,
    "iously": 1688,
    "iov": 19996,
    "iovascular": 23580,
    "iox": 11497,
    "ioxide": 13799,
    "ip": 560,
    "ipal": 23713,
    "ipe": 4307,
    "ipedia": 10644,
    "ipeg": 17289,
    "iper": 16036,
    "ipers": 29241,
    "ipes": 22585,
    "iph": 13378,
    "iphate": 28042,
    "ipher": 12213,
    "ipl": 6775,
    "iple": 2601,
    "iples": 31563,
    "ipment": 30323,
    "ipp": 4551,
    "ipped": 4482,
    "ipper": 30077,
    "ippers": 26802,
    "ippi": 11100,
    "ipping": 5470,
    "ipple": 20051,
    "ips": 2702,
    "ipse": 16232,
    "ipt": 14926,
    "iq": 25172,
    "iqu": 1627,
    "ique": 2416,
    "iques": 6370,
    "ir": 342,
    "ira": 8766,
    "irable": 13239,
    "iral": 28017,
    "iration": 18271,
    "irc": 2041,
    "ircraft": 31988,
    "ird": 1390,
    "irds": 6270,
    "ire": 579,
    "irect": 1070,
    "irection": 20091,
    "ired": 1253,
    "ires": 2655,
    "irez": 25244,
    "irgin": 4462,
    "iri": 14215,
    "irie": 27060,
    "iries": 17840,
    "iring": 3746,
    "irk": 13574,
    "irl": 2139,
    "irlf": 9395,
    "irlfriend": 9417,
    "irlines": 15886,
    "irling": 23152,
    "irm": 2453,
    "irmed": 15735,
    "irming": 26864,
    "irms": 7181,
    "iro": 6757,
    "iron": 1835,
    "irrel": 24279,
    "irs": 11557,
    "irst": 650,
    "irsty": 25662,
    "irt": 2426,
    "irteen": 21683,
    "irth": 3527,
    "irts": 9141,
    "irtual": 14512,
    "irty": 6155,
    "irus": 18255,
    "iry": 8445,
    "is": 272,
    "isa": 9391,
    "isal": 29961,
    "isan": 7263,
    "isance": 30354,
    "isans": 21340,
    "isation": 4800,
    "isations": 31623,
    "isc": 2384,
    "iscal": 7401,
    "isch": 21747,
    "ischer": 20714,
    "isco": 18298,
    "iscons": 7404,
    "isconsin": 7412,
    "isd": 10621,
    "isdom": 10211,
    "ise": 739,
    "ised": 1320,
    "isen": 12619,
    "iser": 5023,
    "isers": 13138,
    "ises": 2762,
    "isexual": 18792,
    "isf": 4938,
    "ish": 708,
    "isha": 18906,
    "ishable": 29582,
    "ished": 1296,
    "isher": 5452,
    "ishers": 10997,
    "ishes": 5890,
    "ishi": 24370,
    "ishing": 2970,
    "ishly": 26888,
    "ishment": 19726,
    "ishop": 9514,
    "ishops": 20105,
    "isi": 17578,
    "isible": 13811,
    "isine": 24212,
    "ising": 1539,
    "ision": 1108,
    "isions": 3234,
    "isite": 19251,
    "isition": 10394,
    "isitions": 26769,
    "isive": 11610,
    "isk": 9418,
    "isl": 2611,
    "isle": 18036,
    "isly": 31021,
    "ism": 918,
    "isman": 22762,
    "ismo": 31536,
    "isms": 11436,
    "iso": 29435,
    "isode": 11712,
    "isoft": 28249,
    "isol": 30259,
    "ison": 1606,
    "isons": 9220,
    "isp": 7980,
    "ispens": 30250,
    "ispensable": 31780,
    "isphere": 19747,
    "iss": 760,
    "issa": 13914,
    "issan": 21112,
    "issance": 14000,
    "isse": 19061,
    "ission": 1492,
    "issions": 6316,
    "isson": 28421,
    "issue": 23037,
    "ist": 387,
    "ista": 11268,
    "istan": 2879,
    "istance": 11175,
    "istant": 10426,
    "istas": 29841,
    "isted": 5264,
    "istence": 22444,
    "istent": 7744,
    "ister": 1566,
    "isters": 5796,
    "istic": 2409,
    "istical": 20056,
    "istically": 14712,
    "istics": 4477,
    "istine": 28780,
    "isting": 8626,
    "istle": 10844,
    "istries": 27614,
    "istry": 4135,
    "ists": 923,
    "isure": 21169,
    "isy": 23579,
    "it": 271,
    "ita": 5738,
    "itable": 4738,
    "itably": 12777,
    "itage": 8873,
    "ital": 1234,
    "itals": 7510,
    "itan": 19371,
    "itant": 22920,
    "itar": 7488,
    "itarian": 6963,
    "itars": 28900,
    "itary": 9482,
    "itas": 19550,
    "itate": 12257,
    "itated": 13794,
    "itating": 21506,
    "itation": 3575,
    "itational": 18994,
    "itations": 16551,
    "itative": 13314,
    "itbart": 13306,
    "itch": 3191,
    "itched": 26906,
    "itches": 19430,
    "ite": 574,
    "itect": 5132,
    "ited": 834,
    "itely": 3828,
    "item": 20856,
    "itement": 11430,
    "iter": 4864,
    "iterranean": 16266,
    "ites": 2730,
    "ith": 344,
    "ithe": 28130,
    "ither": 1626,
    "ithmetic": 30960,
    "ithub": 15316,
    "iti": 8143,
    "itial": 14466,
    "itially": 18094,
    "itic": 31801,
    "ities": 850,
    "itimate": 24630,
    "itime": 18641,
    "iting": 1755,
    "ition": 660,
    "itional": 1915,
    "itionally": 8456,
    "itions": 1833,
    "itious": 24031,
    "itis": 14125,
    "itive": 1768,
    "itiveness": 25714,
    "itives": 19513,
    "itivity": 12271,
    "itiz": 2649,
    "itizens": 29926,
    "itness": 4011,
    "itnesses": 20211,
    "ito": 9766,
    "itol": 9582,
    "itor": 3478,
    "itoring": 30582,
    "itors": 6172,
    "itous": 17941,
    "its": 932,
    "itsu": 22807,
    "itt": 4565,
    "itted": 16786,
    "itter": 9439,
    "itting": 8783,
    "ittle": 6474,
    "itu": 31728,
    "itual": 9628,
    "itud": 31065,
    "itude": 4104,
    "itudes": 9863,
    "iture": 9907,
    "itures": 21771,
    "itus": 20125,
    "itute": 3436,
    "itutes": 15447,
    "itution": 2545,
    "itutional": 4933,
    "ity": 413,
    "itz": 4833,
    "itzer": 18258,
    "iu": 18972,
    "ium": 1699,
    "ius": 4619,
    "iv": 459,
    "iva": 12721,
    "ivable": 20961,
    "ival": 2378,
    "ivalent": 30249,
    "ivals": 8738,
    "ivan": 12122,
    "ivas": 27283,
    "ivated": 26866,
    "ive": 422,
    "ived": 1546,
    "ively": 2168,
    "iven": 1455,
    "iveness": 6675,
    "iver": 1727,
    "ivered": 5715,
    "iverpool": 8593,
    "ivers": 1126,
    "iversal": 26830,
    "iversary": 8317,
    "iverse": 4022,
    "iversity": 1428,
    "ivery": 23530,
    "ives": 1025,
    "ivia": 19458,
    "ivic": 13637,
    "ivid": 1778,
    "ividual": 1946,
    "ivier": 29953,
    "ivil": 2220,
    "iving": 1373,
    "ivision": 31829,
    "ivism": 21770,
    "ivist": 23683,
    "ivists": 31998,
    "ivities": 23520,
    "ivity": 3627,
    "ivo": 21283,
    "ivor": 23250,
    "iw": 17451,
    "ix": 912,
    "ixed": 8774,
    "ixel": 11215,
    "ixels": 17185,
    "ixon": 10350,
    "ixt": 6899,
    "ixture": 10252,
    "ixtures": 24617,
    "ixty": 20012,
    "iy": 8099,
    "iya": 22255,
    "iz": 542,
    "iza": 21926,
    "izabeth": 9192,
    "izable": 13164,
    "izard": 12678,
    "izards": 15281,
    "izarre": 10890,
    "ization": 1610,
    "izations": 11140,
    "ize": 1212,
    "ized": 1163,
    "izer": 9606,
    "izers": 16268,
    "izes": 4699,
    "izing": 2746,
    "izon": 7779,
    "izons": 29074,
    "izont": 14327,
    "izoph": 18556,
    "izophren": 18767,
    "izz": 6751,
    "izza": 10110,
    "izzard": 16604,
    "izzy": 29254,
    "iÄĩ": 27466,
    "j": 106,
    "ja": 8000,
    "jack": 24745,
    "jad": 24314,
    "jah": 21545,
    "jamin": 11609,
    "jan": 12306,
    "jar": 13578,
    "jas": 28880,
    "jav": 30935,
    "java": 23335,
    "jay": 30530,
    "je": 14201,
    "ject": 787,
    "jee": 28632,
    "jet": 24519,
    "ji": 9067,
    "jin": 28059,
    "jo": 7851,
    "job": 28740,
    "john": 30982,
    "join": 28805,
    "journal": 22928,
    "joy": 2723,
    "jpg": 17154,
    "jri": 29663,
    "jriwal": 30423,
    "js": 9653,
    "json": 24109,
    "ju": 16103,
    "jud": 9240,
    "jug": 30496,
    "jury": 27055,
    "just": 3563,
    "justed": 23055,
    "justice": 28403,
    "k": 107,
    "ka": 4952,
    "kan": 24621,
    "kar": 16795,
    "kara": 19901,
    "kay": 6190,
    "ke": 362,
    "ked": 7463,
    "kee": 10060,
    "keep": 8711,
    "keeper": 12886,
    "keepers": 20118,
    "keeping": 17893,
    "kees": 13729,
    "kef": 25773,
    "kefeller": 26337,
    "kel": 6556,
    "keley": 11255,
    "kell": 16682,
    "ken": 3741,
    "kens": 15025,
    "ker": 7297,
    "kered": 26982,
    "kers": 16715,
    "kes": 11151,
    "ket": 5628,
    "ketch": 23303,
    "key": 2481,
    "keys": 14050,
    "kg": 13775,
    "kh": 13522,
    "ki": 3870,
    "kick": 23418,
    "kil": 25975,
    "kill": 14853,
    "kin": 4889,
    "kind": 11634,
    "king": 9167,
    "kins": 4681,
    "kinson": 22025,
    "kish": 23940,
    "kit": 17843,
    "km": 12311,
    "kn": 15859,
    "know": 16059,
    "known": 4382,
    "ko": 6667,
    "kok": 26903,
    "kov": 17990,
    "kowski": 20777,
    "ks": 589,
    "kt": 23647,
    "ktop": 23111,
    "ku": 25589,
    "kward": 11679,
    "ky": 2703,
    "l": 108,
    "la": 4366,
    "lab": 25079,
    "label": 26118,
    "lad": 8195,
    "lag": 30661,
    "lah": 8566,
    "lahoma": 8979,
    "laim": 11341,
    "lain": 19349,
    "lake": 26606,
    "lam": 2210,
    "lamm": 12498,
    "lan": 7914,
    "lance": 18201,
    "land": 989,
    "lander": 20607,
    "landers": 28684,
    "lando": 9869,
    "lands": 4471,
    "lane": 25370,
    "lang": 22934,
    "language": 18397,
    "lant": 4401,
    "lantic": 21494,
    "lar": 19097,
    "larg": 15514,
    "large": 11092,
    "largest": 21031,
    "las": 12856,
    "lash": 13786,
    "lass": 15815,
    "lasses": 28177,
    "last": 12118,
    "lasting": 27351,
    "lat": 18613,
    "late": 21805,
    "lated": 23981,
    "later": 28970,
    "lation": 15795,
    "laughs": 23718,
    "laughter": 24452,
    "lav": 17706,
    "law": 6209,
    "laws": 26478,
    "lay": 14504,
    "lb": 24809,
    "ld": 335,
    "lda": 19417,
    "lder": 7208,
    "ldom": 23788,
    "ldon": 22797,
    "le": 296,
    "lead": 25316,
    "leader": 25232,
    "leaders": 29872,
    "leading": 11147,
    "league": 16983,
    "leaning": 21052,
    "leans": 10344,
    "lear": 2503,
    "lease": 3638,
    "leased": 15851,
    "leck": 30087,
    "lect": 809,
    "lected": 12131,
    "lection": 1454,
    "lections": 30830,
    "led": 1004,
    "ledge": 3046,
    "ledged": 29517,
    "lee": 9597,
    "leen": 17372,
    "leep": 10840,
    "left": 9795,
    "leg": 1350,
    "legal": 16246,
    "legates": 28756,
    "lege": 2457,
    "lein": 29736,
    "lem": 14158,
    "lement": 2026,
    "lementary": 14101,
    "lements": 12337,
    "len": 13776,
    "lene": 25922,
    "length": 16450,
    "ler": 1786,
    "lers": 7390,
    "les": 823,
    "lesh": 11777,
    "less": 1259,
    "lessly": 8113,
    "lessness": 16057,
    "let": 1717,
    "letcher": 25250,
    "lete": 7846,
    "leted": 11074,
    "letes": 30469,
    "letion": 24368,
    "leton": 12400,
    "lets": 5343,
    "lett": 14842,
    "lette": 20311,
    "letter": 14447,
    "leum": 18802,
    "lev": 2392,
    "levant": 13985,
    "levard": 18031,
    "level": 4424,
    "leveland": 8370,
    "levision": 3912,
    "lex": 2640,
    "ley": 1534,
    "leys": 20428,
    "lf": 1730,
    "li": 944,
    "lia": 21225,
    "liable": 23450,
    "liament": 4166,
    "lib": 12905,
    "liber": 19776,
    "liberal": 27288,
    "lic": 637,
    "lication": 15537,
    "lications": 24763,
    "lich": 21963,
    "lick": 3934,
    "lickr": 15033,
    "lict": 20017,
    "licted": 27023,
    "lide": 23766,
    "lie": 13618,
    "lied": 11551,
    "lient": 14402,
    "lier": 2119,
    "liers": 15928,
    "lies": 6952,
    "liest": 10091,
    "lif": 29990,
    "life": 5633,
    "lift": 28092,
    "lifting": 31117,
    "lig": 4835,
    "liga": 27776,
    "light": 2344,
    "lights": 14005,
    "lihood": 10721,
    "lik": 28813,
    "like": 2257,
    "lim": 2245,
    "liminary": 12362,
    "limited": 10720,
    "lin": 2861,
    "line": 1317,
    "linear": 29861,
    "lined": 9500,
    "liner": 21672,
    "liners": 26222,
    "lines": 5754,
    "liness": 26163,
    "ling": 1319,
    "lings": 20264,
    "lington": 14864,
    "lining": 16638,
    "link": 11058,
    "linked": 24641,
    "lins": 21115,
    "linux": 31821,
    "lio": 29945,
    "lis": 24857,
    "lish": 2293,
    "list": 6906,
    "listed": 17249,
    "lists": 23833,
    "lit": 17936,
    "liter": 16221,
    "little": 29819,
    "lium": 28158,
    "liv": 17912,
    "live": 13445,
    "lived": 20116,
    "liver": 12266,
    "living": 28162,
    "ll": 299,
    "lla": 9689,
    "llah": 17949,
    "lled": 2676,
    "ller": 5602,
    "llers": 12699,
    "lli": 12262,
    "lling": 2047,
    "llington": 22187,
    "llo": 13470,
    "llor": 11291,
    "lls": 7015,
    "lly": 12935,
    "ln": 21553,
    "lo": 5054,
    "load": 2857,
    "loaded": 19311,
    "loading": 28512,
    "loc": 24718,
    "local": 16187,
    "lock": 7315,
    "locked": 28288,
    "loe": 29691,
    "log": 7723,
    "loid": 31177,
    "lon": 15486,
    "long": 6016,
    "loo": 26676,
    "look": 5252,
    "looking": 11056,
    "loop": 27847,
    "lopp": 27178,
    "lor": 4707,
    "lord": 24625,
    "loss": 24035,
    "lost": 30422,
    "lot": 26376,
    "lov": 31078,
    "love": 22456,
    "loving": 28505,
    "low": 8717,
    "lower": 24705,
    "lp": 915,
    "ls": 8183,
    "lt": 2427,
    "ltry": 29429,
    "lu": 2224,
    "lud": 750,
    "lude": 13671,
    "luded": 17338,
    "ludes": 21551,
    "luding": 6689,
    "luence": 24052,
    "luent": 23565,
    "lund": 31315,
    "lus": 25876,
    "lux": 20482,
    "lv": 6889,
    "lves": 28106,
    "ly": 307,
    "lying": 3250,
    "lymp": 5529,
    "lyn": 5517,
    "lynn": 10902,
    "m": 109,
    "ma": 2996,
    "mac": 26070,
    "mad": 8436,
    "made": 9066,
    "mag": 21973,
    "mage": 24910,
    "magic": 28417,
    "maid": 23650,
    "mail": 4861,
    "mails": 20967,
    "main": 12475,
    "major": 19446,
    "majority": 28599,
    "make": 18274,
    "maker": 8709,
    "makers": 4991,
    "making": 7711,
    "mal": 7532,
    "mala": 25576,
    "male": 26852,
    "malink": 25358,
    "man": 753,
    "management": 23636,
    "mand": 19117,
    "mania": 26077,
    "mann": 7624,
    "manned": 23406,
    "mans": 9267,
    "manship": 23830,
    "manuel": 14633,
    "many": 19064,
    "map": 11710,
    "mar": 3787,
    "mare": 12206,
    "mares": 27512,
    "mark": 3986,
    "marked": 21556,
    "market": 9838,
    "markets": 28563,
    "marks": 13986,
    "married": 28791,
    "mart": 12403,
    "mary": 8468,
    "mas": 5034,
    "mass": 20167,
    "master": 12919,
    "mat": 8619,
    "match": 20867,
    "matched": 30752,
    "mate": 7936,
    "mates": 5983,
    "math": 9842,
    "matic": 12265,
    "max": 16991,
    "may": 10928,
    "maybe": 25496,
    "mb": 2128,
    "mber": 1657,
    "mble": 10822,
    "md": 25422,
    "me": 1349,
    "meal": 27658,
    "meaning": 22667,
    "med": 1122,
    "medi": 2428,
    "media": 11897,
    "mediate": 28096,
    "mediately": 23613,
    "meg": 25839,
    "mega": 19172,
    "mel": 14571,
    "mem": 16119,
    "member": 16861,
    "members": 31043,
    "men": 3511,
    "ment": 380,
    "mental": 17838,
    "mentation": 15762,
    "mented": 10861,
    "mentia": 23944,
    "mentioned": 15981,
    "ments": 765,
    "mer": 582,
    "merce": 10788,
    "mercial": 16714,
    "meric": 830,
    "mers": 9322,
    "mes": 6279,
    "message": 28383,
    "met": 4457,
    "metal": 31762,
    "meter": 26601,
    "metic": 17943,
    "metric": 28300,
    "metry": 21464,
    "mg": 19634,
    "mi": 13097,
    "mia": 22404,
    "mic": 10055,
    "micro": 29361,
    "mid": 12247,
    "middle": 26264,
    "midt": 17242,
    "mil": 30351,
    "mile": 14756,
    "military": 27667,
    "mill": 16394,
    "million": 11246,
    "min": 1106,
    "mination": 14324,
    "mind": 9404,
    "minded": 12349,
    "mine": 4211,
    "mined": 15128,
    "minent": 16447,
    "mines": 14359,
    "ming": 2102,
    "mingham": 14871,
    "mining": 17605,
    "minist": 1954,
    "minster": 16051,
    "minute": 9341,
    "mir": 10282,
    "mis": 22392,
    "miss": 3975,
    "missible": 24782,
    "mission": 3985,
    "missions": 9957,
    "mit": 1383,
    "mite": 28930,
    "mith": 24211,
    "mits": 10599,
    "mitt": 18492,
    "mitted": 3400,
    "mittee": 4005,
    "ml": 6475,
    "mm": 5589,
    "mn": 12574,
    "mo": 6954,
    "mobile": 27232,
    "mod": 7221,
    "mode": 25851,
    "model": 24319,
    "modern": 20336,
    "moil": 20572,
    "mon": 2750,
    "mond": 5750,
    "money": 23159,
    "mong": 25535,
    "mons": 11356,
    "mont": 7406,
    "month": 7597,
    "monton": 15420,
    "mony": 9153,
    "moon": 22530,
    "mor": 20995,
    "more": 3596,
    "mort": 23934,
    "mos": 14754,
    "mosp": 5747,
    "most": 1600,
    "mostly": 25933,
    "mot": 23746,
    "mother": 12450,
    "mount": 17159,
    "mouth": 13183,
    "move": 21981,
    "moving": 27933,
    "mp": 3232,
    "mph": 17935,
    "ms": 962,
    "mson": 23511,
    "mt": 22300,
    "mu": 30359,
    "much": 25947,
    "mult": 20405,
    "mun": 6784,
    "mund": 15764,
    "munition": 13943,
    "mur": 28697,
    "mus": 15595,
    "must": 28208,
    "mut": 19490,
    "my": 1774,
    "n": 110,
    "na": 2623,
    "nails": 31858,
    "naire": 26954,
    "nam": 6571,
    "name": 6533,
    "named": 11722,
    "names": 14210,
    "namese": 18110,
    "nan": 10987,
    "nar": 17382,
    "nas": 22622,
    "nation": 24876,
    "national": 14300,
    "natural": 11873,
    "nav": 29587,
    "nc": 17478,
    "nce": 1241,
    "nces": 3283,
    "nd": 357,
    "nder": 691,
    "ndering": 19713,
    "nders": 26029,
    "ndra": 18925,
    "ne": 684,
    "neapolis": 15893,
    "neath": 13925,
    "necess": 10151,
    "neck": 27240,
    "nect": 1753,
    "ned": 1191,
    "nedy": 8265,
    "nee": 28367,
    "needed": 23619,
    "neg": 11375,
    "negie": 26174,
    "nel": 4762,
    "nell": 5746,
    "nels": 17651,
    "nen": 26967,
    "ner": 1005,
    "nered": 12926,
    "nerg": 30200,
    "nergy": 5971,
    "ners": 2471,
    "nery": 30357,
    "nes": 1962,
    "nesday": 2812,
    "nesota": 7041,
    "ness": 1159,
    "nesty": 14221,
    "net": 3852,
    "netic": 10054,
    "network": 31911,
    "neutral": 27992,
    "never": 12733,
    "new": 3567,
    "news": 10100,
    "nex": 15115,
    "next": 24706,
    "ney": 1501,
    "neys": 19176,
    "ng": 807,
    "ngth": 20149,
    "ni": 7397,
    "nia": 16941,
    "nic": 6548,
    "nick": 22879,
    "nie": 10954,
    "night": 4644,
    "nik": 13881,
    "nine": 27931,
    "ning": 721,
    "nings": 19592,
    "nis": 18776,
    "nm": 26254,
    "nn": 23673,
    "no": 4208,
    "node": 27302,
    "nom": 22388,
    "non": 11198,
    "none": 31603,
    "noon": 5456,
    "nor": 12268,
    "normal": 13232,
    "not": 1801,
    "note": 12904,
    "notes": 23170,
    "nothing": 24201,
    "noticed": 26824,
    "nov": 30105,
    "now": 2164,
    "nown": 3825,
    "ns": 2485,
    "nsic": 18027,
    "nt": 433,
    "ntil": 9025,
    "nton": 23348,
    "nu": 31791,
    "null": 19493,
    "num": 25341,
    "number": 21539,
    "numbered": 31575,
    "nut": 15266,
    "nuts": 29717,
    "ny": 3310,
    "nyder": 16813,
    "o": 111,
    "oa": 13174,
    "oad": 1522,
    "oan": 19926,
    "oard": 12220,
    "oat": 18705,
    "ob": 662,
    "oba": 17643,
    "obal": 2235,
    "obar": 30829,
    "obb": 6559,
    "obby": 5185,
    "obe": 5703,
    "ober": 1829,
    "obi": 15567,
    "obia": 29351,
    "obic": 21404,
    "obil": 23561,
    "obile": 6856,
    "obiles": 30650,
    "object": 20941,
    "obo": 27063,
    "obs": 7819,
    "oby": 25166,
    "oc": 427,
    "oca": 9974,
    "ocal": 4931,
    "ocaly": 13723,
    "ocalypse": 19463,
    "ocalyptic": 24133,
    "ocamp": 25686,
    "ocate": 12793,
    "ocated": 10695,
    "ocating": 23385,
    "ocation": 7004,
    "ocations": 28248,
    "ocaust": 13945,
    "occ": 13611,
    "occup": 17786,
    "occupied": 25335,
    "ocene": 28817,
    "ocese": 25050,
    "och": 5203,
    "oche": 27655,
    "ochem": 22268,
    "ochond": 23330,
    "oci": 1772,
    "ocial": 9910,
    "ociated": 19614,
    "ocide": 14462,
    "ocious": 30588,
    "ocity": 14119,
    "ock": 784,
    "ocked": 3625,
    "ocker": 12496,
    "ocket": 6416,
    "ockets": 12549,
    "ockey": 6598,
    "ocking": 5472,
    "ocks": 3953,
    "oco": 19786,
    "ocol": 5095,
    "ocolate": 9388,
    "ocr": 4245,
    "ocracies": 26586,
    "ocracy": 4798,
    "ocrat": 1577,
    "ocratic": 6228,
    "ocrats": 14929,
    "ocre": 24301,
    "ocument": 9074,
    "ocumented": 14145,
    "ocur": 12038,
    "ocus": 12281,
    "ocused": 19090,
    "ocy": 16341,
    "od": 399,
    "oda": 11856,
    "oday": 3915,
    "odd": 5594,
    "ode": 1333,
    "oded": 8892,
    "oder": 18365,
    "odes": 4357,
    "odge": 10499,
    "odi": 24318,
    "odic": 26039,
    "odied": 19266,
    "odies": 4982,
    "oding": 8361,
    "odka": 27216,
    "odo": 22929,
    "odor": 26268,
    "odore": 22189,
    "odox": 9922,
    "ods": 21240,
    "odus": 23425,
    "ody": 1186,
    "odynam": 22745,
    "oe": 2454,
    "oen": 7987,
    "oenix": 9261,
    "oes": 3548,
    "of": 1868,
    "off": 2043,
    "office": 29436,
    "official": 15529,
    "offs": 11203,
    "oft": 10953,
    "often": 25529,
    "og": 525,
    "oga": 10265,
    "ogan": 6901,
    "ogen": 7735,
    "ogene": 21799,
    "ogenic": 17021,
    "ogenous": 30379,
    "ogens": 25485,
    "ogether": 7805,
    "ogg": 12688,
    "oggle": 30431,
    "ogle": 2317,
    "ogn": 2305,
    "ognitive": 29153,
    "ogo": 24030,
    "ogram": 22418,
    "ograms": 23867,
    "ograp": 1942,
    "ograph": 2287,
    "ographer": 16516,
    "ographers": 28886,
    "ographic": 6666,
    "ographical": 16577,
    "ographically": 28586,
    "ographics": 20083,
    "ographs": 31472,
    "ography": 4542,
    "ogs": 19589,
    "ogue": 5612,
    "ogy": 9962,
    "ogyn": 17992,
    "oh": 1092,
    "oha": 28087,
    "ohan": 22987,
    "ohn": 1408,
    "ohyd": 22652,
    "oi": 22803,
    "oice": 9598,
    "oid": 2304,
    "oids": 19540,
    "oil": 21612,
    "oint": 1597,
    "ointed": 19056,
    "oir": 18106,
    "oirs": 31670,
    "ois": 9409,
    "oise": 29606,
    "oit": 21434,
    "oj": 11684,
    "oji": 26842,
    "ojure": 27972,
    "ok": 487,
    "oka": 20604,
    "oke": 2437,
    "oked": 6339,
    "oken": 5856,
    "oker": 10627,
    "okes": 2659,
    "oki": 30686,
    "okia": 16573,
    "oking": 5709,
    "oko": 15965,
    "oks": 24989,
    "oku": 16595,
    "ol": 349,
    "ola": 5083,
    "olan": 14354,
    "olar": 9885,
    "olas": 11218,
    "olate": 31734,
    "olation": 21785,
    "old": 770,
    "olden": 23913,
    "older": 26251,
    "olding": 27638,
    "oldown": 22558,
    "olds": 9323,
    "ole": 2468,
    "olean": 26313,
    "olen": 8069,
    "oler": 13331,
    "oles": 3989,
    "olester": 20141,
    "olesterol": 21581,
    "olf": 4415,
    "oli": 10118,
    "olia": 21386,
    "oliberal": 22205,
    "olic": 3898,
    "olics": 16785,
    "olicy": 24033,
    "olid": 10763,
    "olin": 30440,
    "oline": 13334,
    "olis": 7862,
    "olit": 5080,
    "olitan": 11511,
    "olith": 19584,
    "olithic": 25977,
    "olitical": 10958,
    "olitics": 17733,
    "olk": 12924,
    "olkien": 27449,
    "oll": 785,
    "olla": 27469,
    "ollah": 13426,
    "ollar": 11121,
    "ollen": 30264,
    "ollo": 16681,
    "ollow": 981,
    "olls": 24693,
    "olly": 4765,
    "ollywood": 6380,
    "oln": 9943,
    "olo": 13120,
    "olog": 903,
    "ologic": 27213,
    "ological": 2744,
    "ologically": 12065,
    "ologies": 5250,
    "ologist": 6465,
    "ologists": 8161,
    "ologne": 26563,
    "ology": 1381,
    "olph": 9055,
    "olphin": 25976,
    "olphins": 13853,
    "ols": 10386,
    "olson": 27268,
    "olt": 7732,
    "olute": 3552,
    "olutely": 14643,
    "olution": 2073,
    "olutions": 13841,
    "olve": 6460,
    "olved": 5479,
    "olves": 9259,
    "olving": 10004,
    "oly": 4316,
    "olyn": 30708,
    "om": 297,
    "oma": 6447,
    "omach": 11974,
    "oman": 4585,
    "omas": 4515,
    "omatic": 15005,
    "omb": 2636,
    "ome": 461,
    "omed": 9655,
    "omeday": 20975,
    "omen": 3508,
    "omer": 11555,
    "omers": 16570,
    "omes": 9076,
    "omet": 886,
    "ometer": 16492,
    "omething": 8240,
    "ometimes": 6435,
    "ometown": 15524,
    "ometric": 21586,
    "omez": 24766,
    "omi": 15568,
    "omic": 10931,
    "omical": 20232,
    "omics": 31684,
    "omin": 6193,
    "omination": 26396,
    "oming": 6495,
    "omm": 2414,
    "ommend": 27896,
    "ommod": 8513,
    "omo": 15089,
    "omon": 18055,
    "omore": 17538,
    "omorph": 24153,
    "omp": 3087,
    "ompl": 5707,
    "ompson": 9360,
    "oms": 4869,
    "omsky": 31228,
    "omy": 9609,
    "on": 263,
    "ona": 4057,
    "onal": 16778,
    "once": 26425,
    "ond": 618,
    "onda": 11953,
    "onde": 16542,
    "onder": 9654,
    "onding": 31132,
    "ondo": 20035,
    "ondon": 3078,
    "onds": 11911,
    "ondu": 30175,
    "onduct": 11060,
    "one": 505,
    "oned": 10907,
    "onel": 24327,
    "oneliness": 31261,
    "onen": 29447,
    "onent": 3946,
    "onents": 3818,
    "oner": 12780,
    "ones": 1759,
    "onest": 16661,
    "oney": 1284,
    "ong": 499,
    "onge": 14562,
    "ongevity": 24210,
    "ongh": 17256,
    "ongo": 22547,
    "ongs": 28394,
    "ongyang": 17420,
    "oni": 13032,
    "onia": 12174,
    "onial": 24151,
    "onian": 27979,
    "onic": 7262,
    "onies": 15828,
    "oning": 11257,
    "online": 28945,
    "only": 9028,
    "onna": 6398,
    "onnaissance": 25932,
    "ono": 27913,
    "onom": 5476,
    "onomous": 31059,
    "onomy": 30086,
    "ons": 697,
    "onse": 2475,
    "onso": 20242,
    "onst": 2642,
    "onstruction": 30401,
    "ont": 821,
    "onte": 26650,
    "onto": 4837,
    "onut": 16822,
    "ony": 1581,
    "onym": 4973,
    "onymous": 6801,
    "onz": 10292,
    "oo": 3083,
    "ood": 725,
    "oody": 21635,
    "ook": 565,
    "ookie": 19013,
    "ooks": 30451,
    "ool": 986,
    "ools": 13431,
    "oom": 4334,
    "oon": 2199,
    "oons": 12593,
    "oooo": 25855,
    "oop": 11737,
    "oor": 2873,
    "oos": 24104,
    "oot": 1041,
    "ooter": 23046,
    "ooth": 5956,
    "ooting": 13872,
    "oots": 16251,
    "op": 391,
    "opa": 29175,
    "opal": 28983,
    "opard": 13444,
    "opath": 19156,
    "opathy": 28490,
    "ope": 3129,
    "oped": 20578,
    "open": 9619,
    "openhagen": 22774,
    "opening": 31751,
    "oper": 3398,
    "operation": 24266,
    "operative": 27895,
    "opers": 20244,
    "opes": 13157,
    "opez": 17493,
    "oph": 2463,
    "opher": 7928,
    "ophers": 19933,
    "ophile": 26436,
    "ophob": 10856,
    "ophobia": 16433,
    "ophobic": 18722,
    "ophone": 31887,
    "opia": 22603,
    "opian": 31335,
    "opic": 16377,
    "oping": 14160,
    "ople": 587,
    "oples": 11919,
    "opoly": 31901,
    "opoulos": 17576,
    "opp": 11364,
    "oppable": 31571,
    "oppy": 28286,
    "ops": 2726,
    "opsis": 30908,
    "opt": 10772,
    "option": 27378,
    "opular": 15758,
    "opus": 27991,
    "opy": 6396,
    "opyright": 9964,
    "oqu": 19190,
    "or": 274,
    "ora": 6523,
    "orable": 9873,
    "orage": 5368,
    "oral": 5668,
    "orate": 11272,
    "oration": 6916,
    "orb": 30806,
    "orc": 29360,
    "ord": 577,
    "ordable": 13550,
    "ordan": 6531,
    "orde": 22343,
    "order": 2847,
    "ordered": 24270,
    "ordering": 30902,
    "orders": 6061,
    "ordin": 5548,
    "ordinarily": 25660,
    "ordinary": 9256,
    "ordinate": 25059,
    "ordinates": 31056,
    "ordination": 30041,
    "ordinator": 30174,
    "ording": 1130,
    "ordon": 8714,
    "ords": 4256,
    "ore": 376,
    "orean": 26301,
    "ored": 1828,
    "orem": 26289,
    "oren": 26680,
    "orer": 12158,
    "orers": 28667,
    "ores": 5131,
    "orest": 20732,
    "oret": 9389,
    "orf": 20331,
    "org": 3987,
    "organ": 9049,
    "organized": 26374,
    "orge": 9020,
    "ori": 11630,
    "oria": 11746,
    "orial": 4202,
    "orian": 20559,
    "oric": 7064,
    "orical": 11916,
    "orically": 17257,
    "orie": 20078,
    "orient": 12479,
    "oriented": 14961,
    "ories": 1685,
    "orig": 12704,
    "original": 16037,
    "oring": 2404,
    "orious": 9426,
    "ority": 14897,
    "ork": 935,
    "orks": 3677,
    "orkshire": 25243,
    "orld": 1809,
    "orm": 617,
    "ormal": 9006,
    "ormally": 28011,
    "orman": 22278,
    "orn": 1258,
    "orne": 7617,
    "orney": 3704,
    "orneys": 10690,
    "ornia": 2903,
    "ornings": 23711,
    "orns": 13928,
    "oro": 18981,
    "orough": 7747,
    "orous": 9204,
    "orously": 22376,
    "orp": 18849,
    "orph": 12377,
    "orrh": 31238,
    "orrow": 4434,
    "orry": 6097,
    "ors": 658,
    "orsche": 21213,
    "orse": 6085,
    "orses": 12923,
    "orship": 9485,
    "orsi": 21227,
    "orst": 24442,
    "ort": 398,
    "orted": 7056,
    "orter": 3891,
    "orters": 2947,
    "ortex": 29747,
    "orth": 1129,
    "orthern": 4363,
    "orthy": 17591,
    "orting": 15651,
    "ortion": 5294,
    "ortions": 14214,
    "ortium": 20565,
    "orton": 26785,
    "orts": 1885,
    "ortun": 1760,
    "ortunate": 12533,
    "ortunately": 4452,
    "orum": 17417,
    "orus": 15011,
    "ory": 656,
    "os": 419,
    "osa": 7976,
    "osate": 31365,
    "osaur": 17039,
    "osaurs": 18737,
    "osc": 18276,
    "ose": 571,
    "osed": 1260,
    "osen": 5254,
    "oser": 20614,
    "oses": 3273,
    "osevelt": 15446,
    "osexual": 7878,
    "osh": 3917,
    "oshi": 17701,
    "oshop": 22870,
    "osi": 14833,
    "osing": 2403,
    "osion": 18546,
    "osis": 6964,
    "osit": 8332,
    "osite": 5672,
    "osition": 2760,
    "ository": 14370,
    "osity": 16473,
    "oslav": 22924,
    "oso": 29614,
    "osoph": 18965,
    "osophy": 23751,
    "osp": 1999,
    "ospace": 21919,
    "ospel": 15255,
    "osph": 16650,
    "osphere": 18963,
    "ospital": 3293,
    "oss": 796,
    "ossible": 4691,
    "ossibly": 20367,
    "ossier": 24951,
    "ossip": 23943,
    "ost": 463,
    "osta": 31288,
    "ostal": 15697,
    "oster": 7077,
    "osterone": 20571,
    "ostic": 16665,
    "oston": 5058,
    "osure": 4708,
    "osures": 15285,
    "ot": 314,
    "ota": 3924,
    "otal": 6506,
    "otally": 25816,
    "ote": 1964,
    "otech": 28745,
    "otechnology": 27322,
    "oted": 4867,
    "oter": 17247,
    "oters": 20345,
    "otes": 7289,
    "oth": 862,
    "othe": 21114,
    "other": 848,
    "otherapy": 18940,
    "othing": 29309,
    "oths": 26279,
    "othy": 14247,
    "oti": 3835,
    "otic": 6153,
    "otics": 18154,
    "otine": 18967,
    "oting": 10277,
    "otion": 11394,
    "otional": 26131,
    "otive": 17397,
    "otle": 21765,
    "oto": 1979,
    "oton": 21111,
    "ots": 1704,
    "ott": 1593,
    "otta": 22560,
    "ottage": 29757,
    "otte": 10764,
    "otten": 7294,
    "ottenham": 16923,
    "ottest": 21767,
    "ottesville": 20730,
    "otti": 22094,
    "otto": 26795,
    "ottom": 15120,
    "otton": 12907,
    "oty": 5402,
    "otype": 8595,
    "otypes": 12470,
    "ou": 281,
    "oub": 10625,
    "ouble": 18617,
    "oubted": 14162,
    "oubtedly": 14507,
    "ouch": 8203,
    "ouched": 27726,
    "oud": 2843,
    "ouf": 30816,
    "oufl": 27652,
    "oug": 15307,
    "ough": 608,
    "ought": 2810,
    "ouk": 31588,
    "oul": 3453,
    "ould": 415,
    "oulder": 17534,
    "oulos": 17032,
    "oun": 909,
    "ounce": 8852,
    "ounced": 7929,
    "ounces": 28617,
    "ouncing": 16385,
    "ound": 647,
    "ounded": 5907,
    "ounding": 9183,
    "ounds": 3857,
    "ounge": 20743,
    "ouns": 26247,
    "ount": 607,
    "ountain": 19978,
    "ounter": 17775,
    "ounty": 20453,
    "oup": 11066,
    "our": 468,
    "ourage": 27052,
    "ource": 3639,
    "ourced": 25026,
    "ources": 3189,
    "ourcing": 23529,
    "oured": 7959,
    "ourge": 15953,
    "ourgeois": 18934,
    "ouri": 9278,
    "ouring": 21121,
    "ourn": 1773,
    "ournal": 2345,
    "ournals": 18084,
    "ournament": 17953,
    "ourney": 5990,
    "ours": 5432,
    "ourse": 8605,
    "ourt": 2658,
    "ous": 513,
    "ousand": 31820,
    "ousands": 16725,
    "ouse": 1034,
    "oused": 27697,
    "ouses": 11357,
    "ousing": 12930,
    "ously": 3297,
    "ousse": 23145,
    "oust": 14670,
    "oustic": 21352,
    "ouston": 6086,
    "out": 444,
    "oute": 14792,
    "outed": 15105,
    "outh": 1464,
    "outheast": 12358,
    "outheastern": 24559,
    "outhern": 4340,
    "outine": 30677,
    "outing": 11978,
    "outs": 4913,
    "outube": 13816,
    "ouver": 8122,
    "oux": 18914,
    "ov": 707,
    "ova": 9539,
    "ovable": 23860,
    "ovak": 19407,
    "ovakia": 24941,
    "oval": 8564,
    "ovan": 18284,
    "ove": 665,
    "oved": 2796,
    "ovember": 2771,
    "oven": 16382,
    "over": 2085,
    "overed": 2506,
    "overs": 11180,
    "overty": 21139,
    "overy": 4697,
    "oves": 5912,
    "ovic": 14272,
    "ovich": 15784,
    "ovie": 25665,
    "oving": 5295,
    "ovo": 15932,
    "ovsky": 23490,
    "ovy": 22461,
    "ovych": 30223,
    "ow": 326,
    "owa": 7059,
    "owd": 26430,
    "owder": 11597,
    "owed": 7174,
    "oween": 14682,
    "owell": 12552,
    "ower": 845,
    "owered": 6927,
    "owers": 3875,
    "owing": 8102,
    "owitz": 17439,
    "owl": 4921,
    "owler": 24482,
    "own": 599,
    "owned": 10503,
    "owner": 17050,
    "owners": 13107,
    "owns": 20929,
    "ownt": 5590,
    "owntown": 19470,
    "ows": 1974,
    "owship": 24246,
    "owski": 10206,
    "ox": 1197,
    "oxic": 22116,
    "oxide": 30910,
    "oxy": 29047,
    "oy": 729,
    "oya": 23080,
    "oyal": 4638,
    "oyd": 11707,
    "oyle": 18186,
    "oys": 19881,
    "oz": 9374,
    "ozy": 24697,
    "p": 112,
    "pa": 9274,
    "pace": 12982,
    "pack": 10221,
    "pad": 18313,
    "page": 8084,
    "paid": 17008,
    "pal": 19155,
    "pan": 6502,
    "panz": 29250,
    "paper": 19770,
    "par": 2037,
    "parable": 27183,
    "paralle": 29224,
    "param": 27524,
    "pard": 26801,
    "pared": 26575,
    "parent": 19767,
    "parents": 20645,
    "park": 19343,
    "part": 3810,
    "particularly": 26948,
    "partisan": 21132,
    "party": 9574,
    "pass": 5822,
    "pat": 8182,
    "patch": 20130,
    "path": 13072,
    "patient": 28347,
    "patrick": 23736,
    "pay": 16296,
    "payer": 26323,
    "paying": 26095,
    "pc": 19435,
    "pdf": 15306,
    "pe": 436,
    "peace": 19079,
    "pecially": 2186,
    "pect": 780,
    "pected": 7062,
    "pecting": 30421,
    "pection": 16599,
    "pective": 4773,
    "pectives": 17555,
    "pector": 20381,
    "ped": 8571,
    "peer": 29521,
    "pelled": 14218,
    "pen": 4075,
    "pensive": 22887,
    "pent": 24883,
    "people": 13780,
    "per": 553,
    "perature": 30350,
    "percent": 24451,
    "pered": 14004,
    "perfect": 24450,
    "performance": 26088,
    "performing": 26415,
    "perhaps": 25753,
    "peria": 30631,
    "perial": 12950,
    "pering": 21787,
    "perm": 17729,
    "peror": 12914,
    "pers": 17960,
    "person": 5322,
    "personal": 21923,
    "pert": 16315,
    "perties": 25708,
    "perture": 31743,
    "perty": 16706,
    "pes": 7084,
    "pet": 5664,
    "pex": 24292,
    "pg": 10041,
    "ph": 1077,
    "phal": 28236,
    "phas": 5412,
    "phasis": 28310,
    "pher": 16559,
    "pherd": 22169,
    "phies": 27165,
    "phil": 29064,
    "phis": 17197,
    "phone": 4660,
    "phones": 8441,
    "phot": 29610,
    "photo": 21057,
    "php": 14180,
    "phy": 6681,
    "pi": 19955,
    "pic": 14478,
    "pical": 17434,
    "pically": 18183,
    "pick": 30624,
    "pict": 18527,
    "pictured": 22842,
    "pie": 8824,
    "piece": 11966,
    "pieces": 31144,
    "pill": 29323,
    "pin": 11674,
    "ping": 11422,
    "pir": 3140,
    "piracy": 21717,
    "pire": 5281,
    "pired": 5526,
    "pires": 23972,
    "piring": 31191,
    "pit": 14339,
    "pite": 2206,
    "pl": 501,
    "place": 4914,
    "placed": 20585,
    "placement": 20049,
    "places": 21548,
    "plan": 12959,
    "plane": 15050,
    "planes": 20784,
    "planned": 31153,
    "plant": 16105,
    "plate": 8790,
    "plates": 20383,
    "platform": 25890,
    "play": 1993,
    "played": 18420,
    "player": 9871,
    "playing": 16405,
    "plays": 31103,
    "ple": 1240,
    "pleasant": 20711,
    "pled": 8813,
    "plement": 26569,
    "pler": 21664,
    "ples": 2626,
    "pless": 14975,
    "plete": 8570,
    "plex": 13091,
    "pling": 12102,
    "pload": 8230,
    "plom": 5717,
    "plot": 30429,
    "ploy": 1385,
    "plus": 9104,
    "ply": 2064,
    "pm": 5082,
    "png": 24064,
    "po": 6486,
    "pod": 30628,
    "point": 4182,
    "points": 12865,
    "pol": 16090,
    "policy": 30587,
    "polit": 26014,
    "political": 19065,
    "politics": 28929,
    "poll": 29036,
    "pool": 7025,
    "poon": 28258,
    "poons": 29919,
    "poor": 31587,
    "pop": 13244,
    "por": 1802,
    "pora": 29672,
    "porary": 5349,
    "porate": 31041,
    "port": 610,
    "portation": 9642,
    "ported": 8788,
    "porting": 19923,
    "portion": 7935,
    "ports": 3497,
    "pos": 16443,
    "pose": 18122,
    "position": 24554,
    "positive": 25139,
    "post": 6788,
    "posts": 25622,
    "pot": 11900,
    "pound": 15631,
    "power": 6406,
    "powered": 12860,
    "pp": 379,
    "ppe": 24692,
    "pped": 1541,
    "pper": 3327,
    "ppers": 8732,
    "ppery": 26592,
    "pping": 2174,
    "ppo": 14509,
    "ppy": 13374,
    "pr": 1061,
    "pract": 25111,
    "pre": 3393,
    "pread": 7918,
    "pres": 18217,
    "present": 22815,
    "president": 16900,
    "press": 6402,
    "pret": 6387,
    "pri": 4122,
    "price": 24831,
    "priced": 26692,
    "pril": 2568,
    "prim": 20110,
    "prime": 26823,
    "pring": 13713,
    "print": 6522,
    "prise": 7674,
    "prises": 16185,
    "prising": 12766,
    "prisingly": 17667,
    "priv": 16150,
    "private": 22627,
    "pro": 1904,
    "probably": 24777,
    "process": 18253,
    "proclaimed": 31581,
    "produ": 15221,
    "produced": 25788,
    "producing": 31080,
    "product": 12610,
    "production": 22062,
    "productive": 22450,
    "prof": 4987,
    "professional": 29791,
    "profile": 11834,
    "profit": 7831,
    "profits": 25421,
    "program": 27133,
    "project": 20592,
    "prom": 14256,
    "pron": 31235,
    "proof": 14116,
    "prop": 22164,
    "prot": 12388,
    "protected": 25169,
    "prov": 14609,
    "prus": 22670,
    "ps": 3110,
    "pse": 13701,
    "psons": 28104,
    "psy": 21062,
    "psych": 23818,
    "pt": 504,
    "pta": 26187,
    "ptic": 15250,
    "ption": 1467,
    "ptions": 9902,
    "ptive": 20318,
    "pton": 9169,
    "pty": 27227,
    "pu": 31798,
    "pub": 25074,
    "public": 12973,
    "published": 27243,
    "pun": 31920,
    "punk": 29357,
    "pur": 13558,
    "purpose": 28894,
    "pus": 26098,
    "push": 29682,
    "put": 2530,
    "puted": 14479,
    "puter": 11664,
    "px": 14636,
    "py": 12106,
    "q": 113,
    "qa": 18117,
    "ql": 18846,
    "qu": 434,
    "qual": 13829,
    "qualified": 21723,
    "quality": 12861,
    "quart": 29690,
    "quarter": 21580,
    "quarters": 7594,
    "que": 3901,
    "quel": 27675,
    "quer": 11826,
    "querque": 29925,
    "query": 28246,
    "ques": 11541,
    "quest": 8629,
    "question": 25288,
    "quet": 21856,
    "quez": 18169,
    "quin": 30596,
    "quire": 16472,
    "quirer": 30969,
    "quist": 25829,
    "quite": 31058,
    "quote": 27003,
    "r": 114,
    "ra": 518,
    "rab": 18772,
    "rac": 9976,
    "race": 9492,
    "racial": 29121,
    "ract": 1316,
    "racted": 19106,
    "raction": 19332,
    "ractions": 31790,
    "racuse": 24257,
    "rad": 4313,
    "rade": 26697,
    "rael": 1956,
    "raf": 18488,
    "raft": 1633,
    "rafted": 24344,
    "rag": 23912,
    "rage": 7355,
    "raged": 16098,
    "rah": 11063,
    "raham": 12806,
    "rahim": 20741,
    "raid": 6983,
    "raig": 9622,
    "rail": 30062,
    "rain": 2756,
    "raine": 23127,
    "rained": 13114,
    "raining": 23199,
    "raising": 27140,
    "rait": 11965,
    "raits": 23417,
    "ral": 1288,
    "ram": 4035,
    "ramble": 27362,
    "rament": 13764,
    "ramento": 15449,
    "ramid": 19825,
    "rams": 16454,
    "ran": 2213,
    "rance": 21368,
    "ranch": 22730,
    "rand": 24932,
    "random": 31292,
    "rane": 12628,
    "ranean": 14750,
    "range": 4995,
    "ranged": 31209,
    "ranging": 26038,
    "ranked": 23704,
    "ranking": 22344,
    "rans": 25808,
    "rant": 5825,
    "rap": 1382,
    "rape": 13980,
    "raper": 25102,
    "raph": 7648,
    "rapped": 9236,
    "rapping": 31398,
    "raq": 3098,
    "rar": 24152,
    "rared": 21858,
    "rary": 7118,
    "ras": 7145,
    "rase": 24737,
    "rast": 3180,
    "rastructure": 5166,
    "rat": 1237,
    "rate": 4333,
    "rated": 3725,
    "rates": 7285,
    "rath": 22868,
    "rather": 30322,
    "ratic": 27964,
    "rating": 7470,
    "ration": 1307,
    "rational": 17983,
    "rations": 6769,
    "rative": 7880,
    "ratives": 20102,
    "rator": 8209,
    "rators": 7873,
    "ratory": 29911,
    "ratt": 21959,
    "ratulations": 29428,
    "raud": 5702,
    "rav": 4203,
    "rave": 19698,
    "raved": 30938,
    "ravel": 17468,
    "raven": 24571,
    "ravis": 15845,
    "ravity": 25792,
    "ravo": 28235,
    "raw": 1967,
    "rawl": 14995,
    "rawling": 17035,
    "rawn": 5737,
    "rax": 27621,
    "ray": 2607,
    "rays": 18216,
    "raz": 3030,
    "razil": 5885,
    "razy": 5797,
    "rb": 29200,
    "rc": 11241,
    "rd": 4925,
    "re": 261,
    "rea": 18911,
    "reach": 14163,
    "reaching": 25178,
    "read": 996,
    "reading": 21077,
    "ready": 1377,
    "real": 4880,
    "realDonaldTrump": 22150,
    "really": 24253,
    "ream": 2314,
    "reamed": 15212,
    "reams": 7553,
    "reat": 639,
    "reated": 14570,
    "reath": 23756,
    "reating": 18129,
    "reatment": 22141,
    "reb": 22832,
    "rec": 8546,
    "reci": 26605,
    "reck": 10748,
    "recogn": 24068,
    "record": 20435,
    "rect": 2833,
    "rection": 9443,
    "recy": 16802,
    "red": 450,
    "reddit": 19750,
    "redible": 28607,
    "redict": 13755,
    "redients": 26886,
    "redit": 7003,
    "redited": 19567,
    "redits": 26137,
    "ree": 615,
    "reed": 1912,
    "reedom": 3204,
    "reek": 10737,
    "reen": 1400,
    "reens": 5532,
    "rees": 5004,
    "reet": 2608,
    "ref": 7671,
    "reg": 2290,
    "regist": 28906,
    "regn": 27461,
    "regon": 7233,
    "regor": 21420,
    "regular": 17832,
    "regulated": 23540,
    "regulation": 24010,
    "rehens": 25129,
    "rehensible": 30104,
    "rel": 2693,
    "reland": 5993,
    "related": 5212,
    "release": 22914,
    "released": 27115,
    "reli": 27360,
    "religious": 22171,
    "rell": 7750,
    "rella": 18712,
    "rem": 2680,
    "reme": 2116,
    "remlin": 14489,
    "ren": 907,
    "rence": 6746,
    "rench": 3238,
    "renched": 19954,
    "renches": 30013,
    "rencies": 11927,
    "rency": 5009,
    "rend": 10681,
    "render": 13494,
    "rendered": 23347,
    "rene": 21500,
    "rent": 1148,
    "rentice": 23340,
    "reon": 26979,
    "rep": 7476,
    "repe": 30185,
    "report": 26117,
    "reported": 26358,
    "repre": 8559,
    "reprene": 8620,
    "represent": 14408,
    "represented": 30012,
    "requ": 11561,
    "rer": 13805,
    "rera": 19532,
    "rero": 28151,
    "rers": 30558,
    "res": 405,
    "resa": 13640,
    "rescent": 26911,
    "resent": 1874,
    "resents": 5920,
    "resh": 3790,
    "reshold": 10798,
    "resident": 1516,
    "resistant": 25682,
    "resolution": 27263,
    "resp": 4527,
    "respect": 15210,
    "respond": 5755,
    "respons": 14238,
    "response": 30464,
    "responsible": 19326,
    "ress": 594,
    "ressed": 3722,
    "resses": 20176,
    "ressing": 11064,
    "ression": 3515,
    "ressive": 5335,
    "rest": 1848,
    "rested": 30630,
    "restrial": 20068,
    "result": 31246,
    "ret": 1287,
    "retch": 30156,
    "retched": 29392,
    "rete": 7477,
    "retion": 14671,
    "rets": 8604,
    "rett": 10645,
    "retty": 17907,
    "return": 20997,
    "rev": 19281,
    "review": 19384,
    "reviewed": 28615,
    "revolution": 27890,
    "rew": 1749,
    "rey": 4466,
    "rez": 21131,
    "rh": 21000,
    "ri": 381,
    "ria": 7388,
    "riad": 19535,
    "riage": 3854,
    "riages": 15150,
    "rial": 4246,
    "rian": 4058,
    "rians": 16612,
    "rib": 835,
    "ribe": 26181,
    "ribed": 27749,
    "riber": 25324,
    "rible": 5314,
    "ribly": 15504,
    "ribut": 2355,
    "ribute": 4592,
    "ributed": 5724,
    "ributes": 9616,
    "ribution": 4020,
    "ric": 1140,
    "rica": 26526,
    "rical": 8202,
    "ricane": 10255,
    "ricanes": 19659,
    "rice": 21968,
    "rich": 6159,
    "riched": 28479,
    "ricia": 25040,
    "rick": 4702,
    "ricks": 22886,
    "rics": 10846,
    "rict": 1939,
    "ricted": 21543,
    "rid": 5840,
    "ride": 25475,
    "ridge": 12573,
    "ridges": 31779,
    "rie": 5488,
    "ried": 2179,
    "rief": 3604,
    "riel": 14061,
    "rien": 13644,
    "riend": 1294,
    "rient": 8173,
    "rients": 19442,
    "rier": 5535,
    "riers": 8038,
    "ries": 1555,
    "rif": 9652,
    "rific": 7537,
    "rifice": 11207,
    "rig": 4330,
    "riger": 18922,
    "right": 2329,
    "rights": 21384,
    "rik": 8065,
    "rike": 11084,
    "rikes": 16732,
    "ril": 23655,
    "rill": 19067,
    "rily": 29536,
    "rim": 4724,
    "rimin": 9043,
    "riminal": 25571,
    "rimination": 7033,
    "rimp": 25893,
    "rin": 11314,
    "rina": 18370,
    "rine": 8641,
    "ring": 1923,
    "rington": 21476,
    "rint": 13354,
    "rio": 21958,
    "rior": 9993,
    "riors": 9828,
    "rip": 6206,
    "ripp": 14707,
    "ript": 2445,
    "ription": 4194,
    "rique": 25854,
    "rir": 30138,
    "ris": 2036,
    "rise": 17260,
    "rises": 26013,
    "rising": 17153,
    "risk": 17062,
    "rison": 6612,
    "rist": 1474,
    "ristol": 19318,
    "rists": 30614,
    "risy": 21870,
    "rit": 706,
    "rite": 9070,
    "rites": 27337,
    "ritical": 15500,
    "rities": 16040,
    "rition": 10974,
    "ritional": 23110,
    "ritis": 29416,
    "ritz": 26146,
    "rium": 19130,
    "riv": 10850,
    "rivation": 26905,
    "rive": 6674,
    "rived": 15995,
    "river": 28710,
    "riving": 13710,
    "rix": 9794,
    "rm": 29608,
    "rne": 27265,
    "ro": 308,
    "road": 5316,
    "roads": 17877,
    "rob": 22346,
    "robe": 27359,
    "roc": 12491,
    "rock": 10321,
    "rod": 16343,
    "rodu": 2154,
    "roduction": 13485,
    "roe": 18930,
    "rog": 5475,
    "rogen": 15393,
    "roid": 3991,
    "rol": 4040,
    "rolet": 27041,
    "roll": 3933,
    "rolled": 8247,
    "roller": 12884,
    "rolling": 14207,
    "rolls": 24966,
    "rolog": 31160,
    "rom": 396,
    "rome": 6586,
    "ron": 1424,
    "rone": 15193,
    "rones": 14931,
    "rong": 14586,
    "ronic": 4827,
    "ronics": 22744,
    "rons": 11529,
    "ront": 4229,
    "ronting": 24316,
    "room": 3184,
    "rooms": 9177,
    "root": 20930,
    "roots": 14303,
    "rop": 1655,
    "roph": 9913,
    "rophe": 18627,
    "rophic": 15730,
    "ropic": 31836,
    "ropical": 27258,
    "ropolis": 26633,
    "ropolitan": 13152,
    "ropri": 8722,
    "ropy": 29374,
    "ror": 1548,
    "rors": 6794,
    "ros": 4792,
    "rose": 13840,
    "ross": 1200,
    "rost": 26382,
    "rot": 10356,
    "rote": 2084,
    "rots": 25500,
    "rottle": 28730,
    "rou": 477,
    "roud": 5216,
    "rough": 731,
    "rought": 2739,
    "round": 734,
    "roup": 948,
    "rous": 7912,
    "rov": 17300,
    "rovers": 25413,
    "row": 808,
    "rowd": 3448,
    "rowing": 10207,
    "rown": 2809,
    "rows": 9501,
    "rowth": 14015,
    "roy": 3547,
    "rr": 26207,
    "rs": 3920,
    "rt": 19936,
    "ru": 604,
    "ruary": 3171,
    "rub": 28859,
    "ruce": 24252,
    "ruck": 30835,
    "ruct": 1406,
    "ructed": 18590,
    "ruction": 2819,
    "ructions": 22535,
    "ructive": 13000,
    "ructure": 2909,
    "rue": 22721,
    "rued": 26429,
    "rug": 1965,
    "rugged": 22827,
    "rugu": 24935,
    "ruit": 5147,
    "rule": 27505,
    "ruly": 31417,
    "rum": 6053,
    "run": 5086,
    "runner": 14518,
    "running": 17342,
    "rup": 11938,
    "rupal": 31296,
    "rupt": 3520,
    "ruption": 5627,
    "rus": 16436,
    "rust": 12891,
    "ry": 570,
    "ryan": 26350,
    "rying": 11160,
    "ryn": 28982,
    "rypt": 7433,
    "ryption": 12432,
    "rys": 19422,
    "rÃ©": 23508,
    "s": 115,
    "sa": 9903,
    "sac": 30356,
    "safe": 22314,
    "sal": 24807,
    "san": 17678,
    "save": 27002,
    "saving": 24637,
    "say": 17383,
    "sburg": 29338,
    "sc": 1475,
    "scale": 8745,
    "scape": 7716,
    "scar": 10755,
    "scars": 31700,
    "scenes": 24997,
    "sch": 20756,
    "sche": 14482,
    "school": 13045,
    "science": 15464,
    "scient": 21413,
    "scill": 22723,
    "scope": 31632,
    "screen": 10152,
    "scrib": 4520,
    "scribe": 9624,
    "script": 15810,
    "se": 327,
    "sea": 7213,
    "search": 15860,
    "season": 4849,
    "seat": 19391,
    "sec": 2248,
    "second": 13128,
    "secret": 18947,
    "sect": 9477,
    "section": 9880,
    "sections": 29236,
    "sector": 27547,
    "secure": 20922,
    "security": 10730,
    "secut": 3909,
    "secution": 16870,
    "secutive": 10947,
    "secutor": 27582,
    "secutors": 21429,
    "see": 4061,
    "seek": 27894,
    "seen": 15980,
    "sein": 16171,
    "sel": 744,
    "select": 25505,
    "seless": 11598,
    "self": 972,
    "sell": 7257,
    "seller": 28114,
    "selling": 13999,
    "sels": 8110,
    "selves": 1886,
    "semb": 4633,
    "semble": 15585,
    "sembly": 6179,
    "sen": 5333,
    "senal": 8208,
    "send": 23872,
    "sens": 18663,
    "sensitive": 28725,
    "sequ": 3026,
    "sequently": 19956,
    "ser": 3947,
    "series": 24566,
    "serious": 27129,
    "serv": 8450,
    "server": 15060,
    "service": 18093,
    "serving": 27468,
    "ses": 9763,
    "set": 3057,
    "sett": 19224,
    "setting": 30438,
    "seud": 12826,
    "seven": 25015,
    "sever": 25991,
    "sewhere": 27305,
    "sex": 5876,
    "sexual": 18335,
    "sey": 3905,
    "seys": 22664,
    "sh": 1677,
    "shadow": 18394,
    "shake": 31188,
    "shaped": 16815,
    "share": 23772,
    "sharing": 17402,
    "shaw": 27304,
    "she": 7847,
    "shed": 30392,
    "sheet": 22336,
    "shield": 30149,
    "shine": 18771,
    "ship": 7260,
    "ships": 24759,
    "shire": 9029,
    "shirt": 14266,
    "shirts": 19769,
    "shit": 17215,
    "shoot": 27162,
    "shop": 30767,
    "shore": 11625,
    "short": 23549,
    "shot": 12015,
    "shots": 25168,
    "should": 20205,
    "show": 15944,
    "si": 16390,
    "sic": 18825,
    "side": 1510,
    "sided": 20401,
    "sight": 16801,
    "sign": 12913,
    "signed": 30216,
    "significant": 29289,
    "sil": 20022,
    "sim": 15354,
    "sin": 30235,
    "since": 22943,
    "sis": 14537,
    "site": 17416,
    "six": 17959,
    "size": 11786,
    "sized": 12636,
    "sk": 12120,
    "ski": 12809,
    "skin": 22873,
    "sky": 12705,
    "sl": 9725,
    "slaught": 28420,
    "sle": 26643,
    "slist": 31669,
    "sm": 7236,
    "small": 21752,
    "smart": 25994,
    "smith": 23996,
    "sn": 17038,
    "so": 551,
    "soc": 29415,
    "social": 16132,
    "soever": 15565,
    "soft": 4079,
    "sold": 24525,
    "sole": 6711,
    "solete": 22581,
    "some": 10421,
    "something": 16935,
    "sometimes": 27955,
    "son": 1257,
    "song": 30448,
    "sonian": 29797,
    "soon": 28073,
    "sor": 22161,
    "sound": 30710,
    "source": 13154,
    "sover": 20066,
    "sp": 3465,
    "space": 14619,
    "span": 19291,
    "spe": 4626,
    "speaking": 20010,
    "special": 22214,
    "specific": 12423,
    "speed": 11351,
    "spin": 31165,
    "spir": 25838,
    "spl": 26497,
    "spoken": 15870,
    "spons": 16289,
    "sponsored": 20236,
    "spot": 23150,
    "squ": 15934,
    "square": 20441,
    "src": 21005,
    "ss": 859,
    "sson": 13774,
    "st": 304,
    "stack": 30112,
    "stad": 20949,
    "staff": 27128,
    "stage": 13506,
    "stairs": 18622,
    "stakes": 31970,
    "stal": 9632,
    "stan": 12299,
    "stanbul": 19194,
    "stand": 1427,
    "standard": 21822,
    "standing": 5519,
    "stant": 22974,
    "star": 7426,
    "stars": 29740,
    "start": 12722,
    "starter": 10545,
    "stasy": 31641,
    "stat": 27334,
    "state": 5253,
    "stated": 18248,
    "statement": 24537,
    "states": 26917,
    "static": 20757,
    "station": 17611,
    "status": 20966,
    "stay": 28357,
    "ste": 4177,
    "stead": 25225,
    "sted": 23846,
    "steen": 31416,
    "stein": 5151,
    "stellar": 29160,
    "stem": 945,
    "sten": 23708,
    "step": 9438,
    "steps": 18916,
    "ster": 1737,
    "sterdam": 20465,
    "sters": 6988,
    "stick": 16067,
    "still": 21607,
    "sto": 31846,
    "stock": 12802,
    "ston": 3516,
    "stone": 6876,
    "stones": 28460,
    "stood": 6272,
    "stop": 10626,
    "store": 13023,
    "storm": 12190,
    "story": 12544,
    "stown": 23918,
    "str": 6511,
    "stra": 11347,
    "stract": 8218,
    "strap": 27027,
    "stre": 22748,
    "stream": 5094,
    "street": 27084,
    "strike": 26839,
    "string": 12013,
    "stro": 22146,
    "strom": 18431,
    "strong": 10617,
    "stru": 21290,
    "struct": 27899,
    "sts": 5731,
    "stud": 18857,
    "sty": 20977,
    "style": 6573,
    "su": 17216,
    "sub": 9921,
    "success": 27630,
    "such": 11232,
    "sum": 19019,
    "sun": 16946,
    "super": 18277,
    "supp": 12420,
    "support": 26243,
    "supported": 31013,
    "sur": 12326,
    "sw": 2147,
    "swer": 23344,
    "swick": 26457,
    "sworth": 27620,
    "sy": 2008,
    "sych": 3084,
    "sylv": 7992,
    "sylvania": 8059,
    "syn": 30167,
    "system": 15315,
    "t": 116,
    "ta": 6857,
    "tab": 24209,
    "table": 13542,
    "tag": 19459,
    "tail": 13155,
    "tailed": 29954,
    "tails": 25126,
    "tain": 926,
    "tainment": 10491,
    "take": 18749,
    "taker": 28623,
    "taking": 23165,
    "tal": 31508,
    "tale": 25298,
    "talk": 15389,
    "tank": 25955,
    "tar": 21847,
    "target": 22687,
    "tarian": 11275,
    "tarians": 22020,
    "tax": 17629,
    "td": 27990,
    "te": 671,
    "team": 14859,
    "tech": 12381,
    "techn": 21383,
    "ted": 1015,
    "tee": 2596,
    "teen": 7940,
    "teenth": 23068,
    "tees": 13678,
    "tein": 30129,
    "telling": 15703,
    "tem": 15295,
    "ten": 1019,
    "tenance": 9459,
    "ter": 348,
    "terday": 5360,
    "tered": 4458,
    "tering": 6421,
    "terior": 14981,
    "term": 3944,
    "termin": 28255,
    "tern": 754,
    "ternal": 5759,
    "terns": 29728,
    "terror": 10996,
    "terrorism": 15729,
    "terrorist": 31308,
    "ters": 883,
    "terson": 20074,
    "tery": 4731,
    "tes": 7708,
    "tesque": 31687,
    "test": 10959,
    "testing": 31531,
    "text": 7801,
    "th": 417,
    "tha": 13136,
    "thal": 11452,
    "than": 12850,
    "thanks": 30797,
    "that": 5482,
    "the": 1107,
    "their": 22356,
    "theless": 9078,
    "them": 15850,
    "themed": 21542,
    "then": 8043,
    "thening": 18864,
    "ther": 494,
    "there": 7331,
    "thereum": 14964,
    "these": 25775,
    "thew": 7465,
    "they": 9230,
    "thia": 30613,
    "thing": 1196,
    "think": 12568,
    "thinkable": 29968,
    "thinking": 24717,
    "third": 15496,
    "thirds": 14628,
    "this": 7639,
    "thodox": 11018,
    "thon": 8185,
    "thood": 10770,
    "thora": 29133,
    "those": 23215,
    "though": 1922,
    "thought": 25012,
    "thouse": 19690,
    "thread": 25657,
    "threat": 17295,
    "threatening": 23073,
    "three": 15308,
    "thro": 31138,
    "throp": 10284,
    "through": 9187,
    "ths": 14674,
    "thur": 11213,
    "thy": 21511,
    "ti": 17056,
    "tic": 15234,
    "tical": 22626,
    "tics": 13006,
    "tier": 21089,
    "ties": 4169,
    "tim": 23132,
    "time": 2406,
    "times": 20794,
    "ting": 769,
    "tingham": 29822,
    "tingly": 28245,
    "tingu": 26456,
    "tion": 5932,
    "tit": 12255,
    "title": 17412,
    "tle": 856,
    "tlement": 23672,
    "tles": 30140,
    "tlet": 25204,
    "tml": 24963,
    "to": 1356,
    "ton": 1069,
    "too": 10600,
    "toos": 25927,
    "top": 5581,
    "tor": 13746,
    "total": 25787,
    "touch": 29145,
    "town": 11177,
    "tr": 3199,
    "tra": 10559,
    "track": 11240,
    "trade": 22003,
    "traditional": 30435,
    "train": 25915,
    "trained": 30901,
    "trans": 9227,
    "tre": 24775,
    "tree": 23988,
    "tri": 27809,
    "trl": 29223,
    "tro": 25274,
    "true": 16848,
    "ts": 880,
    "tsburgh": 10114,
    "tsky": 30640,
    "tt": 1221,
    "tta": 22814,
    "ttes": 12064,
    "tti": 28526,
    "ttp": 2021,
    "tu": 30864,
    "tun": 26138,
    "turn": 22424,
    "turned": 26998,
    "tv": 20219,
    "tw": 15284,
    "twitter": 6258,
    "two": 11649,
    "txt": 23528,
    "ty": 847,
    "type": 8481,
    "types": 26632,
    "tz": 19676,
    "u": 117,
    "ua": 6632,
    "uable": 6655,
    "uably": 11652,
    "uador": 20303,
    "ual": 737,
    "ually": 921,
    "uan": 7501,
    "uana": 4008,
    "uania": 28182,
    "uant": 29592,
    "uart": 16676,
    "uary": 2543,
    "uate": 5029,
    "uated": 6607,
    "uates": 11870,
    "uating": 11093,
    "uation": 2204,
    "uations": 5941,
    "ub": 531,
    "uba": 21376,
    "ubarak": 23078,
    "ube": 3736,
    "uber": 18571,
    "ubl": 1739,
    "uble": 28441,
    "ublic": 755,
    "ublin": 13777,
    "ublished": 10762,
    "ubs": 21794,
    "uc": 1179,
    "ucc": 13570,
    "uccess": 11164,
    "ucci": 21159,
    "uce": 7939,
    "uced": 13801,
    "uch": 774,
    "uchi": 27290,
    "uchs": 30263,
    "ucing": 23732,
    "uck": 1374,
    "ucked": 17060,
    "ucker": 11325,
    "ucking": 23969,
    "uckland": 24040,
    "ucks": 5688,
    "ucky": 4971,
    "ucle": 15411,
    "uclear": 3251,
    "uct": 4984,
    "uction": 8633,
    "uctions": 26887,
    "ud": 472,
    "uda": 16673,
    "udd": 4213,
    "uddenly": 19707,
    "uddle": 23697,
    "uddled": 28569,
    "uddy": 21983,
    "ude": 2585,
    "udeau": 11954,
    "uded": 17341,
    "uder": 27355,
    "udes": 8160,
    "udge": 12620,
    "udget": 24120,
    "udic": 25896,
    "uding": 24874,
    "udo": 24256,
    "uds": 21166,
    "ue": 539,
    "ued": 1560,
    "uel": 2598,
    "ueller": 13389,
    "uels": 11740,
    "uer": 7875,
    "uerto": 12244,
    "ues": 896,
    "uesday": 2645,
    "uese": 16656,
    "uez": 12217,
    "uf": 3152,
    "ufact": 3671,
    "uff": 1742,
    "uffed": 16458,
    "uffer": 21022,
    "ufficient": 15010,
    "uffle": 18024,
    "uffled": 29685,
    "uffs": 19360,
    "uffy": 16439,
    "ug": 1245,
    "ugar": 16757,
    "ugby": 11505,
    "uge": 1975,
    "ugg": 4235,
    "uggage": 29210,
    "ugged": 13691,
    "ugger": 25966,
    "uggets": 25566,
    "ugging": 14013,
    "uggish": 31282,
    "ugh": 6668,
    "ught": 9014,
    "ugin": 25795,
    "ugs": 12006,
    "uh": 9040,
    "ui": 10062,
    "uild": 4124,
    "uilding": 6935,
    "uilt": 22183,
    "uine": 7547,
    "uing": 3325,
    "uit": 3148,
    "uitive": 29098,
    "uits": 8751,
    "uity": 14973,
    "uj": 11662,
    "uk": 3039,
    "uka": 19039,
    "uke": 5043,
    "ukes": 28360,
    "uki": 14500,
    "ul": 378,
    "ula": 4810,
    "ular": 1089,
    "ularly": 2500,
    "ulars": 28729,
    "ulas": 29194,
    "ulate": 4903,
    "ulated": 4636,
    "ulates": 15379,
    "ulating": 7945,
    "ulation": 1748,
    "ulations": 5898,
    "ulative": 13652,
    "ulator": 14938,
    "ulators": 21648,
    "ulatory": 21257,
    "ule": 2557,
    "uled": 21423,
    "ulence": 30182,
    "ulent": 13825,
    "ules": 7633,
    "ulf": 4630,
    "ulic": 27824,
    "ulin": 15557,
    "ulk": 15181,
    "ull": 743,
    "ullah": 26541,
    "ulled": 31064,
    "ulling": 30118,
    "ullivan": 13791,
    "ulls": 31987,
    "ully": 2132,
    "ulous": 6494,
    "ulously": 16672,
    "ulpt": 12706,
    "uls": 6032,
    "ulse": 11024,
    "ulsion": 14517,
    "ult": 596,
    "ultan": 24865,
    "ultane": 9146,
    "ults": 12170,
    "ultural": 8503,
    "ulture": 6833,
    "ulty": 10434,
    "ultz": 17535,
    "ulu": 14497,
    "ulum": 13738,
    "ulus": 26015,
    "uly": 1894,
    "ulz": 26884,
    "um": 402,
    "uma": 8172,
    "umably": 27527,
    "uman": 4023,
    "umar": 16803,
    "umat": 25330,
    "umatic": 16329,
    "umb": 2288,
    "umbai": 15837,
    "umber": 6628,
    "umbered": 25323,
    "umbing": 30212,
    "umbl": 14003,
    "umble": 9720,
    "umbled": 12523,
    "umbles": 23787,
    "umbling": 13630,
    "umblr": 15305,
    "umbo": 24931,
    "umbs": 21600,
    "ume": 2912,
    "umed": 17795,
    "umen": 21949,
    "ument": 1899,
    "uments": 3073,
    "umer": 7900,
    "umers": 25659,
    "umes": 8225,
    "umi": 20136,
    "umin": 7967,
    "uming": 12228,
    "umm": 12309,
    "ummer": 31157,
    "ummy": 16860,
    "umn": 4862,
    "umni": 21962,
    "umns": 15040,
    "ump": 799,
    "umped": 21779,
    "umper": 17560,
    "umph": 10495,
    "umping": 20421,
    "umps": 18991,
    "umption": 27485,
    "umpy": 31331,
    "ums": 6853,
    "un": 403,
    "una": 11487,
    "unal": 18474,
    "unch": 1943,
    "unciation": 25570,
    "unct": 13087,
    "unction": 5727,
    "uncture": 28931,
    "und": 867,
    "under": 5302,
    "undred": 3024,
    "undreds": 16512,
    "une": 1694,
    "unes": 8675,
    "ung": 2146,
    "unge": 16063,
    "unged": 24734,
    "ungle": 14591,
    "unicip": 8802,
    "unicipal": 10070,
    "unicipality": 26283,
    "union": 22375,
    "unior": 8336,
    "unique": 15772,
    "unit": 27122,
    "unity": 11049,
    "unk": 3126,
    "unks": 15346,
    "unky": 25801,
    "unless": 27417,
    "unning": 7134,
    "unningham": 27108,
    "uns": 14074,
    "unt": 2807,
    "untary": 27252,
    "unte": 5860,
    "until": 27538,
    "untu": 11191,
    "uo": 29380,
    "uous": 5829,
    "uously": 23058,
    "up": 895,
    "update": 30655,
    "uper": 8004,
    "upert": 23536,
    "upid": 7718,
    "upiter": 18536,
    "upload": 29796,
    "upon": 29857,
    "upp": 4367,
    "ups": 4910,
    "ur": 333,
    "ura": 7171,
    "urable": 13443,
    "urai": 24882,
    "ural": 1476,
    "urally": 17430,
    "urance": 3795,
    "urances": 25610,
    "uras": 15570,
    "uration": 5340,
    "urations": 24569,
    "urb": 4564,
    "urban": 30269,
    "urbed": 18052,
    "urch": 1738,
    "urchase": 26385,
    "urches": 11300,
    "urd": 2538,
    "urdy": 28210,
    "ure": 503,
    "ureau": 5430,
    "ured": 1486,
    "uren": 29421,
    "urer": 29660,
    "urers": 31382,
    "ures": 976,
    "urg": 3487,
    "urger": 27775,
    "uri": 11608,
    "uries": 4295,
    "uring": 842,
    "urious": 16333,
    "uristic": 23452,
    "urities": 11997,
    "urity": 1482,
    "url": 13686,
    "urn": 776,
    "urned": 12743,
    "urning": 3006,
    "uro": 1290,
    "urous": 27765,
    "urp": 30658,
    "urrection": 28062,
    "urred": 13039,
    "urrent": 7746,
    "urring": 14456,
    "urry": 16389,
    "urs": 1461,
    "ursday": 2816,
    "urse": 10752,
    "ursed": 31098,
    "ursion": 26725,
    "ursor": 25264,
    "urst": 19995,
    "urt": 3471,
    "urther": 1843,
    "uru": 14035,
    "ury": 1489,
    "us": 385,
    "usa": 23175,
    "usable": 29248,
    "usal": 6320,
    "usalem": 9246,
    "usat": 26498,
    "usc": 16766,
    "usch": 23995,
    "uscript": 15887,
    "use": 1877,
    "used": 1404,
    "usement": 26190,
    "user": 10443,
    "users": 20194,
    "uses": 2948,
    "useum": 5398,
    "ush": 1529,
    "ushed": 15972,
    "ushes": 25689,
    "ushi": 21017,
    "ushima": 21641,
    "ushing": 15007,
    "usiness": 5880,
    "using": 3435,
    "usion": 3970,
    "usions": 15591,
    "usive": 8089,
    "usk": 18606,
    "usp": 18589,
    "usr": 24847,
    "usra": 22162,
    "uss": 987,
    "ussed": 26897,
    "ussen": 27257,
    "ussia": 26159,
    "ussian": 31866,
    "ussion": 13357,
    "ussions": 18920,
    "ussy": 24166,
    "ust": 437,
    "ustain": 16442,
    "ustainable": 19382,
    "usted": 8176,
    "uster": 5324,
    "usterity": 14856,
    "usters": 12538,
    "usting": 11359,
    "ustom": 1933,
    "ustomed": 21152,
    "usually": 23954,
    "ut": 312,
    "uta": 28862,
    "utable": 24499,
    "utan": 31334,
    "utation": 29594,
    "utch": 6525,
    "ute": 1174,
    "uted": 8750,
    "uten": 9508,
    "utenant": 15093,
    "uter": 10906,
    "uters": 5102,
    "uterte": 17650,
    "utes": 1895,
    "uth": 1098,
    "uther": 11261,
    "uthor": 1478,
    "utic": 19046,
    "utical": 13295,
    "uties": 8267,
    "util": 29871,
    "uting": 14917,
    "ution": 988,
    "utions": 3261,
    "uto": 11583,
    "uton": 25656,
    "utory": 22965,
    "utral": 19004,
    "uts": 5642,
    "utsche": 23890,
    "utt": 12140,
    "utter": 10698,
    "utterstock": 23131,
    "utton": 18635,
    "uture": 1624,
    "uty": 3778,
    "utz": 24024,
    "uu": 22511,
    "uum": 14131,
    "uv": 13815,
    "ux": 3392,
    "uy": 6165,
    "uz": 9854,
    "uzz": 5288,
    "uzzle": 26755,
    "v": 118,
    "va": 6457,
    "vable": 21933,
    "vag": 28541,
    "val": 2579,
    "valid": 12586,
    "vals": 13765,
    "value": 12711,
    "van": 9734,
    "vana": 31925,
    "vance": 18086,
    "vant": 4820,
    "var": 11220,
    "vard": 8621,
    "vari": 28571,
    "vas": 10955,
    "vasive": 19760,
    "vation": 13226,
    "vd": 24518,
    "ve": 305,
    "ved": 1036,
    "veillance": 24272,
    "vel": 651,
    "velength": 25268,
    "vell": 28824,
    "velop": 1014,
    "velt": 15118,
    "vement": 22140,
    "ven": 564,
    "venant": 20986,
    "venge": 30644,
    "vent": 3120,
    "vention": 4557,
    "ventional": 21467,
    "ventions": 16384,
    "ventus": 28118,
    "venue": 3682,
    "ver": 332,
    "verage": 1800,
    "verages": 25581,
    "vere": 3925,
    "vered": 21262,
    "verett": 28568,
    "vern": 790,
    "verning": 12825,
    "vernment": 9411,
    "vers": 680,
    "verse": 4955,
    "versely": 20613,
    "version": 11763,
    "vert": 1693,
    "verted": 16449,
    "vertise": 2798,
    "vertisement": 3241,
    "vertisements": 9660,
    "vertising": 19419,
    "verts": 22909,
    "verty": 6938,
    "very": 543,
    "ves": 1136,
    "vest": 4343,
    "vet": 15827,
    "vette": 29995,
    "vey": 5399,
    "veyard": 25028,
    "vez": 25444,
    "vi": 10280,
    "via": 10164,
    "vic": 26789,
    "vict": 29752,
    "vid": 18731,
    "video": 20928,
    "vidia": 23551,
    "vie": 31770,
    "view": 1205,
    "vig": 30862,
    "vik": 29269,
    "ville": 3948,
    "vin": 6636,
    "vine": 23776,
    "ving": 1047,
    "viol": 14225,
    "violence": 31488,
    "violent": 19879,
    "vious": 12267,
    "viously": 7722,
    "viron": 2075,
    "vironment": 2251,
    "vironments": 11319,
    "vis": 5156,
    "vised": 15761,
    "visible": 28404,
    "vision": 9658,
    "visor": 13137,
    "visors": 23959,
    "vity": 20127,
    "vm": 29463,
    "vo": 11323,
    "voc": 16940,
    "vol": 12238,
    "volent": 27632,
    "volume": 31086,
    "von": 22885,
    "vor": 16328,
    "vote": 27730,
    "vous": 30529,
    "vs": 21989,
    "vy": 7259,
    "w": 119,
    "wa": 10269,
    "wage": 17253,
    "wagen": 23624,
    "wait": 17316,
    "wal": 12943,
    "wald": 19247,
    "walk": 9325,
    "walker": 25192,
    "walks": 24811,
    "wall": 11227,
    "wan": 7082,
    "war": 5393,
    "ward": 889,
    "wards": 2003,
    "ware": 1586,
    "wart": 13721,
    "wartz": 22105,
    "was": 9302,
    "wat": 26574,
    "watch": 9904,
    "water": 6116,
    "waukee": 13053,
    "wave": 20329,
    "waves": 25905,
    "way": 1000,
    "ways": 1297,
    "wd": 26328,
    "we": 714,
    "wealth": 14411,
    "wear": 14353,
    "weather": 20366,
    "web": 16511,
    "wed": 10392,
    "week": 9771,
    "ween": 954,
    "weet": 7863,
    "wegian": 17385,
    "weight": 6616,
    "well": 4365,
    "welling": 25631,
    "wen": 20501,
    "went": 18085,
    "wer": 14095,
    "were": 19810,
    "wered": 8617,
    "west": 6419,
    "western": 12417,
    "wh": 1603,
    "what": 4851,
    "whe": 12548,
    "wheel": 22592,
    "whel": 6213,
    "whelming": 31394,
    "when": 12501,
    "where": 2390,
    "whether": 24849,
    "which": 4529,
    "while": 3888,
    "white": 10793,
    "who": 7785,
    "why": 22283,
    "wic": 20693,
    "wich": 10966,
    "wick": 14700,
    "wide": 3923,
    "width": 13525,
    "wife": 20804,
    "wig": 24815,
    "wik": 25461,
    "wiki": 26063,
    "wild": 22196,
    "will": 10078,
    "win": 4321,
    "wind": 10374,
    "wing": 4922,
    "winning": 11795,
    "wire": 21195,
    "wise": 3493,
    "wit": 1410,
    "witch": 4394,
    "with": 4986,
    "without": 19646,
    "withstanding": 26127,
    "witter": 1938,
    "witz": 25097,
    "witzer": 11906,
    "witzerland": 12159,
    "wives": 31180,
    "wn": 670,
    "wo": 3134,
    "wolf": 27075,
    "wolves": 31668,
    "woman": 6806,
    "women": 23382,
    "won": 23135,
    "wood": 3613,
    "word": 6063,
    "words": 11631,
    "work": 1583,
    "worked": 28478,
    "worker": 26327,
    "workers": 19650,
    "working": 14540,
    "works": 4521,
    "world": 7652,
    "worm": 25231,
    "worth": 8262,
    "worthy": 16294,
    "would": 16276,
    "wp": 25865,
    "wright": 25310,
    "writ": 5836,
    "write": 14784,
    "writer": 13333,
    "writers": 25897,
    "writing": 14235,
    "written": 12210,
    "ws": 20596,
    "ww": 2157,
    "www": 4001,
    "wy": 23761,
    "wyn": 25207,
    "x": 120,
    "xc": 30132,
    "xd": 27525,
    "xi": 29511,
    "ximately": 24057,
    "xit": 8601,
    "xml": 27893,
    "xon": 19576,
    "xt": 791,
    "xton": 18716,
    "xual": 6773,
    "xx": 8679,
    "xxxx": 22061,
    "xy": 6637,
    "y": 121,
    "ya": 4000,
    "yan": 3616,
    "yang": 15466,
    "yard": 8109,
    "yards": 30680,
    "yd": 14965,
    "ye": 7675,
    "year": 1602,
    "years": 19096,
    "yer": 8929,
    "yers": 20385,
    "yes": 9656,
    "yet": 22524,
    "yg": 24336,
    "ying": 1063,
    "yl": 3356,
    "ylan": 16416,
    "yle": 2386,
    "yll": 22029,
    "ylon": 19201,
    "ylum": 9870,
    "ym": 5013,
    "ymes": 23278,
    "ymph": 24339,
    "yn": 2115,
    "ynam": 5063,
    "ynasty": 17337,
    "ync": 16739,
    "ynchron": 25036,
    "ynchronous": 29719,
    "yo": 8917,
    "yon": 16892,
    "yond": 3027,
    "you": 6679,
    "your": 16083,
    "youtube": 18315,
    "yr": 5499,
    "yre": 28240,
    "yrr": 24458,
    "yrrha": 25087,
    "yrus": 22252,
    "ys": 940,
    "ysc": 26653,
    "ysical": 17087,
    "ysics": 23814,
    "ysis": 3137,
    "yson": 16968,
    "yssey": 26642,
    "ystem": 7860,
    "yton": 26322,
    "yy": 31456,
    "z": 122,
    "za": 4422,
    "zai": 26259,
    "zan": 22083,
    "zb": 12569,
    "zbollah": 16214,
    "ze": 2967,
    "zed": 8723,
    "zel": 17217,
    "zen": 4534,
    "zens": 7086,
    "zer": 5764,
    "zero": 23750,
    "zes": 12321,
    "zh": 15021,
    "zhou": 28631,
    "zi": 14195,
    "zilla": 15778,
    "zing": 8983,
    "zip": 22473,
    "zman": 26493,
    "zo": 12693,
    "zon": 26552,
    "zona": 6343,
    "zone": 11111,
    "zos": 30166,
    "zsche": 31499,
    "zy": 7444,
    "zyme": 27406,
    "zz": 3409,
    "zza": 29156,
    "{": 123,
    "{\"": 18371,
    "{\\": 14808,
    "{{": 28095,
    "|": 124,
    "||": 30052,
    "}": 125,
    "})": 30705,
    "},": 17497,
    "}\\": 26114,
    "}{": 25477,
    "}}": 9893,
    "~": 126,
    "~~": 11568,
    "~~~~": 19732,
    "¡": 161,
    "¢": 162,
    "£": 163,
    "¤": 164,
    "¥": 165,
    "¦": 166,
    "§": 167,
    "¨": 168,
    "©": 169,
    "ª": 170,
    "«": 171,
    "¬": 172,
    "®": 174,
    "¯": 175,
    "°": 176,
    "±": 177,
    "²": 178,
    "³": 179,
    "´": 180,
    "µ": 181,
    "¶": 182,
    "·": 183,
    "¸": 184,
    "¹": 185,
    "º": 186,
    "»": 187,
    "»¿": 27171,
    "¼": 188,
    "½": 189,
    "¾": 190,
    "¿": 191,
    "À": 192,
    "Á": 193,
    "Â": 194,
    "Â¢": 25938,
    "Â£": 13617,
    "Â©": 15924,
    "Â®": 14281,
    "Â°": 9116,
    "Â±": 26989,
    "Â´": 26447,
    "Â·": 12401,
    "Â»": 17121,
    "Â½": 23439,
    "ÂĢ": 16677,
    "ÂĢÂ": 18618,
    "ÂĢÂĻ": 28439,
    "ÂĴ": 8860,
    "ÂĶ": 12458,
    "ÂĹ": 22806,
    "ÂĿ": 26368,
    "ÂŃ": 2907,
    "Ã": 195,
    "Ã¡": 4919,
    "Ã¡n": 15716,
    "Ã¡s": 22738,
    "Ã¢": 9886,
    "Ã£": 13406,
    "Ã£o": 14134,
    "Ã¤": 5798,
    "Ã¤r": 26870,
    "Ã¥": 11645,
    "Ã¦": 24390,
    "Ã§": 10541,
    "Ã§Ã£o": 28462,
    "Ã¨": 10729,
    "Ã¨re": 26660,
    "Ã©": 2242,
    "Ã©d": 31810,
    "Ã©e": 16784,
    "Ã©mon": 13603,
    "Ã©n": 24602,
    "Ã©r": 31126,
    "Ã©s": 13267,
    "Ã©t": 17585,
    "Ãª": 19243,
    "Ã«": 26060,
    "Ã¯": 22610,
    "Ã±": 9896,
    "Ã±a": 23305,
    "Ã±o": 22709,
    "Ã³": 6369,
    "Ã³n": 10733,
    "Ã´": 24441,
    "Ã¶": 6334,
    "Ã¶r": 17325,
    "Ã¸": 18444,
    "Ãº": 16039,
    "Ã¼": 6505,
    "Ã¼r": 15412,
    "ÃĤ": 6198,
    "Ãĥ": 6521,
    "ÃĥÃĤ": 6936,
    "ÃĥÃĤÃĥÃĤ": 6951,
    "ÃĥÃĤÃĥÃĤÃĥÃĤÃĥÃĤ": 10852,
    "ÃĥÃĤÃĥÃĤÃĥÃĤÃĥÃĤÃĥÃĤÃĥÃĤÃĥÃĤÃĥÃĤ": 16885,
    "ÃĥÃĤÃĥÃĤÃĥÃĤÃĥÃĤÃĥÃĤÃĥÃĤÃĥÃĤÃĥÃĤÃĥÃĤÃĥÃĤÃĥÃĤÃĥÃĤÃĥÃĤÃĥÃĤÃĥÃĤÃĥÃĤ": 25822,
    "Ãī": 29232,
    "ÃĹ": 13646,
    "ÃŁ": 22802,
    "Ãł": 16660,
    "ÃŃ": 6099,
    "ÃŃa": 17429,
    "ÃŃn": 29418,
    "Ä": 196,
    "Ä«": 20628,
    "Ä±": 15257,
    "Äģ": 10851,
    "Äĥ": 9401,
    "Äĩ": 15062,
    "Äį": 15044,
    "ÄŁ": 20708,
    "ÄŁan": 31314,
    "Å": 197,
    "Å¡": 14063,
    "Å£": 25736,
    "Å«": 22993,
    "Å¾": 20959,
    "ÅĤ": 23682,
    "Åį": 13770,
    "ÅŁ": 21445,
    "Æ": 198,
    "Ç": 199,
    "È": 200,
    "ÈĻ": 24774,
    "ÈĽ": 25747,
    "É": 201,
    "Ê": 202,
    "Ë": 203,
    "Ì": 204,
    "Í": 205,
    "Î": 206,
    "Î±": 14709,
    "Î²": 28392,
    "Îµ": 21573,
    "Î¹": 20951,
    "Î»": 28371,
    "Î¼": 28212,
    "Î½": 17985,
    "Î¿": 18194,
    "Ï": 207,
    "Ïģ": 24184,
    "ÏĤ": 25005,
    "Ïĥ": 27537,
    "ÏĦ": 23026,
    "Ð": 208,
    "Ð°": 4730,
    "Ð°ÑĤ": 28101,
    "Ð±": 21745,
    "Ð²": 12702,
    "Ð³": 22574,
    "Ð´": 13451,
    "Ðµ": 4732,
    "ÐµÐ½": 18787,
    "ÐµÑĢ": 29565,
    "ÐµÑĤ": 24006,
    "Ð¶": 27010,
    "Ð·": 19023,
    "Ð¸": 5512,
    "Ð¸ÑĤ": 29543,
    "Ð¹": 20751,
    "Ðº": 10546,
    "Ð»": 9139,
    "Ð»Ð°": 30243,
    "Ð»Ð¸": 24536,
    "Ð¼": 12788,
    "Ð½": 6642,
    "Ð½Ð°": 28905,
    "Ð½Ð¸": 25058,
    "Ð½Ð¾": 27859,
    "Ð½Ñĭ": 29432,
    "Ð¾": 4188,
    "Ð¾Ð": 7091,
    "Ð¾Ð²": 19007,
    "Ð¾Ð³": 28291,
    "Ð¾Ð´": 27725,
    "Ð¾Ð¹": 31541,
    "Ð¾Ð»": 24416,
    "Ð¾Ð¼": 24914,
    "Ð¿": 20873,
    "Ñ": 209,
    "ÑĢ": 6658,
    "ÑĢÐ°": 17713,
    "ÑĢÐµ": 22874,
    "ÑĢÐ¸": 26018,
    "ÑĢÐ¾": 31540,
    "Ñģ": 6417,
    "ÑģÐº": 28110,
    "ÑģÑĤ": 17117,
    "ÑĤ": 5574,
    "ÑĤÐ¾": 21463,
    "Ñĥ": 10420,
    "Ñħ": 20603,
    "ÑĨ": 28592,
    "Ñĩ": 15714,
    "ÑĪ": 24747,
    "Ñĭ": 13217,
    "ÑĮ": 13806,
    "Ñİ": 24070,
    "Ñı": 12601,
    "Ò": 210,
    "Ó": 211,
    "Ô": 212,
    "Õ": 213,
    "Ö": 214,
    "×": 215,
    "×Ļ": 30434,
    "Ø": 216,
    "Ø§": 10144,
    "Ø§Ø": 24870,
    "Ø§ÙĦ": 20169,
    "Ø¨": 30142,
    "Øª": 28436,
    "Ø¯": 27711,
    "Ø±": 19197,
    "Ù": 217,
    "ÙĦ": 12314,
    "Ùħ": 20216,
    "ÙĨ": 17633,
    "Ùĩ": 25152,
    "ÙĪ": 23201,
    "ÙĬ": 17705,
    "Ùİ": 17781,
    "ÙĲ": 29108,
    "Ú": 218,
    "Û": 219,
    "Ü": 220,
    "Ý": 221,
    "Þ": 222,
    "ß": 223,
    "à": 224,
    "à¤": 10424,
    "à¥": 22059,
    "à¦": 30321,
    "à²": 24643,
    "à´": 28297,
    "à¸": 10831,
    "à¹": 29193,
    "á": 225,
    "á¹": 24967,
    "â": 226,
    "âĢ": 291,
    "âĢ¢": 4116,
    "âĢ¢âĢ¢": 16423,
    "âĢ¢âĢ¢âĢ¢âĢ¢": 26773,
    "âĢ¦": 1533,
    "âĢ¦\"": 24878,
    "âĢ¦.": 10473,
    "âĢ¦]": 21560,
    "âĢ¦âĢ¦": 12873,
    "âĢ¦âĢ¦âĢ¦âĢ¦": 25219,
    "âĢ¦âĢĿ": 14412,
    "âĢ²": 20030,
    "âĢ³": 11879,
    "âĢĭ": 12357,
    "âĢĲ": 10150,
    "âĢĵ": 1743,
    "âĢĵâĢĵ": 18834,
    "âĢĶ": 914,
    "âĢĶâĢĶ": 4789,
    "âĢĶâĢĶâĢĶâĢĶ": 8463,
    "âĢĶâĢĶâĢĶâĢĶâĢĶâĢĶâĢĶâĢĶ": 15279,
    "âĢĶâĢĶâĢĶâĢĶâĢĶâĢĶâĢĶâĢĶâĢĶâĢĶâĢĶâĢĶâĢĶâĢĶâĢĶâĢĶ": 31274,
    "âĢĶâĢľ": 29955,
    "âĢĺ": 4757,
    "âĢĻ": 330,
    "âĢĻ)": 30702,
    "âĢĻ,": 7702,
    "âĢĻ.": 6822,
    "âĢľ": 710,
    "âĢľ[": 24913,
    "âĢĿ": 407,
    "âĢĿ)": 11363,
    "âĢĿ),": 19218,
    "âĢĿ).": 17415,
    "âĢĿ,": 3988,
    "âĢĿ.": 2917,
    "âĢĿ:": 16363,
    "âĢĿ;": 19629,
    "âĢĿ?": 17519,
    "âĢĿâĢĶ": 14783,
    "âĤ¬": 11528,
    "âĤ¬âĦ¢": 25509,
    "âĦ": 12241,
    "âĦ¢": 12493,
    "âĨ": 31929,
    "âĪ": 25428,
    "âĪĴ": 13353,
    "âĶ": 9362,
    "âĶĢ": 10142,
    "âĶĢâĶĢ": 11444,
    "âĶĢâĶĢâĶĢâĶĢ": 20310,
    "âķ": 31607,
    "âĸ": 7150,
    "âĸĪ": 11550,
    "âĸĪâĸĪ": 13883,
    "âĸĪâĸĪâĸĪâĸĪ": 27215,
    "âĸĳ": 30155,
    "âĸł": 28391,
    "âĹ": 22966,
    "âĹı": 31260,
    "âĺ": 21504,
    "âĺħ": 26554,
    "âĻ": 17812,
    "ã": 227,
    "ãĢ": 7575,
    "ãĢģ": 16964,
    "ãĢĤ": 14812,
    "ãĢĮ": 31699,
    "ãĢį": 31693,
    "ãģ": 2707,
    "ãģ£": 26169,
    "ãģ¦": 19806,
    "ãģ§": 19278,
    "ãģ¨": 20055,
    "ãģª": 20516,
    "ãģ«": 19099,
    "ãģ®": 13108,
    "ãģ¯": 20795,
    "ãģ¾": 24788,
    "ãģĦ": 16126,
    "ãģĨ": 27001,
    "ãģĭ": 24979,
    "ãģĮ": 22973,
    "ãģĵ": 31381,
    "ãģĹ": 18936,
    "ãģĻ": 22208,
    "ãģŁ": 20296,
    "ãĤ": 4646,
    "ãĤ¤": 31865,
    "ãĤ¹": 30849,
    "ãĤĤ": 30890,
    "ãĤī": 30916,
    "ãĤĭ": 19757,
    "ãĤĮ": 28181,
    "ãĤĴ": 22036,
    "ãĤĵ": 30187,
    "ãĥ": 5190,
    "ãĥ³": 23568,
    "ãĥ¼": 18364,
    "ãĥ¼ãĥ": 31006,
    "ãħ": 25296,
    "ä": 228,
    "ä¸": 14197,
    "äº": 19652,
    "ä»": 25596,
    "ä½": 27633,
    "å": 229,
    "å¤": 22933,
    "å®": 26282,
    "åħ": 23980,
    "åĪ": 30085,
    "åı": 24653,
    "åĲ": 26794,
    "æ": 230,
    "æľ": 21392,
    "ç": 231,
    "çĶ": 26345,
    "çļ": 25131,
    "çļĦ": 26156,
    "è": 232,
    "é": 233,
    "ê": 234,
    "ë": 235,
    "ëĭ": 31143,
    "ì": 236,
    "ìĿ": 20492,
    "í": 237,
    "íķ": 28457,
    "î": 238,
    "îĢ": 30690,
    "ï": 239,
    "ï¼": 10634,
    "ï¼Į": 26535,
    "ï½": 26718,
    "ï¿": 6622,
    "ï¿½": 6865,
    "ï¿½ï¿½": 17759,
    "ð": 240,
    "ðŁ": 10523,
    "ñ": 241,
    "ò": 242,
    "ó": 243,
    "ô": 244,
    "õ": 245,
    "ö": 246,
    "÷": 247,
    "ø": 248,
    "ù": 249,
    "ú": 250,
    "û": 251,
    "ü": 252,
    "ý": 253,
    "þ": 254,
    "ÿ": 255,
    "Ā": 0,
    "ā": 1,
    "Ă": 2,
    "ă": 3,
    "Ą": 4,
    "ą": 5,
    "Ć": 6,
    "ć": 7,
    "Ĉ": 8,
    "ĉ": 9,
    "Ċ": 10,
    "ċ": 11,
    "Č": 12,
    "č": 13,
    "Ď": 14,
    "ď": 15,
    "Đ": 16,
    "đ": 17,
    "Ē": 18,
    "ē": 19,
    "Ĕ": 20,
    "ĕ": 21,
    "Ė": 22,
    "ė": 23,
    "Ę": 24,
    "ę": 25,
    "Ě": 26,
    "ě": 27,
    "Ĝ": 28,
    "ĝ": 29,
    "Ğ": 30,
    "ğ": 31,
    "Ġ": 32,
    "Ġ!": 10020,
    "Ġ!=": 25217,
    "Ġ\"": 488,
    "Ġ\"\"": 26810,
    "Ġ\"...": 30967,
    "Ġ\"/": 30031,
    "Ġ\"[": 19537,
    "Ġ#": 1882,
    "Ġ##": 28305,
    "Ġ$": 759,
    "Ġ%": 7408,
    "Ġ&": 1797,
    "Ġ&&": 20918,
    "Ġ'": 1180,
    "Ġ''": 13369,
    "Ġ(": 397,
    "Ġ(\"": 10022,
    "Ġ(#": 22476,
    "Ġ($": 7460,
    "Ġ('": 31966,
    "Ġ((": 23968,
    "Ġ()": 13115,
    "Ġ();": 31883,
    "Ġ(+": 17623,
    "Ġ(-": 17230,
    "Ġ(.": 20484,
    "Ġ(@": 3433,
    "Ġ(Â£": 17166,
    "Ġ(âĢľ": 8925,
    "Ġ)": 2184,
    "Ġ))": 25655,
    "Ġ),": 15061,
    "Ġ).": 10130,
    "Ġ):": 23462,
    "Ġ);": 11854,
    "Ġ*": 3354,
    "Ġ**": 18798,
    "Ġ***": 28370,
    "Ġ*/": 19027,
    "Ġ+": 2628,
    "Ġ+=": 29391,
    "Ġ,": 1664,
    "Ġ-": 663,
    "Ġ--": 1452,
    "Ġ---": 20270,
    "Ġ-->": 23174,
    "Ġ->": 7906,
    "Ġ.": 1209,
    "Ġ..": 19624,
    "Ġ...": 3183,
    "Ġ....": 28065,
    "Ġ..........": 31640,
    "Ġ./": 31570,
    "Ġ/": 2051,
    "Ġ/*": 23352,
    "Ġ//": 5813,
    "Ġ/>": 25906,
    "Ġ0": 1103,
    "Ġ00": 8237,
    "Ġ000": 20851,
    "Ġ01": 13104,
    "Ġ02": 14794,
    "Ġ03": 16319,
    "Ġ04": 17149,
    "Ġ05": 17406,
    "Ġ06": 18517,
    "Ġ07": 16649,
    "Ġ08": 17161,
    "Ġ09": 16989,
    "Ġ1": 384,
    "Ġ10": 1035,
    "Ġ100": 2261,
    "Ġ1000": 11320,
    "Ġ101": 14146,
    "Ġ102": 20909,
    "Ġ103": 21742,
    "Ġ104": 20963,
    "Ġ105": 18269,
    "Ġ106": 22010,
    "Ġ107": 22701,
    "Ġ108": 22732,
    "Ġ1080": 19583,
    "Ġ109": 23212,
    "Ġ11": 1725,
    "Ġ110": 13903,
    "Ġ111": 19410,
    "Ġ112": 22859,
    "Ġ113": 25517,
    "Ġ114": 24389,
    "Ġ115": 20197,
    "Ġ116": 25697,
    "Ġ117": 25962,
    "Ġ118": 26539,
    "Ġ119": 23618,
    "Ġ12": 1511,
    "Ġ120": 9711,
    "Ġ1200": 28949,
    "Ġ121": 27930,
    "Ġ122": 27616,
    "Ġ123": 24412,
    "Ġ124": 28614,
    "Ġ125": 16636,
    "Ġ126": 29087,
    "Ġ127": 26059,
    "Ġ128": 18369,
    "Ġ129": 29302,
    "Ġ13": 2061,
    "Ġ130": 13852,
    "Ġ131": 31638,
    "Ġ132": 29795,
    "Ġ133": 30639,
    "Ġ134": 31375,
    "Ġ135": 23434,
    "Ġ137": 31273,
    "Ġ138": 31075,
    "Ġ14": 2004,
    "Ġ140": 15206,
    "Ġ144": 28262,
    "Ġ145": 26971,
    "Ġ15": 1660,
    "Ġ150": 7599,
    "Ġ1500": 23589,
    "Ġ155": 27684,
    "Ġ16": 1919,
    "Ġ160": 16451,
    "Ġ1600": 28709,
    "Ġ165": 29018,
    "Ġ17": 2063,
    "Ġ170": 20240,
    "Ġ175": 23989,
    "Ġ18": 1479,
    "Ġ180": 13969,
    "Ġ1800": 20924,
    "Ġ185": 27607,
    "Ġ1880": 30490,
    "Ġ1890": 28788,
    "Ġ19": 689,
    "Ġ190": 24620,
    "Ġ1900": 19315,
    "Ġ1910": 26732,
    "Ġ1911": 30040,
    "Ġ1912": 29487,
    "Ġ1913": 30957,
    "Ġ1914": 24094,
    "Ġ1915": 27040,
    "Ġ1916": 26206,
    "Ġ1917": 22079,
    "Ġ1918": 24288,
    "Ġ1919": 26926,
    "Ġ192": 26846,
    "Ġ1920": 13685,
    "Ġ1921": 30192,
    "Ġ1922": 30285,
    "Ġ1923": 31972,
    "Ġ1924": 31017,
    "Ġ1925": 31692,
    "Ġ1928": 30298,
    "Ġ1929": 26518,
    "Ġ1930": 12577,
    "Ġ1931": 30873,
    "Ġ1932": 28103,
    "Ġ1933": 23735,
    "Ġ1934": 26970,
    "Ġ1935": 27657,
    "Ġ1936": 24794,
    "Ġ1937": 25641,
    "Ġ1938": 24299,
    "Ġ1939": 21180,
    "Ġ1940": 13995,
    "Ġ1941": 20231,
    "Ġ1942": 21497,
    "Ġ1943": 22483,
    "Ġ1944": 19894,
    "Ġ1945": 16287,
    "Ġ1946": 22989,
    "Ġ1947": 20398,
    "Ġ1948": 18724,
    "Ġ1949": 22719,
    "Ġ195": 5655,
    "Ġ1950": 9747,
    "Ġ1951": 24267,
    "Ġ1952": 23558,
    "Ġ1953": 22332,
    "Ġ1954": 21916,
    "Ġ1955": 22507,
    "Ġ1956": 21680,
    "Ġ1957": 22306,
    "Ġ1958": 21577,
    "Ġ1959": 20860,
    "Ġ196": 3719,
    "Ġ1960": 7916,
    "Ġ1961": 18443,
    "Ġ1962": 18002,
    "Ġ1963": 17291,
    "Ġ1964": 15922,
    "Ġ1965": 15912,
    "Ġ1966": 17054,
    "Ġ1967": 13862,
    "Ġ1968": 14010,
    "Ġ1969": 14797,
    "Ġ197": 2664,
    "Ġ1970": 6810,
    "Ġ1971": 15152,
    "Ġ1972": 14337,
    "Ġ1973": 14258,
    "Ġ1974": 15049,
    "Ġ1975": 14194,
    "Ġ1976": 14138,
    "Ġ1977": 14949,
    "Ġ1978": 14414,
    "Ġ1979": 12385,
    "Ġ198": 2273,
    "Ġ1980": 6005,
    "Ġ1981": 13724,
    "Ġ1982": 13284,
    "Ġ1983": 13259,
    "Ġ1984": 11769,
    "Ġ1985": 12442,
    "Ġ1986": 11797,
    "Ġ1987": 12342,
    "Ġ1988": 11596,
    "Ġ1989": 10510,
    "Ġ199": 1629,
    "Ġ1990": 5554,
    "Ġ1991": 10050,
    "Ġ1992": 9455,
    "Ġ1993": 9733,
    "Ġ1994": 8941,
    "Ġ1995": 8792,
    "Ġ1996": 8386,
    "Ġ1997": 8380,
    "Ġ1998": 7958,
    "Ġ1999": 7435,
    "Ġ2": 394,
    "Ġ20": 535,
    "Ġ200": 868,
    "Ġ2000": 4917,
    "Ġ2001": 5812,
    "Ġ2002": 6277,
    "Ġ2003": 5714,
    "Ġ2004": 5266,
    "Ġ2005": 4809,
    "Ġ2006": 4407,
    "Ġ2007": 3967,
    "Ġ2008": 3139,
    "Ġ2009": 3196,
    "Ġ201": 588,
    "Ġ2010": 2706,
    "Ġ2011": 2581,
    "Ġ2012": 2223,
    "Ġ2013": 2141,
    "Ġ2014": 1944,
    "Ġ2015": 1881,
    "Ġ2016": 1804,
    "Ġ2017": 2255,
    "Ġ2018": 4854,
    "Ġ2019": 8518,
    "Ġ202": 30701,
    "Ġ2020": 9051,
    "Ġ2021": 28165,
    "Ġ2022": 26411,
    "Ġ2025": 26371,
    "Ġ2030": 20090,
    "Ġ205": 29572,
    "Ġ2050": 25384,
    "Ġ21": 2875,
    "Ġ210": 26523,
    "Ġ215": 26176,
    "Ġ22": 2896,
    "Ġ220": 21245,
    "Ġ225": 26332,
    "Ġ23": 2998,
    "Ġ230": 23163,
    "Ġ24": 2479,
    "Ġ240": 20347,
    "Ġ25": 2281,
    "Ġ250": 9799,
    "Ġ255": 30540,
    "Ġ256": 23845,
    "Ġ26": 3357,
    "Ġ260": 27106,
    "Ġ27": 3269,
    "Ġ270": 26604,
    "Ġ28": 3360,
    "Ġ280": 27226,
    "Ġ29": 3705,
    "Ġ3": 635,
    "Ġ30": 1831,
    "Ġ300": 6266,
    "Ġ3000": 24650,
    "Ġ31": 4405,
    "Ġ32": 5072,
    "Ġ320": 26859,
    "Ġ33": 6232,
    "Ġ330": 29896,
    "Ġ34": 6623,
    "Ġ35": 4417,
    "Ġ350": 15197,
    "Ġ36": 5841,
    "Ġ360": 11459,
    "Ġ365": 26321,
    "Ġ37": 6385,
    "Ġ38": 6515,
    "Ġ39": 7070,
    "Ġ4": 736,
    "Ġ40": 2772,
    "Ġ400": 7681,
    "Ġ401": 29575,
    "Ġ41": 8022,
    "Ġ42": 7250,
    "Ġ43": 8078,
    "Ġ44": 7821,
    "Ġ45": 5093,
    "Ġ450": 21224,
    "Ġ46": 8049,
    "Ġ47": 7961,
    "Ġ48": 6620,
    "Ġ480": 31354,
    "Ġ49": 6526,
    "Ġ5": 777,
    "Ġ50": 2370,
    "Ġ500": 5516,
    "Ġ5000": 29706,
    "Ġ501": 31090,
    "Ġ51": 8823,
    "Ġ512": 27950,
    "Ġ52": 8649,
    "Ġ53": 9369,
    "Ġ54": 9668,
    "Ġ55": 7482,
    "Ġ550": 29581,
    "Ġ56": 9926,
    "Ġ57": 10254,
    "Ġ58": 10336,
    "Ġ59": 10870,
    "Ġ6": 936,
    "Ġ60": 3549,
    "Ġ600": 10479,
    "Ġ61": 11549,
    "Ġ62": 10913,
    "Ġ63": 11156,
    "Ġ64": 7541,
    "Ġ65": 7589,
    "Ġ650": 25877,
    "Ġ66": 10872,
    "Ġ67": 11526,
    "Ġ68": 11543,
    "Ġ69": 12439,
    "Ġ7": 1052,
    "Ġ70": 4650,
    "Ġ700": 12252,
    "Ġ71": 13054,
    "Ġ72": 10668,
    "Ġ720": 31137,
    "Ġ73": 12763,
    "Ġ74": 12774,
    "Ġ75": 6731,
    "Ġ750": 22182,
    "Ġ76": 12011,
    "Ġ77": 12460,
    "Ġ78": 12957,
    "Ġ79": 13839,
    "Ġ8": 1112,
    "Ġ80": 4302,
    "Ġ800": 10725,
    "Ġ81": 14228,
    "Ġ82": 13127,
    "Ġ83": 14350,
    "Ġ84": 14325,
    "Ġ85": 10305,
    "Ġ86": 14487,
    "Ġ87": 14568,
    "Ġ88": 13492,
    "Ġ89": 15372,
    "Ġ9": 1145,
    "Ġ90": 4468,
    "Ġ900": 16794,
    "Ġ91": 15644,
    "Ġ911": 14876,
    "Ġ92": 15013,
    "Ġ93": 14885,
    "Ġ94": 15638,
    "Ġ95": 9331,
    "Ġ96": 14534,
    "Ġ97": 14611,
    "Ġ978": 27453,
    "Ġ98": 14220,
    "Ġ99": 9860,
    "Ġ:": 2074,
    "Ġ:)": 16194,
    "Ġ::": 13610,
    "Ġ:=": 24953,
    "Ġ;": 4161,
    "Ġ<": 2674,
    "Ġ<-": 27448,
    "Ġ</": 11360,
    "Ġ<<": 22443,
    "Ġ=": 1398,
    "Ġ==": 11773,
    "Ġ=>": 5329,
    "Ġ>": 3536,
    "Ġ>>": 14898,
    "Ġ>>>": 19636,
    "Ġ?": 9787,
    "Ġ@": 2803,
    "ĠA": 331,
    "ĠAA": 19914,
    "ĠAAA": 24158,
    "ĠAAP": 25033,
    "ĠAB": 13560,
    "ĠABC": 8156,
    "ĠAC": 8865,
    "ĠACA": 23485,
    "ĠACC": 17405,
    "ĠACL": 14309,
    "ĠACLU": 18230,
    "ĠACT": 24349,
    "ĠAD": 7668,
    "ĠADHD": 27687,
    "ĠAF": 17719,
    "ĠAFC": 22545,
    "ĠAFL": 18200,
    "ĠAFP": 11620,
    "ĠAG": 16727,
    "ĠAHL": 24655,
    "ĠAI": 8943,
    "ĠAIDS": 18700,
    "ĠAJ": 26494,
    "ĠAK": 17223,
    "ĠAL": 6643,
    "ĠALL": 14935,
    "ĠAM": 4429,
    "ĠAMC": 27929,
    "ĠAMD": 13664,
    "ĠAN": 10068,
    "ĠAND": 8295,
    "ĠANY": 23983,
    "ĠAP": 4047,
    "ĠAPI": 8506,
    "ĠAPIs": 20755,
    "ĠAR": 7380,
    "ĠARE": 19847,
    "ĠARM": 21530,
    "ĠAS": 7943,
    "ĠAT": 6207,
    "ĠATM": 28527,
    "ĠAU": 27046,
    "ĠAV": 20065,
    "ĠAW": 23534,
    "ĠAWS": 22236,
    "ĠAZ": 28405,
    "ĠAad": 28715,
    "ĠAaron": 10714,
    "ĠAb": 2353,
    "ĠAbb": 8986,
    "ĠAbbas": 21312,
    "ĠAbbey": 28899,
    "ĠAbbott": 12416,
    "ĠAbd": 11460,
    "ĠAbdel": 27644,
    "ĠAbdul": 18322,
    "ĠAbdullah": 20228,
    "ĠAbe": 20971,
    "ĠAber": 23978,
    "ĠAboriginal": 25045,
    "ĠAbout": 8091,
    "ĠAbove": 24881,
    "ĠAbr": 18057,
    "ĠAbraham": 17220,
    "ĠAbrams": 26183,
    "ĠAbs": 15661,
    "ĠAbsolutely": 25467,
    "ĠAbstract": 25954,
    "ĠAbu": 11415,
    "ĠAbuse": 26885,
    "ĠAby": 31644,
    "ĠAc": 4705,
    "ĠAcadem": 7182,
    "ĠAcademy": 7925,
    "ĠAcc": 8603,
    "ĠAccept": 30283,
    "ĠAccess": 10274,
    "ĠAccording": 4111,
    "ĠAccount": 14789,
    "ĠAccountability": 31183,
    "ĠAce": 22489,
    "ĠAch": 24550,
    "ĠAchie": 28216,
    "ĠAcross": 27422,
    "ĠAct": 2735,
    "ĠAction": 8418,
    "ĠActiv": 16358,
    "ĠActive": 21040,
    "ĠActor": 25287,
    "ĠActually": 18265,
    "ĠAd": 1465,
    "ĠAdam": 7271,
    "ĠAdams": 10726,
    "ĠAdd": 4319,
    "ĠAdded": 16953,
    "ĠAdding": 27606,
    "ĠAdditional": 21816,
    "ĠAdditionally": 12044,
    "ĠAddress": 25177,
    "ĠAdelaide": 20758,
    "ĠAdminist": 6982,
    "ĠAdministration": 7985,
    "ĠAdministrator": 31040,
    "ĠAdmir": 21620,
    "ĠAdmiral": 24799,
    "ĠAdobe": 21059,
    "ĠAdolf": 29621,
    "ĠAdrian": 18505,
    "ĠAdult": 26740,
    "ĠAdv": 8825,
    "ĠAdvance": 27808,
[...]
